ffffffed
00000019
0000000e
0000006a
fffffd6e
ffffff8e
ffffffad
ffffffc5
ffffffa7
ffffffc3
ffffff9d
ffffffa4
ffffffad
ffffffa2
ffffffa6
ffffffaf
ffffffac
ffffffad
ffffffae
ffffffbb
ffffffb1
ffffffa5
ffffffba
ffffffb8
ffffffaa
ffffffbe
ffffffc9
ffffffb3
ffffffa9
ffffff9f
ffffffa9
ffffffb8
ffffff9a
ffffffa8
ffffffbc
ffffffb8
ffffff9e
ffffffbc
ffffffd8
ffffffc9
ffffffa7
ffffff9b
ffffffac
ffffffa4
ffffffb4
ffffffa6
ffffff9f
ffffffb1
ffffffad
ffffffa4
ffffff9b
ffffffaf
ffffffa4
ffffffa8
ffffffa8
ffffffb2
ffffffa2
ffffffc0
ffffffb7
ffffffbc
ffffffa3
ffffff97
ffffff9d
ffffffa3
ffffffae
fffffffc
0000003c
ffffffec
0000004e
fffffdf9
ffffffa0
ffffffc8
ffffff9c
ffffffb7
ffffffd2
ffffffcb
ffffff7c
ffffff91
ffffffcd
ffffff99
ffffffc6
ffffffc1
ffffffaa
ffffffa3
ffffffaf
ffffffac
ffffffd4
ffffffcc
ffffffb1
ffffff9b
ffffffc9
ffffffbc
ffffffc0
ffffff93
ffffff93
ffffffa8
ffffffce
ffffff9b
ffffffe0
ffffffef
ffffffa3
ffffff92
ffffffbd
ffffffdf
ffffffda
ffffffbd
ffffff90
ffffff87
ffffffb6
ffffffe3
ffffff99
ffffff94
ffffffa0
ffffffa6
ffffffb3
ffffffa2
ffffff9e
ffffffc9
ffffff96
ffffffb7
ffffffda
ffffffbd
ffffffaa
ffffffd5
ffffffb5
ffffffb8
ffffff9f
ffffffa8
ffffffaf
ffffff9c
00000013
00000009
ffffff3a
00000021
fffffc0b
ffffffcd
ffffff8e
ffffff49
ffffffcc
ffffffc8
fffffff0
ffffff8f
ffffffbd
00000073
ffffff9e
ffffffe5
ffffffd1
ffffffb8
ffffffd0
ffffff80
ffffffca
ffffffda
fffffff7
ffffffd9
ffffffa2
ffffff99
ffffffa4
ffffffe9
ffffffc9
ffffff8d
ffffffe3
ffffffcf
ffffffb1
ffffffec
fffffffc
ffffff94
ffffffcf
ffffffb2
ffffffa9
ffffffb9
ffffffe6
ffffffc4
ffffffc3
ffffffe3
00000010
ffffffbb
ffffffc2
fffffff4
ffffff90
ffffffcd
ffffffa4
ffffffaf
00000015
ffffffa0
ffffffbf
ffffffce
00000028
ffffff6a
ffffffb9
ffffffdb
fffffffa
ffffff93
00000000
ffffffe8
ffffff75
