00000001
00000000
ffffffff
00000001
ffffffff
00000003
fffffffe
fffffff8
00000000
fffffffd
fffffffa
00000000
00000000
fffffffa
fffffffc
fffffffe
fffffffc
fffffffc
00000000
fffffff9
fffffffe
ffffffff
fffffffd
ffffffff
fffffffe
fffffffd
fffffffc
fffffffe
ffffffff
ffffffff
fffffffc
ffffffff
ffffffff
fffffffc
00000003
00000003
00000003
00000005
fffffffa
00000000
00000001
fffffffe
00000000
fffffffe
ffffffff
fffffffd
00000002
00000000
fffffffd
00000000
00000002
00000000
ffffffff
fffffffd
ffffffff
fffffffa
00000001
00000000
fffffff9
00000002
00000000
fffffff9
00000000
fffffffb
00000000
00000000
fffffffc
00000000
ffffffff
fffffffd
00000002
00000002
00000003
00000006
00000002
00000000
00000004
00000001
00000000
00000002
00000000
fffffffb
00000002
00000005
00000001
fffffffc
00000001
00000004
00000000
00000000
fffffffa
fffffff9
fffffffc
fffffffc
00000000
00000000
ffffffff
00000003
fffffffd
00000006
00000001
00000000
00000004
00000000
ffffffff
00000004
ffffffff
00000004
00000003
00000002
00000000
00000005
00000000
fffffffd
fffffffd
ffffffff
fffffffd
00000000
fffffff9
00000000
ffffffff
fffffffa
00000000
ffffffff
ffffffff
00000002
00000000
ffffffff
fffffffe
00000004
fffffffe
fffffffd
00000006
fffffff9
fffffffe
00000001
00000001
00000005
ffffffff
00000001
00000002
00000001
fffffffe
00000004
00000003
ffffffff
fffffffc
00000000
ffffffff
fffffffd
00000001
fffffffe
ffffffff
00000001
00000000
00000000
ffffffff
fffffff7
fffffffd
00000001
fffffffe
00000001
00000001
00000003
00000003
00000004
00000000
00000006
00000000
fffffff9
00000003
00000001
ffffffff
fffffffa
00000000
00000003
00000001
fffffffd
00000001
00000003
fffffffa
fffffffc
00000000
fffffffb
00000003
00000005
fffffffd
ffffffff
00000003
fffffffd
fffffffa
fffffffd
00000000
fffffffe
00000000
00000000
fffffffe
fffffffc
ffffffff
00000005
00000005
00000000
00000008
00000003
ffffffff
0000000b
00000000
00000000
00000000
00000001
00000002
ffffffff
00000000
00000001
fffffffc
00000001
fffffffd
fffffff5
00000000
00000000
fffffff9
ffffffff
fffffffc
fffffff8
00000000
00000000
fffffffb
fffffffd
00000002
fffffffe
00000001
00000004
00000001
00000001
00000002
0000000e
00000004
fffffffe
0000000a
00000000
ffffffff
00000001
fffffffc
00000001
00000000
fffffffc
ffffffff
fffffffe
fffffffd
fffffffa
fffffffa
ffffffff
fffffffb
00000002
00000001
fffffffd
ffffffff
00000000
fffffffe
00000005
00000001
ffffffff
fffffffd
ffffffff
00000000
fffffffe
00000000
00000007
fffffffe
fffffffc
fffffffe
fffffffc
ffffffff
fffffffe
ffffffff
00000000
00000000
00000006
00000003
00000001
fffffffd
00000000
00000002
00000007
00000000
00000006
00000005
00000000
00000004
00000004
fffffffd
00000001
ffffffff
ffffffff
00000000
00000004
fffffffd
00000006
ffffffff
00000000
00000002
00000000
fffffffc
00000001
00000001
fffffffc
00000001
00000004
fffffffd
00000003
00000002
00000000
ffffffff
00000006
fffffffe
00000003
fffffff7
fffffff8
ffffffff
fffffffb
fffffff9
00000004
00000006
fffffffd
00000000
00000002
00000008
fffffffe
fffffffe
00000005
fffffffa
fffffffc
00000004
00000009
0000000c
00000003
00000002
0000000f
00000000
00000002
00000000
fffffffd
00000001
00000002
00000000
00000000
00000000
00000000
fffffffe
fffffffd
fffffff9
00000003
00000003
00000000
00000000
fffffffe
fffffffc
00000003
fffffffd
fffffffc
00000005
00000008
00000000
ffffffff
ffffffff
00000001
00000000
fffffffe
00000000
ffffffff
fffffff9
fffffffb
00000003
00000004
00000004
00000004
00000006
00000004
ffffffff
fffffff3
fffffffb
00000002
fffffff8
00000001
ffffffff
00000001
00000000
ffffffff
00000001
00000000
ffffffff
00000001
00000000
fffffffb
00000000
fffffffd
fffffffd
fffffff7
fffffffe
ffffffff
fffffff8
00000000
fffffffe
fffffffc
00000001
00000001
00000001
00000000
00000000
fffffffe
00000001
00000003
00000000
00000007
00000000
00000010
00000002
00000001
00000003
00000000
fffffffe
00000000
00000000
fffffffd
fffffffe
fffffffd
fffffffd
fffffffd
fffffffe
fffffffd
ffffffff
00000002
00000000
ffffffff
fffffffc
00000001
00000001
ffffffff
00000000
00000002
00000001
00000000
00000001
fffffffd
00000002
fffffffd
fffffffd
ffffffff
00000000
00000002
00000001
00000001
00000001
ffffffff
fffffffe
00000000
00000004
fffffffc
00000001
fffffffb
fffffffc
fffffffb
fffffffd
fffffff5
00000000
fffffffa
fffffff7
fffffffd
fffffff7
fffffffa
00000006
00000004
00000000
ffffffff
00000007
00000000
fffffff9
ffffffff
00000004
00000003
fffffffc
ffffffff
00000000
fffffffc
fffffffd
fffffffd
fffffffe
00000006
00000001
fffffffe
00000006
fffffffd
00000000
00000002
fffffff9
fffffffe
fffffffe
fffffff9
00000000
00000002
ffffffff
00000001
00000002
ffffffff
00000000
fffffffe
ffffffff
00000003
00000001
00000006
00000001
fffffffe
00000003
00000000
00000006
00000006
ffffffff
00000007
00000004
00000000
00000005
00000009
00000000
fffffff8
fffffffe
fffffffd
fffffffb
fffffffd
00000003
00000000
00000000
00000005
00000000
00000000
fffffffe
00000000
ffffffff
ffffffff
00000000
00000002
00000003
fffffffc
ffffffff
00000000
fffffffb
fffffffd
ffffffff
fffffff9
00000000
fffffffe
fffffff9
fffffffe
fffffffd
fffffff5
fffffff9
00000004
fffffffb
fffffff9
00000001
00000007
00000000
fffffffe
00000001
00000003
00000001
00000003
00000004
00000004
00000002
00000000
fffffffe
ffffffff
00000000
fffffffb
ffffffff
fffffffe
ffffffff
fffffffe
00000000
00000004
00000007
00000002
00000001
00000007
00000000
fffffffe
00000004
00000002
00000000
00000002
00000002
ffffffff
00000004
00000005
fffffffe
00000000
00000001
00000000
00000006
00000004
ffffffff
00000002
00000000
fffffffd
fffffffc
fffffffc
fffffffe
fffffff9
fffffffa
ffffffff
fffffffd
fffffffb
ffffffff
00000000
00000000
00000000
00000003
00000000
ffffffff
00000000
ffffffff
fffffffe
00000000
fffffffe
00000000
00000000
00000000
00000000
00000000
00000000
00000000
00000002
00000000
00000002
00000004
00000006
00000003
00000007
00000004
00000001
fffffffd
ffffffff
00000004
00000002
00000000
00000003
fffffffe
fffffffd
00000001
00000006
00000000
00000002
00000000
ffffffff
fffffffe
fffffffe
fffffffb
00000001
fffffffd
fffffffe
00000000
fffffffa
fffffffd
00000002
fffffffd
ffffffff
00000003
fffffffe
ffffffff
00000003
fffffffe
00000000
00000003
00000000
00000000
00000000
fffffffd
00000000
00000000
fffffff9
00000001
00000000
00000001
00000003
ffffffff
ffffffff
00000000
00000002
00000007
00000007
00000001
00000000
00000001
ffffffff
fffffffb
fffffffc
00000000
00000000
ffffffff
00000001
00000000
00000001
00000001
fffffffd
00000003
ffffffff
fffffffa
00000000
fffffffc
fffffffd
00000000
00000001
ffffffff
00000000
00000001
00000001
00000001
00000001
00000000
00000001
fffffffe
ffffffff
fffffffe
00000000
00000001
00000002
00000000
00000003
00000001
ffffffff
00000002
00000000
00000000
00000000
fffffffd
ffffffff
fffffffc
fffffffc
00000000
00000000
00000000
00000002
fffffffb
fffffffe
00000000
ffffffff
fffffffb
00000002
00000001
fffffffd
ffffffff
00000004
00000003
ffffffff
00000001
00000000
ffffffff
fffffff8
fffffffa
fffffffe
fffffffb
fffffffb
fffffffe
ffffffff
ffffffff
00000000
00000004
00000005
00000000
00000006
00000004
00000001
00000005
00000000
00000001
00000000
00000000
00000000
fffffffe
fffffffd
00000003
fffffffd
ffffffff
00000003
00000008
00000002
00000001
00000004
00000000
00000000
00000000
fffffffe
00000000
ffffffff
ffffffff
fffffff9
fffffff6
fffffff9
fffffffc
fffffff6
fffffff6
ffffffff
fffffffe
00000000
fffffffd
fffffffb
fffffffe
00000000
00000000
ffffffff
fffffffe
fffffffe
fffffffe
fffffffe
00000002
00000001
00000000
00000000
00000002
00000003
00000000
00000001
00000000
ffffffff
fffffffe
ffffffff
fffffffe
00000000
fffffffc
00000001
00000000
00000000
00000005
00000002
00000000
00000002
00000002
fffffff9
fffffffc
fffffffb
00000000
0000000c
00000002
fffffffe
00000002
fffffffe
fffffffc
fffffffe
00000000
fffffffe
fffffffc
ffffffff
fffffffe
fffffffc
fffffffc
00000000
fffffffc
fffffffc
fffffffe
fffffffc
fffffffe
fffffffe
fffffffc
fffffffe
00000000
00000001
fffffffd
00000003
00000008
00000003
ffffffff
00000005
00000001
00000001
fffffffc
00000000
00000002
ffffffff
00000002
00000001
00000001
00000001
00000000
00000000
00000000
00000000
ffffffff
fffffffe
00000000
00000000
ffffffff
fffffffb
fffffffc
ffffffff
fffffffd
ffffffff
00000000
fffffffc
fffffffc
00000001
fffffffc
fffffffd
00000002
00000001
00000001
00000005
fffffffd
00000000
00000004
ffffffff
fffffffe
00000000
00000000
00000001
00000001
00000001
00000000
00000000
00000004
00000002
00000000
00000000
00000000
fffffffd
00000000
ffffffff
00000000
00000004
fffffffe
fffffffc
ffffffff
fffffff9
fffffff9
00000003
00000000
fffffffe
00000000
ffffffff
ffffffff
00000001
00000000
ffffffff
00000000
fffffffd
ffffffff
00000001
00000002
00000002
00000001
00000001
ffffffff
00000000
00000000
fffffffe
00000000
fffffffe
ffffffff
00000000
ffffffff
00000000
ffffffff
ffffffff
ffffffff
00000004
00000002
ffffffff
00000001
ffffffff
00000000
00000000
00000001
ffffffff
00000002
00000000
ffffffff
00000000
00000000
00000000
00000000
00000000
ffffffff
fffffffd
00000002
00000000
00000001
00000001
00000000
00000000
00000002
00000001
fffffffe
fffffffb
fffffffc
00000001
00000006
00000000
ffffffff
00000001
ffffffff
fffffffe
00000003
00000002
00000000
00000006
00000005
00000001
00000002
00000000
00000000
00000001
00000000
ffffffff
ffffffff
fffffffe
00000000
00000002
00000000
fffffffe
fffffff7
fffffffe
00000000
fffffff9
fffffffe
fffffffd
fffffffc
fffffffd
00000000
00000003
00000003
00000000
00000007
00000008
ffffffff
00000002
00000003
00000007
00000009
00000007
00000000
00000001
00000004
fffffffd
00000007
00000002
ffffffff
fffffffe
ffffffff
00000000
00000001
00000000
ffffffff
ffffffff
00000000
00000000
00000003
00000004
00000000
00000000
00000001
00000001
00000000
00000000
00000000
00000000
00000001
00000000
fffffffe
fffffffd
ffffffff
fffffffc
00000000
00000002
ffffffff
ffffffff
00000000
00000000
00000001
00000000
00000003
00000003
00000000
fffffffc
ffffffff
00000001
fffffffe
fffffffd
00000001
fffffffe
fffffffb
00000003
00000001
ffffffff
00000003
00000000
ffffffff
00000000
fffffffe
fffffffe
ffffffff
00000000
00000000
00000003
00000005
00000007
00000001
00000002
00000001
00000000
fffffffa
fffffff9
ffffffff
fffffffe
fffffffe
fffffffe
ffffffff
fffffffb
00000001
fffffffd
fffffffe
fffffffc
fffffffb
fffffffd
fffffffe
00000000
00000000
00000001
00000001
00000000
00000002
00000000
fffffffa
00000002
00000000
fffffffd
fffffffc
ffffffff
fffffffe
fffffffb
00000000
00000002
fffffffd
00000001
00000000
00000001
00000003
00000000
00000001
fffffffe
fffffffe
00000001
00000000
00000000
00000003
00000012
00000000
00000000
00000009
fffffffd
fffffffe
00000001
fffffffb
ffffffff
00000008
00000008
ffffffff
00000009
0000000a
00000000
00000006
00000006
fffffffb
00000004
00000000
00000000
ffffffff
00000000
00000000
fffffffe
fffffffe
00000000
fffffffc
ffffffff
ffffffff
fffffff8
fffffffe
00000003
ffffffff
00000001
00000004
0000000a
fffffffd
00000002
00000003
fffffffc
fffffffd
fffffffd
ffffffff
00000000
00000002
fffffffd
fffffffd
fffffffd
00000001
fffffffe
00000001
00000006
fffffffe
00000002
fffffffe
00000003
00000002
ffffffff
00000002
fffffffe
fffffffb
ffffffff
00000000
00000004
fffffffc
fffffffc
fffffffd
fffffffe
fffffff4
fffffff8
00000001
ffffffff
00000000
00000002
00000000
00000000
00000002
00000002
00000000
fffffffb
fffffffc
fffffffe
fffffffc
fffffff9
00000000
fffffffd
fffffffc
fffffffe
00000000
fffffffc
fffffffc
00000004
00000000
00000002
00000001
00000001
00000000
00000000
00000003
fffffffd
fffffffa
fffffff6
fffffffa
fffffffb
fffffffb
00000000
00000000
00000015
00000009
00000005
0000000a
00000003
00000002
00000000
00000002
00000000
fffffffa
00000000
fffffff9
fffffff4
ffffffff
fffffffb
fffffff6
fffffffb
00000000
fffffffc
fffffffd
ffffffff
fffffffa
fffffffa
00000000
fffffffe
00000000
fffffffe
fffffffd
fffffffd
ffffffff
fffffffe
fffffffb
00000000
00000001
00000006
00000003
00000001
00000000
00000000
00000004
00000002
fffffffe
00000001
00000001
fffffffe
fffffff7
fffffffa
fffffffb
fffffff7
fffffff8
fffffff9
fffffffd
fffffff8
fffffffb
fffffffe
fffffffe
00000001
00000000
fffffffd
00000001
00000000
fffffffe
00000002
00000000
fffffffb
00000003
ffffffff
fffffff8
00000003
00000003
00000000
ffffffff
fffffffe
00000002
fffffffd
00000001
00000002
ffffffff
00000005
00000002
00000002
0000000a
00000001
fffffffe
0000000a
fffffffe
fffffffd
00000000
fffffffa
ffffffff
fffffff2
ffffffff
00000000
fffffffd
00000003
00000000
00000000
00000000
fffffffe
00000000
fffffff7
00000000
00000001
fffffffe
00000000
fffffffe
fffffffd
00000000
0000000c
00000003
00000000
00000018
00000001
fffffffb
fffffffd
fffffff8
ffffffff
00000002
00000006
fffffffa
fffffffb
ffffffff
ffffffff
fffffffc
00000002
fffffffd
00000000
00000000
00000000
00000000
00000005
fffffffe
00000001
00000003
00000003
fffffff7
fffffffb
ffffffff
fffffff6
fffffffb
00000000
fffffffd
00000000
fffffffd
fffffffe
ffffffff
00000000
00000000
00000000
00000002
00000006
00000003
ffffffff
00000001
00000001
ffffffff
ffffffff
ffffffff
00000005
00000008
00000005
00000001
00000000
00000001
00000008
00000007
00000005
fffffffd
00000000
fffffffe
00000004
00000003
00000002
00000000
00000000
00000002
fffffffd
00000000
00000000
00000003
00000005
00000004
00000006
00000002
00000003
00000004
00000005
00000002
00000000
ffffffff
00000002
00000000
00000000
00000004
00000003
fffffff9
fffffffc
00000003
fffffffd
00000002
00000000
fffffffe
ffffffff
fffffffe
00000000
00000000
00000006
00000000
ffffffff
00000001
fffffffd
00000000
00000001
00000000
00000004
00000008
00000008
00000001
00000005
00000007
00000005
fffffffc
fffffffb
00000000
ffffffff
fffffffc
fffffffc
fffffffc
fffffff5
fffffff8
fffffffd
fffffff7
fffffffb
fffffffd
fffffffd
00000003
fffffff8
fffffffe
00000003
00000000
fffffffd
ffffffff
00000002
00000004
00000005
00000000
fffffffa
fffffffc
00000000
fffffffa
ffffffff
00000001
fffffff9
fffffff9
00000003
fffffffe
fffffffb
00000003
00000001
00000000
fffffffe
fffffffd
00000000
00000004
00000003
00000000
00000001
00000004
00000000
00000003
00000003
00000003
ffffffff
ffffffff
fffffffc
fffffffc
fffffffa
fffffffe
fffffffe
00000000
fffffffa
fffffffe
fffffffd
00000001
00000003
00000001
00000001
00000001
fffffffa
00000000
00000001
fffffffd
00000001
00000000
fffffff8
00000002
00000000
00000000
00000003
fffffffd
fffffffa
ffffffff
fffffffb
fffffff9
fffffffb
fffffffb
fffffff8
00000000
fffffffb
fffffff6
fffffffc
fffffffc
fffffffb
fffffffd
00000000
fffffffc
00000001
00000002
00000000
00000000
ffffffff
00000005
ffffffff
fffffffe
ffffffff
fffffff8
fffffffe
00000002
fffffff9
00000001
00000001
fffffffe
00000000
00000001
00000001
00000000
fffffffe
ffffffff
fffffffb
fffffff8
fffffffb
ffffffff
00000009
00000003
fffffffe
00000003
ffffffff
fffffffa
00000001
00000002
00000002
fffffffe
00000002
00000003
00000004
00000000
00000000
00000005
fffffffd
fffffffb
00000001
ffffffff
ffffffff
fffffffd
fffffffd
fffffffb
fffffffc
fffffffd
00000000
00000008
00000000
00000001
00000004
00000003
fffffffe
00000000
00000001
fffffffc
fffffffb
00000000
fffffffb
00000000
0000000a
ffffffff
00000003
00000003
00000000
fffffffd
00000002
ffffffff
fffffffc
00000000
ffffffff
fffffffc
fffffffa
fffffffe
ffffffff
00000003
fffffffd
fffffff8
00000000
ffffffff
ffffffff
00000000
ffffffff
00000004
00000003
fffffffe
00000000
00000005
ffffffff
00000001
00000003
fffffffd
fffffffe
fffffffe
fffffffa
fffffffe
00000002
fffffffd
00000000
00000003
ffffffff
00000000
00000002
fffffff9
fffffff9
fffffffb
fffffffc
fffffffb
fffffffd
fffffff6
ffffffff
fffffffc
fffffff7
fffffff6
fffffff5
fffffffe
fffffff8
fffffffb
00000001
00000000
fffffffe
00000003
00000000
fffffffa
00000001
fffffffd
fffffffb
00000000
00000001
00000000
00000001
00000001
ffffffff
00000002
00000006
00000002
00000001
ffffffff
00000000
00000004
00000008
00000002
00000000
00000007
00000001
00000001
fffffffe
00000002
fffffffe
00000000
00000003
ffffffff
00000000
00000002
fffffffe
00000001
ffffffff
fffffffe
00000000
fffffffb
00000002
00000004
00000000
00000000
00000003
00000001
00000000
00000000
00000003
00000001
00000000
fffffffd
ffffffff
00000000
00000000
00000001
00000000
fffffffd
00000001
00000000
fffffffe
00000001
fffffffc
00000002
ffffffff
fffffffb
00000002
fffffffe
ffffffff
00000002
fffffffe
fffffffd
00000003
fffffffe
00000000
00000000
00000002
00000003
00000000
00000003
00000003
00000000
00000004
00000004
00000000
00000004
00000000
fffffffe
00000000
00000000
00000003
00000000
00000000
00000000
00000002
fffffffd
ffffffff
00000000
00000000
00000001
00000000
00000000
00000003
00000003
ffffffff
00000005
ffffffff
ffffffff
00000002
ffffffff
fffffffe
00000000
00000000
fffffffd
ffffffff
00000002
00000000
fffffffc
00000002
00000000
fffffffa
00000000
00000004
fffffffc
00000004
fffffffd
00000000
00000005
ffffffff
00000000
00000003
00000001
00000000
ffffffff
fffffffb
fffffffe
00000003
00000000
00000007
ffffffff
00000002
0000000a
00000000
00000002
00000003
00000000
00000004
00000001
00000000
00000002
fffffffe
ffffffff
fffffffc
fffffffc
00000000
fffffffe
fffffffb
00000000
00000002
fffffffe
fffffffe
00000003
00000000
ffffffff
00000002
00000000
00000002
00000003
00000000
ffffffff
00000002
ffffffff
00000001
00000000
00000000
00000000
00000000
00000001
00000003
00000000
fffffffd
ffffffff
fffffffb
00000000
00000002
fffffffe
00000003
00000000
ffffffff
00000000
fffffffc
fffffffe
00000000
00000002
fffffffe
00000002
00000001
00000000
00000000
ffffffff
fffffffb
00000000
fffffff9
fffffff8
00000001
ffffffff
fffffffe
00000004
ffffffff
fffffffe
00000005
ffffffff
fffffffb
00000003
00000000
fffffffe
fffffffe
00000000
ffffffff
ffffffff
00000004
00000000
fffffffc
fffffffe
00000002
00000001
00000000
00000000
00000000
00000002
00000005
ffffffff
fffffffb
fffffffa
00000000
fffffffd
fffffffa
00000001
fffffffd
fffffff9
fffffffc
fffffffc
fffffffb
00000000
fffffffc
fffffffc
ffffffff
ffffffff
fffffffd
00000000
fffffffe
fffffffc
00000002
fffffffa
fffffffa
ffffffff
00000000
fffffffd
00000001
00000003
00000003
00000003
00000003
00000004
00000003
fffffffe
fffffffe
fffffffd
fffffffc
fffffffd
fffffffe
ffffffff
fffffffa
fffffffe
fffffffe
fffffffb
00000000
00000002
00000000
00000000
00000000
fffffffd
ffffffff
fffffffd
fffffff9
ffffffff
00000006
00000000
fffffffc
00000004
00000000
fffffffc
00000001
fffffffe
fffffffa
ffffffff
fffffffd
ffffffff
00000000
fffffffe
ffffffff
00000000
00000000
00000001
00000001
ffffffff
fffffffe
00000001
ffffffff
fffffffc
00000003
fffffffc
fffffff9
00000001
00000000
00000002
00000001
00000002
00000004
fffffffd
00000001
00000004
00000000
00000001
fffffffc
00000000
00000004
00000000
00000005
00000003
00000000
00000000
fffffffd
00000000
00000000
00000000
ffffffff
fffffffd
00000000
00000001
00000000
00000000
00000000
00000000
00000000
00000001
fffffffc
00000002
00000002
fffffffd
fffffffe
00000002
fffffffc
ffffffff
00000000
fffffffd
00000002
00000007
00000000
fffffffc
fffffff9
fffffffb
fffffffe
fffffffe
00000000
00000002
00000002
fffffffb
fffffffa
00000001
fffffff9
fffffff9
00000000
ffffffff
fffffff9
00000000
00000000
fffffffc
fffffffe
00000000
00000000
00000001
00000000
00000000
00000000
00000000
fffffffd
00000000
00000000
00000001
00000001
ffffffff
00000003
00000009
fffffffc
ffffffff
0000000a
fffffffe
00000000
00000006
fffffffc
00000000
00000004
00000000
00000002
00000001
00000000
00000000
00000000
00000003
00000001
00000006
fffffffd
fffffffd
fffffffe
00000001
00000002
00000000
00000000
00000004
ffffffff
00000001
fffffffb
fffffffd
00000002
fffffffa
00000000
00000002
fffffffc
fffffffe
00000001
ffffffff
fffffffd
00000001
fffffffc
fffffffc
00000003
ffffffff
fffffffc
00000003
fffffffd
00000000
00000000
fffffffe
ffffffff
00000000
fffffffd
00000000
00000000
fffffffe
ffffffff
fffffffd
ffffffff
00000003
fffffffc
fffffffd
00000001
00000002
00000000
00000000
fffffffe
fffffffe
00000005
00000000
00000003
00000009
00000002
fffffffe
00000000
00000001
00000003
00000004
ffffffff
00000000
00000002
00000000
00000000
fffffffe
00000000
fffffffe
00000000
00000000
00000000
fffffffc
ffffffff
fffffffc
ffffffff
00000000
fffffffe
fffffffd
00000004
00000002
00000003
00000001
00000000
00000004
00000000
00000003
ffffffff
ffffffff
00000004
fffffffe
00000001
fffffffd
00000000
fffffffe
fffffffc
00000000
00000003
fffffffb
00000002
ffffffff
ffffffff
00000000
fffffffe
fffffffc
fffffffe
ffffffff
fffffffb
fffffff8
00000000
ffffffff
00000005
00000000
00000002
00000004
ffffffff
ffffffff
00000007
00000000
00000002
fffffffe
00000000
00000000
ffffffff
00000000
00000001
00000002
00000001
00000001
00000003
00000003
00000000
00000000
00000002
ffffffff
00000000
00000000
fffffffc
00000005
00000000
fffffffa
00000000
00000003
fffffffe
00000000
ffffffff
fffffffe
00000005
00000000
00000000
00000009
ffffffff
fffffffe
00000006
00000001
fffffffe
00000000
fffffffe
fffffffd
ffffffff
00000000
00000000
ffffffff
00000000
00000001
fffffffd
00000003
00000004
fffffff9
0000000b
00000006
fffffff4
ffffffff
fffffffe
00000004
fffffffc
fffffffe
00000000
00000003
00000001
00000005
00000001
00000000
00000001
00000002
00000001
00000000
00000003
00000000
ffffffff
00000000
fffffffe
ffffffff
00000002
fffffffd
fffffffe
00000000
fffffffe
00000001
00000000
00000000
fffffffc
00000000
00000000
ffffffff
00000002
00000007
00000005
00000000
fffffffe
ffffffff
00000002
00000000
00000001
fffffffe
fffffffc
ffffffff
00000004
00000000
00000001
00000003
00000005
00000000
00000001
00000006
00000003
00000000
00000006
00000000
fffffffe
00000000
00000000
fffffffd
00000001
00000003
fffffffc
ffffffff
00000000
00000003
00000002
00000000
00000004
ffffffff
00000000
00000003
00000000
00000003
00000000
ffffffff
00000001
ffffffff
fffffffe
00000000
00000001
ffffffff
fffffffe
00000003
00000001
00000000
00000001
00000002
00000000
00000002
fffffffd
fffffffd
00000001
ffffffff
fffffffd
fffffffc
fffffffb
fffffffc
ffffffff
00000000
00000000
00000001
00000002
00000000
ffffffff
00000001
00000001
00000003
0000000a
00000001
00000000
00000008
00000003
00000000
00000001
fffffffe
00000001
00000005
00000005
00000000
00000004
00000001
00000000
00000000
ffffffff
00000001
fffffffc
ffffffff
00000004
fffffffe
00000000
00000003
fffffffd
ffffffff
00000000
00000000
fffffffe
00000002
fffffffd
00000000
fffffffe
fffffffc
00000000
ffffffff
00000005
00000001
00000000
fffffffe
00000001
fffffffd
fffffffc
00000000
fffffffc
fffffffc
00000002
ffffffff
00000000
00000002
00000000
00000000
00000000
00000001
00000000
fffffffe
ffffffff
ffffffff
fffffffc
fffffffe
00000000
fffffffe
fffffffe
fffffffa
fffffffa
fffffffc
fffffffe
ffffffff
fffffffc
fffffffd
00000001
00000002
00000008
00000004
00000000
00000000
00000003
00000000
fffffffa
ffffffff
00000006
00000008
00000003
00000001
00000005
00000003
ffffffff
fffffffe
00000000
fffffffe
ffffffff
00000001
00000000
ffffffff
00000001
00000000
fffffffe
fffffffd
00000000
00000000
00000002
00000000
fffffffe
00000002
ffffffff
ffffffff
00000000
00000003
00000004
00000001
00000005
00000007
00000003
00000000
00000000
fffffffc
fffffffd
fffffffa
00000000
00000004
ffffffff
00000001
00000001
00000001
00000001
00000004
00000002
00000004
00000000
fffffffc
fffffffe
00000000
fffffffc
ffffffff
00000000
00000005
00000001
00000002
00000004
ffffffff
00000006
00000004
fffffffe
00000000
00000000
ffffffff
00000002
00000005
00000004
ffffffff
00000003
00000000
00000000
fffffffe
fffffffd
ffffffff
fffffffc
00000001
00000000
ffffffff
00000004
fffffffe
fffffffc
00000000
00000000
ffffffff
00000001
fffffffd
00000000
00000003
fffffffd
00000000
00000000
00000003
00000001
00000005
00000002
fffffffd
ffffffff
00000004
00000002
00000002
00000001
00000006
00000003
fffffffe
00000001
00000005
fffffffe
ffffffff
ffffffff
00000001
00000003
00000003
fffffffd
00000005
00000002
00000001
00000000
fffffffd
00000000
00000001
fffffffe
00000000
fffffffe
00000000
00000001
ffffffff
00000001
00000006
00000000
00000001
00000003
fffffffd
fffffffd
fffffffe
fffffffb
00000000
ffffffff
fffffffc
00000002
ffffffff
fffffffe
fffffffd
00000002
00000000
00000000
00000006
00000005
00000000
00000003
00000001
00000001
00000002
fffffffe
00000001
00000000
00000000
00000003
fffffffc
fffffffb
00000002
00000000
ffffffff
00000002
fffffffe
00000003
00000001
00000000
00000005
00000000
fffffffb
fffffff8
00000000
ffffffff
fffffff7
fffffffc
fffffffe
fffffff9
fffffffb
00000000
00000004
00000001
fffffffe
00000002
00000002
00000001
ffffffff
00000001
ffffffff
ffffffff
00000001
00000001
00000001
00000004
00000000
ffffffff
fffffffd
ffffffff
ffffffff
fffffffd
fffffffe
fffffffe
00000000
00000001
ffffffff
fffffffe
fffffffb
fffffff9
fffffffd
00000000
fffffffb
fffffffd
00000001
fffffff9
ffffffff
00000006
00000007
00000000
00000001
00000005
00000001
ffffffff
00000004
00000001
00000001
fffffffe
00000000
00000001
fffffffc
00000000
fffffffe
fffffffd
fffffffd
fffffffd
fffffffd
00000001
ffffffff
fffffffd
ffffffff
ffffffff
fffffffe
00000004
00000000
fffffffe
fffffff9
00000000
fffffffd
fffffffd
00000000
00000000
00000000
00000002
fffffff9
ffffffff
00000004
fffffffc
00000000
00000000
fffffff8
fffffffc
ffffffff
00000000
ffffffff
fffffffc
fffffffe
ffffffff
00000000
00000005
00000008
00000001
fffffffc
ffffffff
00000002
00000001
00000000
00000001
ffffffff
00000001
00000000
00000000
ffffffff
00000000
00000000
00000000
ffffffff
00000000
00000000
00000004
00000006
fffffffd
00000000
fffffffe
00000000
00000000
fffffffd
00000002
fffffff9
00000001
00000004
fffffffe
00000000
00000000
00000003
fffffffa
fffffffc
00000001
00000001
00000002
00000000
ffffffff
fffffffd
00000001
fffffffe
00000000
fffffffb
fffffffd
00000004
ffffffff
00000001
00000001
ffffffff
00000000
00000001
ffffffff
fffffffd
00000001
ffffffff
ffffffff
00000004
ffffffff
ffffffff
00000001
00000000
00000004
00000002
00000000
fffffffc
ffffffff
00000002
fffffff7
ffffffff
00000006
00000004
00000001
00000004
00000005
00000003
00000001
00000002
00000001
00000000
fffffffd
fffffffd
00000001
fffffffd
00000000
00000001
00000000
fffffffe
00000003
00000000
fffffffe
00000001
00000001
00000000
00000002
fffffffd
ffffffff
00000003
00000007
00000003
fffffffb
fffffffa
fffffffb
00000000
fffffffa
00000000
fffffffc
fffffffd
00000001
00000006
00000002
fffffffc
0000000c
00000006
fffffffb
fffffffe
fffffffa
fffffffb
00000001
fffffff9
00000000
00000000
ffffffff
00000000
00000000
fffffffe
fffffffd
00000000
fffffffb
ffffffff
00000001
00000000
00000005
00000000
fffffffe
00000000
ffffffff
fffffff9
fffffffb
00000000
00000000
fffffffc
00000000
00000004
00000001
fffffffd
00000000
00000000
fffffffe
ffffffff
fffffffe
00000001
fffffffe
00000000
00000000
fffffff9
fffffffd
00000000
fffffffe
00000001
00000005
00000000
00000002
00000002
fffffffb
00000000
00000001
fffffffa
00000000
fffffffc
00000002
ffffffff
fffffffc
00000000
00000002
00000000
00000000
fffffffd
00000001
00000001
ffffffff
00000000
fffffffd
fffffffb
00000000
ffffffff
ffffffff
00000000
00000001
00000002
00000003
00000002
00000002
00000003
00000006
00000004
00000000
00000003
00000002
00000000
00000002
00000000
00000000
fffffffe
00000000
fffffffe
ffffffff
ffffffff
fffffffe
00000004
00000000
fffffffd
00000002
00000000
00000000
fffffffc
ffffffff
ffffffff
fffffffb
00000000
00000000
ffffffff
00000000
00000001
ffffffff
00000002
00000000
fffffffa
00000000
00000000
fffffffc
ffffffff
ffffffff
fffffffc
fffffffd
fffffffe
fffffff6
fffffffd
00000000
ffffffff
00000001
00000000
00000008
00000002
00000001
0000000b
00000006
00000000
00000009
00000004
00000001
00000001
ffffffff
00000001
00000000
00000000
00000001
00000002
00000000
00000001
00000000
00000002
fffffffe
fffffff9
ffffffff
fffffffe
fffffffa
fffffffa
00000000
fffffffb
fffffffd
00000000
00000001
00000000
00000000
00000002
00000003
00000000
fffffffd
ffffffff
00000000
00000001
00000000
00000002
00000004
00000003
fffffffd
ffffffff
ffffffff
fffffffd
00000002
00000001
fffffffe
00000002
00000000
ffffffff
ffffffff
00000000
ffffffff
fffffffb
fffffffd
00000002
fffffffd
ffffffff
00000000
fffffffb
00000000
00000001
fffffffd
ffffffff
00000000
00000001
00000000
00000000
00000000
00000000
fffffffb
00000001
00000002
fffffffd
00000000
00000000
00000001
00000001
00000000
00000001
00000003
00000002
00000000
00000002
00000000
00000000
fffffffb
ffffffff
fffffffc
fffffff6
ffffffff
00000000
fffffffd
00000000
fffffffe
fffffffe
ffffffff
ffffffff
fffffffc
fffffffd
ffffffff
fffffffe
00000000
00000002
00000003
00000002
00000003
00000000
00000002
00000000
00000003
00000002
ffffffff
00000000
ffffffff
ffffffff
fffffff9
fffffffe
00000002
fffffffb
ffffffff
00000001
fffffffc
ffffffff
ffffffff
fffffff8
fffffffe
fffffffc
fffffffb
fffffffd
ffffffff
00000000
00000003
ffffffff
fffffff9
00000001
fffffffe
fffffff9
ffffffff
00000000
fffffffd
00000000
ffffffff
00000001
00000000
fffffffe
00000000
ffffffff
00000000
fffffffd
fffffffd
00000000
fffffffd
fffffffd
00000000
00000000
00000000
ffffffff
fffffffe
00000000
ffffffff
fffffff9
fffffffd
00000000
fffffffb
ffffffff
00000000
00000000
fffffffe
00000000
fffffffc
fffffffd
00000000
fffffffc
00000000
00000000
00000005
00000003
ffffffff
00000003
00000000
fffffffb
fffffff7
fffffffe
00000001
ffffffff
00000000
00000002
00000000
00000001
00000002
00000000
fffffffe
ffffffff
fffffffe
ffffffff
fffffffe
00000002
ffffffff
fffffffb
00000000
fffffffd
fffffffd
ffffffff
00000000
fffffffe
fffffffc
00000000
00000000
fffffffd
00000000
ffffffff
ffffffff
00000000
00000000
ffffffff
00000001
00000003
00000005
00000000
00000000
00000003
00000002
00000001
0000000b
00000004
00000001
00000002
00000001
fffffffe
00000002
ffffffff
00000000
0000000b
00000000
ffffffff
00000008
00000004
00000000
ffffffff
fffffffe
ffffffff
fffffff8
fffffffd
00000000
fffffffc
fffffffe
00000000
00000000
00000000
00000001
00000000
fffffffe
00000001
00000000
fffffffe
00000000
ffffffff
00000000
00000001
fffffffc
fffffffd
00000002
00000001
fffffffe
fffffffe
00000002
ffffffff
fffffffd
fffffffe
ffffffff
ffffffff
fffffffe
00000000
00000000
fffffffd
fffffffe
00000002
ffffffff
fffffffe
00000001
ffffffff
00000000
ffffffff
fffffffc
00000000
ffffffff
fffffffd
00000004
fffffffe
00000003
00000005
fffffffd
00000000
fffffffd
00000001
0000000a
00000002
ffffffff
fffffffc
00000000
fffffffe
ffffffff
ffffffff
00000000
0000000a
00000005
fffffffe
00000001
ffffffff
00000001
00000000
ffffffff
00000000
00000003
00000002
00000001
00000000
00000000
fffffffd
ffffffff
ffffffff
fffffffd
00000000
fffffffd
ffffffff
00000000
fffffffb
ffffffff
00000003
00000002
00000000
00000002
00000000
fffffffd
fffffffd
fffffffe
ffffffff
00000000
00000000
ffffffff
ffffffff
00000000
00000000
00000000
00000001
fffffffe
00000000
00000002
ffffffff
fffffffb
fffffffd
00000002
00000000
00000000
00000000
ffffffff
fffffffd
00000001
00000000
fffffffe
ffffffff
fffffffc
fffffffe
fffffffd
00000000
fffffffc
fffffffe
00000000
fffffffe
fffffffd
ffffffff
00000000
00000002
fffffffd
fffffffe
fffffffd
fffffff5
fffffffd
fffffffc
fffffff3
fffffffb
00000000
fffffffd
00000000
00000000
00000000
ffffffff
00000000
00000003
ffffffff
00000002
00000000
00000002
00000000
ffffffff
00000003
fffffffe
fffffffb
ffffffff
00000000
00000000
00000001
ffffffff
fffffff8
fffffffc
ffffffff
fffffffa
fffffffb
00000000
00000001
00000000
00000003
00000004
00000000
00000001
00000000
00000000
00000001
fffffffe
ffffffff
00000003
00000000
00000000
00000000
ffffffff
00000001
fffffffe
00000001
00000000
fffffffd
ffffffff
fffffffe
00000000
00000000
ffffffff
00000000
00000000
00000000
fffffffc
fffffffc
00000000
fffffffd
fffffffc
00000002
ffffffff
00000000
00000000
fffffffe
00000001
00000000
00000001
00000003
00000000
00000000
00000000
fffffffe
00000002
fffffff9
00000000
00000003
fffffff9
ffffffff
00000001
00000002
00000000
00000001
00000000
00000000
00000002
fffffffe
00000000
00000002
00000004
00000000
00000000
00000004
00000002
00000000
00000004
00000002
00000001
00000005
00000002
00000002
00000005
00000002
fffffff7
fffffff7
fffffff8
fffffff8
fffffffb
fffffffb
fffffff9
fffffff9
fffffff9
00000000
00000000
00000002
00000000
00000005
00000001
00000000
00000004
fffffffd
fffffffc
fffffffd
fffffffd
00000000
00000000
00000002
00000003
00000001
00000002
00000001
00000002
00000000
00000001
00000000
00000002
00000002
00000001
00000003
00000000
00000000
fffffffe
fffffffd
00000000
00000002
fffffffe
00000000
00000000
fffffffd
fffffff9
fffffffa
00000000
ffffffff
ffffffff
00000002
00000001
ffffffff
00000000
00000001
00000002
fffffffd
00000000
fffffffe
ffffffff
00000000
00000001
00000001
ffffffff
fffffffd
fffffffc
fffffff9
fffffffa
fffffff7
fffffffd
fffffffb
00000000
00000004
00000001
fffffffe
fffffffe
fffffffe
fffffffe
00000000
00000003
00000006
00000004
00000004
00000001
00000001
00000006
00000003
00000002
00000002
ffffffff
fffffffe
00000000
00000001
00000000
00000000
00000000
fffffffd
00000000
00000003
00000000
00000001
fffffffc
fffffff9
00000001
fffffffd
fffffffa
fffffffd
00000002
00000003
00000000
fffffffb
fffffffb
ffffffff
fffffffe
00000001
00000001
00000002
00000006
ffffffff
00000002
00000000
00000001
00000003
00000001
00000004
00000001
00000002
00000000
00000002
00000001
00000000
00000005
00000006
00000000
00000000
00000000
fffffffb
00000000
00000003
00000002
00000000
00000002
fffffffe
00000000
ffffffff
00000000
00000000
fffffffe
00000000
00000001
00000005
00000002
fffffffe
00000002
ffffffff
fffffffd
fffffffe
00000000
fffffffe
00000000
00000002
fffffffc
00000000
fffffffd
00000005
00000001
00000004
00000003
fffffffe
00000002
fffffffe
fffffffa
ffffffff
fffffffe
00000004
00000001
fffffffe
00000003
00000000
00000000
00000002
00000003
00000002
00000006
00000002
00000002
00000002
00000002
fffffffe
ffffffff
fffffff8
ffffffff
00000000
fffffffd
00000001
00000004
00000000
fffffffd
fffffffc
fffffffb
fffffffc
fffffffe
fffffff8
fffffffc
fffffffc
fffffff7
ffffffff
fffffffe
ffffffff
ffffffff
fffffffc
fffffffc
fffffffc
fffffffc
fffffffe
00000000
00000001
00000002
fffffffd
fffffffe
00000000
00000000
fffffffe
00000003
00000001
ffffffff
00000001
00000004
00000002
00000005
00000002
00000009
00000003
fffffffa
fffffffa
fffffff4
00000000
00000000
ffffffff
00000005
00000007
00000003
ffffffff
00000000
fffffff9
ffffffff
00000004
00000005
fffffffb
fffffffd
00000000
fffffffb
fffffffd
fffffffe
fffffffe
fffffffd
ffffffff
fffffffd
fffffffd
fffffffe
fffffffe
fffffffd
fffffffe
00000003
ffffffff
00000001
00000005
00000002
00000001
00000003
00000002
fffffffc
fffffffe
fffffffd
ffffffff
fffffffb
fffffff7
fffffffd
ffffffff
fffffff7
fffffff5
00000000
00000002
00000000
00000000
00000001
00000000
fffffff9
fffffff8
fffffffe
fffffffe
fffffffb
fffffff9
00000000
fffffffb
fffffffc
fffffffe
ffffffff
00000000
00000000
fffffffe
00000000
fffffffd
00000000
00000001
fffffffc
ffffffff
00000000
00000003
00000006
00000003
00000001
00000000
00000000
00000000
ffffffff
00000002
ffffffff
fffffff8
fffffffe
fffffffb
fffffffc
fffffffe
fffffffe
00000000
00000002
fffffff9
00000000
fffffffd
fffffffb
fffffffc
fffffffe
00000000
ffffffff
00000001
00000000
fffffffb
fffffffe
00000000
fffffffd
fffffffe
fffffffb
00000000
00000002
00000000
00000000
ffffffff
00000003
00000003
00000000
00000000
00000001
ffffffff
00000000
ffffffff
00000000
00000003
00000000
00000002
00000000
00000000
fffffffe
ffffffff
ffffffff
fffffffb
ffffffff
fffffffb
fffffff7
00000001
00000000
fffffffe
00000002
ffffffff
00000000
00000001
ffffffff
00000000
fffffff9
fffffffc
fffffffc
00000005
00000001
00000001
00000003
00000000
00000001
fffffffb
fffffffa
fffffffb
00000000
00000001
00000000
00000000
00000000
00000001
00000000
00000000
ffffffff
00000000
00000000
00000000
00000002
00000000
00000003
fffffffb
fffffffa
fffffff9
00000000
fffffffe
00000000
00000000
00000002
00000001
00000001
ffffffff
00000003
00000000
fffffffe
00000000
00000001
fffffffd
ffffffff
00000001
00000006
00000001
00000006
00000002
00000002
00000002
00000001
ffffffff
fffffffa
fffffffe
ffffffff
00000001
00000000
00000000
00000002
fffffffc
00000000
00000008
00000001
00000001
00000005
00000001
ffffffff
00000001
fffffffb
fffffffe
fffffffd
fffffffd
ffffffff
00000000
00000002
00000000
00000001
00000007
00000002
00000004
fffffffe
00000004
ffffffff
fffffffe
fffffffd
fffffffd
00000000
00000002
fffffffa
fffffffb
ffffffff
00000001
fffffffb
fffffffe
00000005
00000000
00000000
fffffffb
00000000
fffffffb
00000000
fffffffa
fffffffe
fffffffe
fffffff9
fffffff9
00000001
fffffffe
00000001
00000000
fffffffd
00000000
00000000
fffffff9
fffffffd
00000000
fffffffc
fffffffc
00000001
fffffffc
ffffffff
00000002
00000000
00000005
00000000
00000007
00000002
fffffffd
00000000
ffffffff
00000000
00000000
ffffffff
fffffffe
fffffffe
ffffffff
00000000
00000000
00000000
00000000
ffffffff
fffffffe
00000007
00000005
00000002
fffffffe
fffffffd
00000000
fffffffd
fffffffe
00000004
00000000
00000004
00000005
ffffffff
ffffffff
00000001
00000000
fffffffb
00000001
00000002
fffffffc
00000003
00000000
00000000
fffffffe
fffffffe
fffffffe
fffffffd
fffffffd
fffffff8
ffffffff
fffffffc
fffffffd
fffffffe
ffffffff
fffffffc
ffffffff
00000000
00000000
00000000
00000000
00000002
00000000
00000000
00000000
00000000
00000000
ffffffff
ffffffff
00000000
fffffffe
fffffffd
ffffffff
fffffffb
fffffffc
ffffffff
fffffffe
fffffffe
ffffffff
fffffffd
ffffffff
fffffffe
fffffffc
fffffffe
fffffffe
fffffffd
ffffffff
ffffffff
fffffffd
ffffffff
ffffffff
fffffffd
fffffffe
00000000
00000000
00000000
00000003
00000001
00000000
00000001
00000003
00000000
00000001
00000003
00000001
fffffffe
00000000
00000000
fffffffd
00000000
00000000
fffffffc
00000000
00000000
00000000
00000002
00000000
00000000
00000004
00000001
ffffffff
00000001
00000000
ffffffff
ffffffff
00000000
00000000
00000000
00000000
00000001
00000000
00000000
ffffffff
fffffffc
fffffffe
fffffffe
fffffffe
ffffffff
fffffffe
ffffffff
ffffffff
00000000
ffffffff
00000000
fffffffc
ffffffff
00000000
fffffffc
fffffffe
00000000
00000001
fffffffe
00000001
00000000
ffffffff
00000001
00000002
00000000
00000000
00000000
00000001
ffffffff
00000000
00000001
00000000
fffffffe
00000002
ffffffff
00000000
00000000
00000000
00000000
00000000
00000000
00000001
00000000
00000001
ffffffff
00000000
00000000
ffffffff
fffffffc
ffffffff
ffffffff
fffffffe
fffffffd
ffffffff
00000000
00000000
00000000
00000002
00000000
00000000
00000002
00000001
ffffffff
00000000
ffffffff
00000000
00000000
ffffffff
00000000
00000000
00000000
00000002
00000000
00000000
00000002
00000001
00000000
00000001
00000001
00000001
fffffffe
00000000
00000000
ffffffff
ffffffff
00000000
00000000
00000000
00000000
00000000
00000000
00000000
00000000
00000001
00000000
00000000
00000000
fffffffe
00000000
00000000
00000000
fffffffe
00000000
ffffffff
fffffffe
00000001
00000000
00000001
00000000
00000000
00000000
00000000
ffffffff
00000000
00000000
ffffffff
00000000
00000000
00000001
ffffffff
ffffffff
00000002
00000000
00000000
00000002
00000003
00000002
00000000
00000001
00000000
ffffffff
00000000
00000001
ffffffff
fffffffd
fffffffd
fffffffd
00000000
ffffffff
00000000
00000000
00000000
ffffffff
00000000
fffffffd
00000000
ffffffff
fffffffc
ffffffff
fffffffe
fffffffe
00000000
00000001
ffffffff
00000000
00000000
00000000
00000000
00000000
00000000
00000000
00000001
00000001
00000001
00000003
00000004
00000001
00000004
00000005
00000002
ffffffff
fffffffe
ffffffff
fffffffe
fffffffc
ffffffff
00000000
fffffffe
ffffffff
00000001
00000003
ffffffff
00000000
00000003
00000000
00000000
00000002
00000000
ffffffff
00000000
00000000
00000000
fffffffd
fffffffe
ffffffff
ffffffff
ffffffff
00000000
ffffffff
00000000
ffffffff
fffffffc
ffffffff
fffffffc
fffffffd
00000000
00000000
00000001
00000000
00000000
00000000
00000000
00000000
00000001
ffffffff
00000000
ffffffff
00000000
00000000
fffffffe
00000000
00000000
00000000
00000000
ffffffff
fffffffb
ffffffff
00000000
fffffffd
00000000
ffffffff
ffffffff
00000001
00000000
00000001
00000002
00000002
00000004
00000001
00000002
00000001
00000000
00000001
00000002
00000001
00000001
00000001
00000000
00000001
00000000
fffffffc
00000000
fffffffd
fffffffe
00000000
fffffffc
fffffffe
ffffffff
fffffffd
00000000
00000001
00000002
00000000
00000000
00000000
00000000
ffffffff
00000000
00000000
00000000
fffffffd
00000000
00000000
fffffffd
ffffffff
00000000
ffffffff
00000000
ffffffff
fffffffe
00000000
ffffffff
ffffffff
00000000
00000000
ffffffff
00000000
00000000
ffffffff
00000000
00000000
00000000
00000000
00000003
00000000
ffffffff
00000002
00000006
00000000
00000002
00000006
00000001
00000000
00000005
ffffffff
ffffffff
00000000
ffffffff
ffffffff
00000000
ffffffff
fffffffe
ffffffff
00000000
00000001
ffffffff
00000001
00000001
00000001
00000002
00000001
00000001
00000001
00000000
00000001
00000000
00000000
ffffffff
ffffffff
00000000
00000000
fffffffe
00000000
00000001
00000000
00000000
ffffffff
ffffffff
ffffffff
fffffffd
00000000
00000000
00000000
00000000
00000000
00000000
ffffffff
ffffffff
ffffffff
fffffffe
00000000
00000000
00000000
00000000
00000000
00000000
00000000
00000000
00000000
00000002
00000001
00000001
00000001
00000003
00000000
00000001
00000002
00000000
00000001
00000001
00000001
00000000
00000000
00000000
00000000
00000000
00000000
00000000
00000000
00000001
00000001
00000002
00000002
00000002
00000002
00000002
00000001
00000001
00000000
00000001
00000001
00000000
ffffffff
00000001
00000000
00000000
ffffffff
00000000
00000001
fffffffe
00000000
00000001
fffffffe
00000000
00000000
fffffffe
00000001
fffffffe
fffffffb
00000001
fffffffe
fffffffa
00000000
ffffffff
00000000
00000000
ffffffff
00000002
00000000
00000001
00000005
ffffffff
00000002
00000001
00000000
00000000
00000000
00000000
ffffffff
fffffffe
ffffffff
00000001
fffffffd
00000000
00000000
fffffffe
ffffffff
00000002
ffffffff
00000000
00000002
00000006
00000003
00000003
00000008
00000004
00000003
00000006
00000004
00000000
fffffffd
ffffffff
00000001
00000001
00000000
ffffffff
00000000
00000000
ffffffff
00000002
00000000
00000000
00000003
00000001
ffffffff
ffffffff
00000000
ffffffff
00000000
ffffffff
ffffffff
00000002
00000000
00000001
00000003
00000001
00000000
00000002
00000000
ffffffff
00000000
00000000
00000000
00000001
ffffffff
00000001
00000000
00000003
00000000
fffffffd
00000000
00000000
fffffffe
00000001
00000001
fffffffd
ffffffff
00000000
fffffffe
00000002
00000003
00000000
00000000
fffffffc
00000004
ffffffff
00000003
00000003
00000005
00000004
00000008
00000004
fffffffe
00000001
00000001
ffffffff
00000003
00000000
ffffffff
00000004
00000000
ffffffff
00000002
00000000
00000000
00000003
00000000
00000000
00000000
00000000
00000000
00000001
fffffffc
ffffffff
00000004
fffffffe
fffffffa
fffffffb
fffffff9
fffffffb
fffffff6
fffffffe
fffffffe
fffffffa
00000000
00000001
fffffffd
fffffff9
00000003
00000006
00000007
00000009
0000000a
00000002
fffffffb
fffffffa
00000002
fffffffd
00000001
ffffffff
fffffffd
fffffffb
fffffffd
fffffffa
fffffffa
fffffffe
00000005
00000002
00000001
00000000
fffffffa
ffffffff
00000000
fffffffe
00000000
00000001
00000002
ffffffff
ffffffff
fffffffb
fffffffe
fffffffe
ffffffff
00000000
00000001
00000000
ffffffff
00000000
fffffffd
00000000
00000000
fffffffa
00000002
fffffffa
fffffffb
ffffffff
fffffff9
fffffff9
fffffffe
fffffffe
fffffffc
00000000
00000004
00000004
00000002
ffffffff
fffffffd
ffffffff
00000000
00000001
00000003
fffffffd
fffffffc
00000000
00000002
00000002
ffffffff
fffffffe
fffffffc
fffffffc
fffffffc
fffffffc
fffffffa
fffffffe
ffffffff
fffffffd
00000000
00000000
ffffffff
00000002
00000004
00000005
00000000
00000006
00000009
00000001
00000002
00000007
00000008
0000000c
0000000a
00000005
0000000b
00000000
00000003
00000000
00000001
00000001
00000002
00000000
00000000
00000000
00000000
00000001
ffffffff
00000000
00000004
00000001
00000001
00000004
00000004
00000001
00000001
00000003
00000000
00000000
ffffffff
fffffff7
0000000a
00000000
fffffffc
00000002
00000000
fffffffe
00000000
ffffffff
00000000
00000000
fffffffc
fffffffe
00000003
fffffffe
fffffffe
00000000
00000006
ffffffff
00000000
00000003
00000000
fffffffe
00000000
00000000
fffffffb
ffffffff
00000000
fffffffd
00000003
00000002
fffffffc
ffffffff
fffffffc
fffffff5
fffffff5
fffffffe
fffffffa
fffffffc
00000000
fffffffe
fffffffd
fffffffe
00000002
00000003
00000000
00000000
fffffffd
fffffffd
fffffffe
fffffffb
00000002
00000003
00000000
00000000
00000000
00000001
00000002
00000001
00000000
00000000
fffffffb
fffffffc
ffffffff
fffffffe
00000000
00000000
00000003
00000000
00000000
fffffff9
fffffff9
fffffff7
fffffffa
fffffff8
fffffffb
fffffffe
ffffffff
ffffffff
00000000
00000000
00000000
fffffffc
fffffffd
00000000
fffffffd
fffffffe
00000001
00000000
00000000
00000005
00000000
00000004
00000002
fffffffc
00000003
00000002
00000000
00000004
00000000
00000003
00000005
00000000
00000000
00000000
00000000
00000000
00000007
00000001
00000000
00000005
00000001
00000000
00000004
ffffffff
ffffffff
ffffffff
00000000
fffffffc
fffffffc
00000000
00000004
00000004
00000002
00000006
00000003
00000007
00000004
00000002
00000000
00000002
fffffffd
00000000
00000000
00000000
ffffffff
ffffffff
fffffffd
fffffffc
ffffffff
fffffffe
fffffffd
fffffffe
fffffffb
fffffffa
fffffffa
fffffffb
fffffffc
fffffffa
fffffffd
fffffffc
00000005
00000001
00000003
fffffffc
00000000
00000009
00000001
00000007
00000006
ffffffff
fffffffd
fffffffe
00000000
00000000
00000000
00000003
ffffffff
ffffffff
00000001
00000000
00000001
fffffffd
fffffffb
ffffffff
00000000
ffffffff
ffffffff
ffffffff
00000000
fffffffe
00000001
fffffffe
00000000
ffffffff
fffffffb
00000000
00000005
00000000
00000000
00000004
00000005
00000001
00000006
00000002
00000000
00000000
fffffffe
fffffffd
ffffffff
fffffffd
ffffffff
fffffffd
fffffffa
fffffffd
00000003
00000006
00000003
fffffffe
fffffffd
00000001
00000002
00000007
00000005
fffffffe
00000000
00000001
00000005
00000003
00000004
00000004
00000000
00000001
fffffff9
fffffff6
fffffffb
fffffffb
fffffffa
fffffffa
fffffffc
fffffffb
fffffff8
00000000
00000000
fffffffd
00000003
00000005
00000001
00000005
00000006
ffffffff
00000000
00000004
00000003
fffffffc
ffffffff
00000001
00000000
00000002
00000000
00000000
00000000
00000001
ffffffff
00000000
00000000
00000000
00000000
00000002
00000003
00000004
00000000
fffffffe
00000000
00000000
fffffffc
ffffffff
fffffffc
00000001
00000000
00000000
fffffffc
fffffffb
fffffffe
00000000
fffffffa
fffffffe
00000004
00000000
fffffffd
00000002
00000000
00000000
00000002
00000000
fffffffc
00000003
00000003
ffffffff
00000007
00000005
00000002
00000000
fffffffd
fffffffd
ffffffff
00000000
00000001
00000000
ffffffff
ffffffff
00000002
00000000
fffffffe
fffffffc
ffffffff
00000001
00000001
00000003
00000002
00000002
00000000
fffffffd
00000000
ffffffff
00000004
00000001
00000000
00000003
00000000
fffffffd
00000001
00000000
00000000
fffffffa
00000001
00000000
fffffffb
fffffffd
00000001
fffffffd
fffffffc
fffffffb
00000000
fffffffd
fffffffa
00000000
ffffffff
ffffffff
00000000
00000000
ffffffff
00000002
00000000
fffffffe
00000001
00000000
fffffffc
fffffffe
fffffffc
fffffffb
fffffffd
fffffffc
fffffffb
00000000
00000000
ffffffff
fffffffe
00000001
00000001
00000000
00000000
ffffffff
00000000
00000003
ffffffff
00000000
fffffffc
fffffff7
fffffffd
fffffffc
fffffff8
fffffffd
ffffffff
fffffff9
fffffffc
fffffffc
00000001
00000005
00000000
00000001
00000002
fffffffe
fffffffb
00000002
fffffffc
fffffffb
fffffffe
fffffffd
fffffffb
00000000
00000000
00000004
00000001
fffffffe
fffffffe
fffffffd
ffffffff
fffffffd
fffffffe
fffffffc
fffffff7
fffffffe
ffffffff
fffffffd
00000002
00000002
00000000
00000000
ffffffff
00000002
fffffffd
00000002
00000006
ffffffff
00000006
0000000b
fffffffd
00000003
00000005
00000003
00000000
00000000
fffffffe
00000000
00000003
00000000
fffffffc
00000001
fffffffd
00000000
fffffffe
00000002
00000000
fffffffc
fffffffe
fffffffe
00000000
00000001
fffffffd
00000000
00000000
00000000
fffffff9
00000000
00000000
fffffffe
ffffffff
ffffffff
fffffffe
00000000
00000002
00000002
00000000
00000000
00000001
00000000
ffffffff
00000000
00000003
00000002
00000006
00000000
00000000
00000001
00000000
00000005
fffffffe
ffffffff
00000001
fffffffa
fffffffb
00000000
fffffff8
fffffff9
ffffffff
00000000
00000000
fffffffe
ffffffff
00000000
ffffffff
fffffffc
fffffffe
00000002
fffffffe
ffffffff
00000000
fffffffb
00000000
fffffffe
fffffffd
00000000
00000005
00000000
00000001
00000004
00000003
00000002
00000000
00000000
00000000
00000001
00000000
00000002
00000001
00000004
00000004
00000001
00000000
00000000
fffffffd
fffffffc
fffffffc
fffffff9
fffffffc
00000000
fffffffe
ffffffff
00000000
00000000
00000000
fffffffe
ffffffff
fffffff8
ffffffff
ffffffff
fffffff9
00000000
fffffffd
fffffffc
fffffffd
fffffffb
fffffffa
ffffffff
fffffff7
fffffff8
fffffffc
00000001
00000000
ffffffff
00000002
fffffffb
fffffffd
00000002
fffffffc
fffffffc
00000000
00000004
00000003
fffffffc
00000004
00000001
fffffffe
00000000
fffffffd
ffffffff
fffffffc
fffffffd
fffffffc
fffffffc
00000000
ffffffff
ffffffff
fffffffe
00000000
ffffffff
fffffffe
ffffffff
fffffffd
00000000
00000000
00000000
ffffffff
00000004
00000000
00000000
00000002
fffffffd
fffffffd
00000002
fffffffc
fffffffe
fffffffd
fffffffd
00000002
fffffffc
ffffffff
00000005
fffffffe
fffffffe
00000003
00000000
fffffffe
fffffffd
00000002
00000000
fffffffd
00000004
00000009
fffffffd
00000005
00000007
00000003
00000000
fffffffd
00000000
00000000
fffffffc
00000000
00000004
00000003
00000001
00000003
00000000
00000001
00000002
00000000
00000002
fffffffc
00000000
ffffffff
00000000
00000001
00000003
00000006
00000005
00000000
00000000
fffffffd
ffffffff
fffffffe
00000001
00000001
fffffffd
ffffffff
00000003
00000000
00000004
00000003
fffffffd
00000001
00000002
00000000
ffffffff
00000001
fffffffe
00000002
00000001
fffffffe
00000002
00000001
fffffffd
00000001
fffffffe
ffffffff
00000000
00000000
00000000
fffffffd
ffffffff
fffffffe
fffffff9
fffffffd
00000000
00000000
fffffffc
00000002
fffffffe
fffffffd
00000000
ffffffff
fffffffb
00000000
00000002
00000000
00000002
00000000
00000001
00000003
00000002
fffffffb
00000001
fffffffd
00000000
fffffffd
fffffff8
fffffffd
fffffffe
fffffffd
fffffffd
00000000
fffffffd
00000000
00000000
fffffffd
fffffffe
00000003
00000002
00000001
00000000
fffffffe
ffffffff
00000001
00000000
00000002
fffffffd
00000000
ffffffff
ffffffff
00000002
00000004
fffffffa
00000000
fffffffe
fffffffa
fffffffe
fffffffa
fffffffe
00000000
00000004
fffffffc
00000000
00000003
fffffff9
fffffffb
ffffffff
ffffffff
00000000
00000002
00000003
00000002
00000006
00000003
00000003
00000004
ffffffff
fffffffc
fffffffc
fffffffc
fffffff8
00000000
fffffffe
fffffffe
00000002
00000000
00000000
00000000
00000000
00000000
fffffffd
00000000
00000001
fffffffe
fffffffe
fffffffc
fffffffe
fffffffe
fffffff7
fffffffd
fffffffc
fffffff9
fffffffd
00000000
00000005
00000000
fffffffd
fffffffe
00000000
fffffffc
fffffffa
fffffffe
00000000
00000000
00000004
00000000
00000001
00000000
00000004
00000001
00000002
fffffffd
fffffffd
ffffffff
ffffffff
fffffff9
fffffffe
ffffffff
fffffffe
fffffffe
fffffffb
fffffffe
00000000
00000001
fffffffc
ffffffff
ffffffff
00000000
00000000
fffffffb
fffffffb
fffffffd
fffffffa
fffffff7
fffffffc
fffffffa
fffffffd
fffffffe
00000000
ffffffff
00000000
fffffffd
00000000
00000000
fffffffd
fffffffc
fffffffd
fffffffb
fffffffc
00000000
fffffff9
fffffff7
fffffffc
fffffffc
fffffff9
fffffffd
00000002
00000000
fffffffe
00000000
00000008
00000000
00000000
00000005
fffffffe
ffffffff
fffffffd
ffffffff
ffffffff
fffffffd
ffffffff
00000000
fffffffe
ffffffff
fffffffc
fffffffc
fffffff9
fffffffc
fffffff8
fffffffd
fffffff9
fffffff5
fffffffd
00000006
00000005
00000000
00000001
00000005
00000002
00000001
00000002
00000000
00000005
00000000
0000000a
00000009
0000000a
00000002
00000003
0000000d
00000005
00000000
00000000
ffffffff
fffffffd
fffffffe
00000002
fffffffe
00000000
00000005
00000003
00000001
fffffffd
00000000
ffffffff
fffffffc
00000002
00000001
00000000
00000002
00000005
00000003
00000003
00000000
00000000
ffffffff
00000002
00000000
fffffffd
00000000
ffffffff
00000000
00000002
ffffffff
00000000
00000001
00000000
00000000
00000002
00000001
ffffffff
00000000
fffffffd
00000001
00000003
ffffffff
00000001
00000006
00000003
00000000
00000000
00000003
00000000
fffffffe
00000000
00000000
ffffffff
ffffffff
ffffffff
fffffffe
fffffffe
00000001
00000004
00000003
00000000
00000000
00000002
00000000
00000001
00000002
00000002
00000003
00000001
ffffffff
00000000
00000003
ffffffff
ffffffff
00000001
fffffffb
ffffffff
fffffffb
00000000
fffffffb
fffffffe
00000003
fffffffe
00000000
00000000
00000002
00000001
00000007
00000004
00000001
00000005
00000005
00000001
00000004
00000005
00000001
00000002
00000001
00000004
00000006
00000007
00000004
00000002
00000005
00000000
00000000
00000000
00000001
fffffffe
00000000
00000002
ffffffff
00000000
fffffffe
00000000
fffffffb
fffffffa
00000002
ffffffff
fffffffa
ffffffff
fffffffd
fffffffb
00000000
00000003
00000003
00000000
00000002
00000002
ffffffff
fffffffb
00000000
00000000
00000000
00000000
00000000
00000000
fffffffe
fffffffe
ffffffff
00000001
00000004
fffffffa
fffffff9
fffffffe
fffffffe
ffffffff
fffffffc
fffffffd
fffffffe
00000000
00000003
00000000
00000005
00000003
00000003
00000003
00000005
00000006
00000001
00000001
00000005
00000000
fffffffe
00000000
fffffffd
fffffff7
ffffffff
00000000
00000000
00000001
00000002
00000000
00000002
fffffffc
00000000
00000003
fffffffc
fffffffb
fffffffc
00000000
00000000
00000002
ffffffff
00000009
00000004
00000000
fffffffa
fffffff9
00000002
fffffffe
00000000
fffffffc
fffffffe
00000002
00000002
00000001
00000000
00000003
00000000
ffffffff
fffffffd
fffffffb
fffffffc
00000002
fffffffd
00000000
00000000
fffffffe
00000003
fffffffe
00000000
00000001
00000000
00000002
00000005
ffffffff
00000009
00000006
00000000
00000005
00000003
00000003
fffffffc
fffffffe
00000001
fffffffa
00000000
00000000
fffffff9
00000000
00000004
00000002
00000000
00000001
00000000
fffffffe
00000000
00000003
fffffffd
00000002
00000004
00000004
00000004
ffffffff
fffffffc
00000000
fffffffd
ffffffff
00000001
ffffffff
00000000
00000000
fffffffd
fffffffc
00000000
fffffffc
fffffffd
fffffffe
fffffffb
fffffffa
00000002
00000001
00000001
00000000
fffffffb
fffffffc
00000000
fffffffe
00000000
00000001
fffffffd
fffffffc
fffffffd
fffffffb
fffffffe
fffffffc
ffffffff
00000000
fffffffe
fffffffd
00000000
fffffffd
00000002
00000000
00000000
00000000
00000002
ffffffff
ffffffff
ffffffff
fffffffc
fffffffc
fffffffe
00000002
00000005
00000001
00000000
00000004
00000003
00000000
00000001
ffffffff
fffffffe
ffffffff
fffffffe
00000001
00000000
ffffffff
fffffffc
00000000
00000000
00000000
00000000
00000002
00000000
ffffffff
00000000
00000000
00000000
00000000
fffffffe
fffffffc
fffffffd
fffffffe
fffffffa
fffffffe
00000003
00000000
00000000
00000000
00000001
00000001
00000002
00000002
00000001
00000001
00000003
00000000
00000001
00000001
00000000
00000000
fffffffb
fffffffb
00000000
00000000
00000000
fffffffe
00000006
00000000
00000000
00000002
ffffffff
00000002
00000002
fffffffd
00000000
fffffff9
fffffffc
fffffffe
fffffffe
fffffffd
fffffffe
fffffffd
fffffffc
ffffffff
00000007
00000001
00000003
fffffffd
fffffffa
00000004
fffffff9
fffffffa
00000000
00000002
00000000
fffffffc
fffffffe
00000000
fffffffb
ffffffff
00000002
fffffffd
00000005
00000003
00000002
00000005
00000000
00000000
00000003
00000002
ffffffff
fffffffe
fffffffd
fffffffe
00000000
00000000
fffffffe
00000000
fffffffc
00000001
00000002
00000003
ffffffff
fffffffe
fffffffe
fffffffe
fffffffb
fffffffd
ffffffff
00000000
ffffffff
00000000
00000006
00000005
fffffffc
00000000
00000000
00000000
00000001
00000000
00000000
00000002
ffffffff
00000005
00000003
fffffffd
00000003
00000002
00000002
fffffffe
00000001
00000000
00000004
00000001
00000000
00000000
fffffffc
fffffffc
00000004
00000003
00000001
00000003
00000006
00000000
fffffffc
fffffffd
ffffffff
fffffffb
fffffff8
fffffff9
fffffffe
fffffffb
fffffff9
fffffffe
00000001
00000000
00000001
00000000
fffffffe
00000000
fffffffd
ffffffff
00000000
00000000
00000001
fffffffb
fffffff7
fffffffa
fffffffa
fffffff6
fffffff8
fffffffd
00000003
00000000
fffffffe
00000000
fffffffd
00000000
00000004
00000000
fffffffd
ffffffff
00000000
00000000
00000001
00000001
00000000
00000003
00000001
00000001
00000001
00000000
00000000
00000000
fffffffe
00000000
00000000
fffffffe
ffffffff
00000003
00000000
ffffffff
ffffffff
fffffffd
00000000
ffffffff
fffffffd
fffffffe
fffffffb
ffffffff
fffffffc
fffffff7
ffffffff
fffffffd
fffffff8
fffffffb
00000000
00000004
00000000
00000000
00000003
00000001
00000000
fffffffd
fffffffe
fffffffe
00000001
00000001
ffffffff
00000006
00000006
00000001
00000005
00000000
00000000
fffffffa
fffffffa
00000001
fffffffa
fffffffe
fffffffe
00000000
ffffffff
00000000
00000005
00000002
fffffffc
ffffffff
00000001
fffffffd
00000001
00000002
fffffffe
fffffffc
00000000
fffffffd
fffffffe
00000000
ffffffff
ffffffff
00000002
fffffffc
fffffff5
fffffff7
fffffffe
fffffff5
fffffff4
00000001
fffffffc
fffffffa
00000001
00000003
00000003
00000008
00000004
00000004
00000001
fffffffd
fffffffd
fffffffd
fffffffb
fffffffd
fffffffe
00000004
00000001
fffffffc
00000003
00000003
fffffffc
00000000
00000000
ffffffff
00000002
fffffffc
00000000
fffffffc
fffffff9
00000000
ffffffff
00000000
00000000
ffffffff
fffffffd
00000001
ffffffff
fffffffc
fffffffe
00000003
00000001
ffffffff
00000001
00000005
00000000
fffffffe
ffffffff
00000000
ffffffff
00000000
00000000
00000004
00000005
fffffffe
00000005
00000006
fffffffd
00000000
fffffffe
00000000
00000003
fffffffe
00000000
fffffffe
00000000
00000000
fffffffd
00000002
ffffffff
ffffffff
ffffffff
00000003
00000002
00000001
00000001
00000002
00000003
00000005
0000000d
00000009
00000001
00000008
00000000
00000001
00000003
00000003
00000002
00000001
00000002
00000001
ffffffff
00000000
00000003
fffffff9
fffffffd
00000001
fffffffe
ffffffff
00000000
00000004
fffffffe
fffffffc
fffffffc
00000000
fffffffd
fffffff8
fffffffe
fffffffd
00000000
00000000
fffffff9
fffffff9
ffffffff
00000000
fffffffd
00000001
00000002
ffffffff
00000001
fffffffe
ffffffff
fffffffd
00000000
00000000
00000005
00000002
00000004
00000008
fffffffc
ffffffec
fffffff6
00000002
fffffffc
00000001
00000000
00000006
00000003
00000000
fffffffe
00000000
00000002
00000000
00000003
00000000
00000006
00000008
fffffff3
fffffff9
fffffff6
00000000
00000001
fffffffb
00000000
00000001
fffffffe
00000003
0000000c
fffffffc
00000001
fffffffd
00000003
00000000
00000001
fffffffe
00000000
ffffffff
00000000
00000000
00000003
00000001
fffffffd
00000000
00000002
fffffffd
fffffffa
00000001
ffffffff
00000001
00000004
fffffffe
00000006
00000003
ffffffff
fffffffc
00000000
ffffffff
fffffffc
fffffffb
00000000
00000000
ffffffff
00000000
00000005
ffffffff
fffffffe
00000000
00000000
00000001
fffffffd
ffffffff
fffffff8
fffffff8
fffffffa
00000000
ffffffff
ffffffff
00000000
fffffffe
00000000
fffffff4
ffffffef
fffffffe
fffffff9
fffffff9
00000003
fffffffe
ffffffff
00000002
fffffffe
fffffffd
fffffffe
ffffffff
ffffffff
ffffffff
00000000
fffffffd
00000000
fffffffd
fffffffd
fffffffc
00000004
00000000
00000000
00000004
00000000
00000002
fffffffa
fffffff1
00000002
00000000
ffffffff
fffffffe
00000004
00000001
fffffffb
00000000
fffffffe
00000003
00000004
00000004
00000005
00000003
00000004
00000007
fffffffc
ffffffff
fffffffe
00000000
00000001
fffffffe
00000001
fffffffd
00000000
00000000
0000000c
ffffffff
ffffffff
fffffffe
fffffffd
fffffffd
fffffffc
fffffffb
fffffffa
fffffffa
fffffffc
00000001
fffffffe
00000000
00000002
fffffffd
00000004
ffffffff
fffffffe
fffffffe
00000001
00000002
00000001
00000003
00000000
00000001
00000000
ffffffff
00000003
00000001
00000001
00000004
00000001
00000000
00000000
fffffffc
00000001
fffffffc
00000000
00000000
fffffffe
00000000
fffffffb
fffffffd
fffffffb
fffffffd
fffffffb
fffffffe
fffffffe
00000001
00000000
00000000
00000003
00000000
fffffffd
fffffffe
fffffffb
00000000
fffffffe
fffffffe
fffffffe
fffffffe
ffffffff
fffffffb
fffffffe
ffffffff
ffffffff
fffffffc
ffffffff
ffffffff
ffffffff
00000002
00000005
00000002
00000001
fffffff7
ffffffff
00000001
fffffffa
00000002
fffffffa
fffffff4
fffffff7
00000001
00000004
00000003
00000001
00000001
00000000
00000004
00000000
00000000
00000004
0000000a
00000000
fffffffe
00000000
00000000
ffffffff
0000000a
00000007
00000001
fffffff9
ffffffff
00000001
00000000
00000000
00000001
00000000
00000002
00000002
00000000
00000003
ffffffff
00000001
00000001
fffffff8
fffffffb
00000000
fffffffc
fffffffe
fffffffc
00000003
00000003
00000001
fffffffd
00000000
fffffffe
00000000
fffffffe
ffffffff
00000000
fffffffe
00000000
00000001
00000000
ffffffff
fffffffd
fffffffd
00000000
fffffffd
fffffffd
fffffffe
00000003
fffffffb
00000000
00000002
00000000
00000000
00000001
00000003
00000001
fffffffb
fffffff4
fffffffd
00000003
fffffffe
00000000
00000002
00000005
00000000
fffffff9
fffffffe
00000001
00000003
00000000
fffffffc
00000001
00000004
00000000
00000001
fffffffe
00000003
00000001
fffffffe
00000000
00000001
fffffffe
00000003
00000008
00000000
fffffffd
00000000
00000002
00000005
00000001
00000003
00000000
fffffffe
0000000e
fffffffb
00000001
00000000
00000000
00000000
fffffff8
fffffffe
00000000
fffffff9
fffffffe
fffffff9
fffffffb
fffffffe
fffffffb
fffffffe
fffffffe
00000000
fffffffc
fffffffb
00000000
00000002
fffffffd
00000000
00000004
00000000
fffffffb
fffffffe
fffffffe
fffffffe
fffffffd
00000000
00000002
00000003
00000003
00000001
0000000b
00000000
fffffffd
00000005
ffffffff
fffffff9
fffffffa
fffffffe
00000006
00000004
00000006
00000001
00000001
00000004
00000000
00000001
00000000
fffffffd
fffffff2
fffffff8
fffffffe
00000000
00000001
00000000
00000006
00000003
fffffffc
fffffff6
fffffffd
00000001
00000000
00000000
00000001
fffffffd
00000001
00000000
00000007
00000005
ffffffff
00000004
ffffffff
ffffffff
00000000
fffffffc
fffffffd
00000008
00000005
00000000
00000000
fffffffc
00000000
fffffffe
fffffffe
ffffffff
0000000d
00000000
00000000
00000004
fffffffb
fffffffc
fffffffc
fffffffc
00000001
00000000
00000002
fffffffc
fffffffa
fffffff8
ffffffff
00000002
00000000
fffffffd
00000001
fffffffc
ffffffff
00000000
fffffffe
00000001
00000004
fffffffd
fffffffb
fffffffd
fffffffd
00000000
ffffffff
00000000
fffffffe
fffffffa
00000001
fffffffe
fffffff8
ffffffff
00000001
00000000
ffffffff
00000003
fffffffd
fffffffc
ffffffff
0000000f
00000003
00000000
fffffffe
00000000
00000001
fffffff9
ffffffff
fffffffe
fffffff4
fffffffb
fffffffc
00000000
00000004
ffffffff
00000001
00000000
00000002
fffffff4
ffffffff
00000002
fffffffe
00000000
00000003
00000004
00000001
ffffffff
fffffffa
ffffffff
fffffffd
fffffffe
00000000
fffffffe
fffffffb
fffffffc
ffffffff
fffffff9
00000002
ffffffff
ffffffff
00000000
00000000
00000002
00000000
fffffffd
00000005
00000000
00000001
00000000
00000002
fffffffc
fffffff9
fffffffc
00000001
fffffff9
00000001
00000000
fffffffd
00000000
fffffffd
ffffffff
00000001
00000000
00000004
fffffffe
fffffffb
00000000
fffffff8
00000000
ffffffff
ffffffff
00000004
fffffffe
fffffffe
00000002
00000000
00000000
00000000
fffffffd
ffffffff
00000004
00000017
00000008
fffffffe
00000002
fffffffb
fffffffa
fffffffd
fffffffb
00000003
00000001
00000000
00000000
fffffffd
00000000
00000000
00000006
00000004
00000000
ffffffff
ffffffff
fffffffe
fffffffc
fffffffc
fffffffe
fffffffb
ffffffff
fffffffe
00000003
00000000
00000001
00000003
00000003
00000001
00000006
00000000
00000001
00000000
ffffffff
00000004
00000003
00000002
00000001
00000003
00000000
00000000
00000004
ffffffff
00000000
fffffffe
fffffffc
00000000
fffffffe
00000000
00000000
ffffffff
fffffff5
00000001
fffffffe
fffffff8
00000000
fffffffe
fffffffc
00000000
00000002
00000001
fffffffe
00000000
00000000
fffffffe
00000002
00000000
fffffffe
fffffffe
00000000
fffffffe
ffffffff
ffffffff
fffffffc
fffffffc
00000002
00000000
00000009
00000002
00000000
00000003
00000000
fffffffc
00000001
fffffffc
00000002
fffffffb
fffffffd
00000001
fffffffe
fffffffc
fffffffe
00000000
fffffffd
fffffffb
fffffffe
fffffffc
fffffffe
fffffffd
00000000
ffffffff
00000005
00000001
ffffffff
fffffffd
fffffffc
fffffffe
fffffffa
fffffffd
fffffffd
ffffffff
00000000
fffffffe
ffffffff
fffffffd
fffffffc
fffffffd
fffffffd
00000000
00000002
00000000
00000000
00000000
00000001
ffffffff
00000000
00000000
fffffffe
fffffffd
00000001
fffffffe
fffffffa
fffffffa
fffffffd
fffffffb
fffffffe
fffffffe
fffffffa
00000000
00000001
00000004
fffffffe
ffffffff
ffffffff
fffffffc
00000002
00000001
00000003
00000000
00000000
00000002
00000000
00000000
00000004
ffffffff
00000001
00000006
00000000
fffffffe
fffffffa
fffffffe
fffffffd
fffffffb
00000000
fffffffc
fffffffb
ffffffff
fffffffa
fffffffd
fffffffe
ffffffff
00000000
fffffffc
fffffffd
00000000
00000002
fffffffe
fffffffa
00000000
fffffffd
fffffffc
00000001
ffffffff
fffffffe
00000002
fffffffe
00000001
00000007
fffffffe
fffffffe
00000001
ffffffff
ffffffff
fffffffd
fffffffd
00000004
fffffffe
00000002
00000003
00000000
00000006
00000005
00000000
00000003
00000000
ffffffff
00000000
ffffffff
fffffffe
00000001
fffffffe
fffffffc
00000000
00000000
ffffffff
00000005
00000005
fffffffa
00000000
fffffffe
00000001
00000000
00000000
00000001
00000000
fffffffd
fffffffe
fffffffd
fffffffd
00000002
00000000
fffffffe
00000001
00000002
fffffffe
00000000
fffffffc
fffffffe
00000003
00000000
fffffffd
00000001
00000000
00000000
ffffffff
fffffffc
ffffffff
00000001
fffffffe
00000003
ffffffff
fffffffb
00000000
fffffffb
fffffff7
fffffffe
00000005
ffffffff
ffffffff
00000002
ffffffff
fffffffb
00000000
fffffffe
fffffffa
fffffffd
00000000
00000004
fffffffd
00000000
00000002
fffffffb
00000000
fffffffe
ffffffff
00000000
00000002
00000000
00000003
00000006
fffffffe
00000003
00000000
00000002
00000003
00000000
00000002
00000000
fffffffc
fffffffc
fffffffc
fffffffc
00000000
00000002
fffffffe
ffffffff
ffffffff
00000000
fffffffe
00000000
ffffffff
fffffffe
ffffffff
ffffffff
00000000
00000001
00000000
00000004
00000001
ffffffff
00000003
00000000
00000001
00000001
00000000
ffffffff
00000001
fffffffa
fffffffe
00000001
00000001
fffffffe
ffffffff
ffffffff
fffffffd
fffffffc
fffffffa
fffffffb
00000008
00000004
fffffffe
00000003
fffffffd
ffffffff
fffffffe
fffffff6
fffffffd
00000003
ffffffff
00000001
00000000
ffffffff
00000001
ffffffff
fffffffd
00000001
ffffffff
fffffffb
fffffffe
fffffffa
fffffffd
ffffffff
00000000
00000000
00000003
fffffffd
fffffffc
00000001
ffffffff
00000001
00000002
ffffffff
00000001
fffffffe
00000000
00000001
fffffffe
fffffffd
fffffffd
fffffffe
ffffffff
00000000
00000000
ffffffff
fffffffe
00000000
00000000
00000001
00000003
00000004
00000000
00000001
00000003
00000005
00000003
00000000
00000000
00000000
fffffffe
ffffffff
fffffffb
00000000
00000004
00000000
fffffffe
00000002
00000000
ffffffff
00000002
fffffffd
00000000
ffffffff
00000000
00000001
00000003
00000002
00000000
00000000
00000005
00000006
00000002
00000002
fffffffe
fffffffc
ffffffff
fffffffd
fffffffc
00000000
00000004
00000003
00000000
00000001
ffffffff
ffffffff
fffffffe
fffffffd
ffffffff
00000003
00000003
fffffffe
fffffffe
00000000
fffffffc
fffffffd
fffffffd
00000000
00000001
fffffffe
00000005
00000002
00000003
00000005
ffffffff
00000001
00000000
00000003
ffffffff
fffffff4
00000004
ffffffff
fffffff8
00000004
00000000
fffffffc
00000004
00000003
00000000
00000000
00000000
fffffffb
fffffff9
fffffffa
fffffffd
00000001
fffffffc
ffffffff
00000000
fffffffe
00000002
00000000
00000002
00000001
00000003
00000003
00000000
00000002
00000000
ffffffff
00000003
00000002
00000000
fffffffe
fffffffd
00000004
fffffff7
fffffffb
ffffffff
fffffffa
fffffffb
ffffffff
00000000
00000000
00000000
00000000
00000000
00000001
00000001
00000000
fffffffd
00000000
00000000
00000001
00000000
00000003
00000000
00000000
00000001
fffffffd
00000000
00000001
00000000
00000003
00000000
fffffffe
00000000
fffffffb
fffffffc
fffffffd
fffffffd
fffffffb
fffffffc
fffffffa
fffffffd
fffffffc
fffffffb
fffffffe
ffffffff
00000002
00000000
ffffffff
ffffffff
ffffffff
ffffffff
ffffffff
ffffffff
fffffffc
fffffff9
ffffffff
fffffffe
00000000
00000002
ffffffff
00000001
00000002
00000003
00000004
00000001
00000000
00000000
fffffffe
fffffffd
fffffffa
fffffffd
00000000
fffffffb
fffffffc
00000000
fffffffd
00000000
00000002
00000001
00000003
fffffffd
00000000
00000003
fffffffa
ffffffff
00000004
fffffffa
00000005
00000009
fffffffd
fffffffc
fffffffd
00000000
00000000
fffffffd
00000003
00000005
ffffffff
00000002
00000003
00000000
00000001
00000003
00000000
fffffffd
fffffffd
00000000
fffffffe
fffffffa
fffffffe
00000000
00000000
00000001
ffffffff
00000001
00000000
ffffffff
00000001
00000000
00000000
fffffffe
fffffffe
00000000
fffffffc
ffffffff
00000000
00000000
ffffffff
00000000
fffffff9
fffffffa
00000001
fffffffe
fffffffb
00000000
00000000
ffffffff
00000002
00000002
00000000
00000002
00000006
00000000
fffffffd
00000000
00000000
fffffffd
00000001
00000000
ffffffff
00000002
00000000
ffffffff
00000000
fffffffe
00000003
00000004
00000003
00000002
00000001
00000000
00000005
0000000c
00000005
00000004
00000001
00000000
fffffffe
fffffff7
ffffffff
00000000
00000006
00000002
fffffffd
00000002
ffffffff
fffffffe
00000003
ffffffff
fffffffc
fffffff5
fffffffb
fffffff9
fffffff6
ffffffff
fffffffd
fffffff9
ffffffff
00000001
00000000
00000000
00000000
00000004
00000000
fffffffe
00000001
00000000
00000001
fffffffc
00000000
fffffffd
fffffffb
fffffffc
fffffffe
fffffffe
ffffffff
fffffffb
fffffff8
fffffffe
ffffffff
fffffffc
00000000
00000001
fffffffe
00000002
ffffffff
00000002
00000000
00000002
00000005
00000004
ffffffff
00000000
00000000
ffffffff
00000000
00000000
fffffffe
00000001
00000000
ffffffff
fffffffe
00000000
fffffffe
fffffff9
fffffffc
fffffffe
fffffffc
fffffffc
00000002
ffffffff
fffffffd
00000002
00000001
00000007
00000001
00000002
00000003
00000000
00000004
00000002
00000000
00000003
00000001
00000000
00000000
fffffffe
00000001
ffffffff
fffffffb
00000000
00000004
00000002
00000000
00000001
00000000
ffffffff
fffffffc
fffffffe
00000000
00000000
00000000
00000000
00000002
00000000
00000000
fffffffe
fffffffe
00000000
00000006
00000002
00000001
00000005
00000002
ffffffff
00000001
00000002
ffffffff
fffffffe
ffffffff
00000001
fffffffd
00000002
00000000
00000000
00000002
00000001
0000000b
00000005
00000000
00000007
ffffffff
fffffffd
fffffffe
fffffff8
fffffffe
fffffffd
00000000
00000000
00000001
00000000
fffffffd
ffffffff
fffffffd
00000001
00000001
fffffffe
fffffffe
fffffffa
fffffffc
fffffffe
fffffffc
fffffffd
00000000
fffffffc
00000000
fffffffd
fffffff9
fffffffc
ffffffff
fffffffd
fffffffd
00000004
00000004
00000000
ffffffff
00000001
00000000
ffffffff
00000000
fffffffe
fffffffe
fffffffb
fffffffd
00000001
00000000
00000000
00000003
00000002
00000001
ffffffff
fffffffe
00000001
00000000
fffffffc
00000000
00000000
fffffffd
ffffffff
00000000
00000007
00000000
fffffffe
00000002
00000000
00000000
00000000
00000000
ffffffff
fffffff9
fffffffe
fffffffe
ffffffff
00000000
ffffffff
00000000
fffffffc
00000003
00000006
00000003
00000000
00000002
00000000
fffffffd
fffffffc
ffffffff
00000003
00000008
00000000
00000001
00000003
ffffffff
00000000
00000000
fffffffc
00000000
fffffffe
fffffffe
00000000
fffffffd
ffffffff
00000003
00000002
00000001
00000002
00000001
00000003
00000004
00000005
00000000
00000000
00000000
00000000
00000003
00000001
ffffffff
00000000
fffffffd
fffffffb
00000000
fffffffc
ffffffff
00000001
00000000
00000004
00000000
00000000
00000000
00000000
00000003
ffffffff
fffffffd
00000001
00000004
00000000
00000002
00000002
00000001
00000000
fffffffe
00000004
00000003
fffffffe
00000005
00000004
00000000
00000002
00000003
00000002
00000000
00000005
ffffffff
00000001
00000005
00000001
00000000
fffffffe
00000000
00000003
fffffffc
fffffffe
00000004
00000001
00000000
00000000
ffffffff
00000000
ffffffff
fffffffc
00000000
00000000
ffffffff
fffffffe
ffffffff
fffffffe
ffffffff
ffffffff
fffffffc
00000001
00000000
fffffffc
fffffffa
fffffffe
fffffffd
fffffffd
fffffffb
fffffffa
fffffffb
fffffffc
fffffffc
fffffffd
fffffffd
00000003
00000000
00000000
00000000
fffffffd
00000000
00000001
00000001
fffffffe
ffffffff
00000003
00000000
fffffffe
00000000
fffffffd
fffffff7
fffffffd
fffffffc
fffffff7
fffffffd
00000001
00000009
00000002
fffffffd
00000001
00000000
fffffffc
fffffffb
fffffff9
00000000
fffffffa
fffffffb
fffffffe
00000000
ffffffff
00000000
00000000
ffffffff
ffffffff
0000000a
0000000f
ffffffff
00000002
00000001
ffffffff
fffffff9
fffffff7
fffffffc
ffffffff
00000000
00000000
00000003
00000001
00000000
00000000
ffffffff
00000001
00000002
00000003
00000000
00000000
00000003
00000001
00000004
00000000
00000000
00000003
00000003
ffffffff
ffffffff
00000001
fffffffd
fffffff9
fffffffa
00000000
00000003
00000001
fffffffd
fffffffc
ffffffff
fffffffc
fffffffb
ffffffff
00000005
ffffffff
fffffffd
00000000
00000000
fffffffd
00000002
00000000
00000000
00000000
00000008
00000002
00000000
00000002
fffffffe
00000001
fffffffe
fffffffe
00000000
00000000
fffffffb
fffffffd
fffffffa
fffffffb
fffffffd
fffffff9
fffffffd
00000000
00000000
fffffffe
00000000
fffffffe
ffffffff
00000000
00000000
00000000
ffffffff
ffffffff
00000003
00000002
00000000
00000001
ffffffff
ffffffff
00000001
00000001
00000000
00000001
00000001
00000000
00000000
ffffffff
fffffffd
00000000
00000001
00000000
fffffffd
00000001
00000001
00000000
00000000
00000000
ffffffff
00000001
00000000
00000000
00000001
00000004
00000000
ffffffff
00000003
00000003
fffffffc
00000003
00000003
00000002
00000000
00000000
00000000
fffffffb
fffffffe
00000003
00000002
00000001
00000003
00000001
00000000
00000001
00000002
00000000
fffffffc
00000001
00000000
00000002
00000010
00000006
00000000
00000008
fffffffe
00000002
00000009
00000005
00000000
00000000
00000000
ffffffff
00000000
00000000
ffffffff
00000000
00000000
ffffffff
00000001
00000000
ffffffff
ffffffff
ffffffff
fffffffe
fffffffe
00000004
00000001
00000000
00000009
00000003
fffffffb
00000000
00000000
fffffffe
00000004
00000000
00000000
00000003
00000003
fffffffe
00000000
00000002
00000003
fffffffe
00000004
00000006
fffffffe
00000000
00000001
fffffff9
fffffffa
fffffff9
00000005
ffffffff
ffffffff
00000008
fffffffb
fffffffa
00000003
00000000
ffffffff
00000001
00000002
fffffffd
00000004
00000000
fffffffb
fffffffe
fffffffe
00000003
00000000
ffffffff
00000001
00000000
fffffffc
00000002
00000000
00000000
00000000
00000003
00000004
00000003
00000003
00000003
ffffffff
00000000
00000002
fffffffc
fffffffd
00000002
fffffffd
fffffffe
00000002
fffffffd
fffffffe
00000004
fffffffe
00000004
00000005
fffffffe
00000001
00000002
00000001
00000000
fffffffc
ffffffff
ffffffff
00000000
fffffffd
ffffffff
00000000
fffffffe
fffffffe
ffffffff
fffffffb
00000001
ffffffff
fffffff8
ffffffff
00000000
fffffff4
fffffffc
00000002
fffffffe
00000000
00000002
ffffffff
00000000
00000001
fffffffb
fffffffc
00000000
fffffffe
ffffffff
00000002
00000002
fffffffd
00000000
00000000
fffffffd
ffffffff
fffffffa
fffffffe
00000001
fffffffd
00000000
ffffffff
fffffffa
00000000
00000002
00000003
ffffffff
00000000
00000001
00000002
00000003
00000003
00000001
fffffffe
00000001
00000000
00000000
00000000
00000000
00000000
00000001
fffffffd
00000001
00000000
00000003
00000002
00000002
00000003
00000001
fffffffe
fffffffe
fffffffd
00000000
00000002
00000001
00000000
00000003
00000001
ffffffff
00000003
fffffffe
00000002
00000000
00000000
00000004
00000001
fffffffa
00000003
00000000
00000002
00000000
00000002
00000002
fffffffd
00000000
00000004
00000000
00000000
fffffffe
00000000
00000004
00000000
ffffffff
00000000
fffffffd
fffffffb
00000004
00000002
fffffffd
fffffffe
00000002
00000000
00000000
00000000
fffffffc
fffffffa
fffffffd
00000000
00000000
ffffffff
00000000
00000000
00000000
fffffffe
fffffffd
ffffffff
ffffffff
00000000
00000001
00000000
00000000
fffffffc
ffffffff
fffffffe
fffffffd
fffffffc
ffffffff
ffffffff
fffffffe
00000001
ffffffff
fffffffb
ffffffff
00000001
00000000
fffffffd
00000001
00000000
fffffffe
00000000
00000005
fffffffb
00000004
00000004
ffffffff
00000001
00000001
00000001
fffffffc
ffffffff
ffffffff
00000002
00000001
00000000
00000000
00000000
00000000
00000003
fffffffd
ffffffff
fffffffe
00000000
fffffffc
00000003
00000006
ffffffff
fffffffc
00000003
00000000
00000001
00000002
00000000
ffffffff
00000000
00000001
fffffffc
fffffffd
ffffffff
ffffffff
ffffffff
00000001
00000000
00000000
00000001
ffffffff
fffffffe
fffffffc
fffffffc
00000003
00000003
fffffffe
00000002
00000003
fffffffb
fffffffe
00000004
00000000
00000000
00000000
00000000
00000002
00000001
00000000
00000001
00000000
00000002
00000004
00000000
ffffffff
00000003
ffffffff
fffffffc
fffffffe
00000001
00000002
00000006
ffffffff
00000003
00000005
00000000
00000000
00000005
00000002
fffffffd
00000000
00000000
00000001
00000000
00000000
00000002
00000006
00000001
ffffffff
00000001
00000004
00000003
00000000
00000001
00000004
00000000
ffffffff
fffffffe
00000000
00000007
fffffffd
fffffffd
00000008
00000002
fffffff7
00000002
00000001
00000001
00000000
00000002
00000000
00000000
fffffffd
fffffffc
fffffffc
00000001
00000002
00000000
00000002
00000001
00000000
00000000
00000005
00000000
00000000
00000000
00000000
00000000
00000002
00000000
00000001
00000001
00000002
00000002
00000008
00000004
00000000
00000000
00000003
fffffff6
fffffff7
fffffffd
ffffffff
00000001
00000000
00000000
00000000
fffffffe
00000001
00000000
00000002
00000000
00000000
00000000
00000000
00000002
00000000
fffffffb
fffffffe
00000000
00000000
00000001
00000002
00000000
fffffffd
00000000
00000001
00000000
00000001
00000000
fffffffd
00000001
00000001
fffffff9
fffffffe
00000000
fffffffb
ffffffff
ffffffff
00000000
00000000
ffffffff
00000000
00000002
00000004
00000001
00000000
fffffffe
fffffffd
00000005
00000000
fffffffc
00000006
00000001
fffffff8
00000003
ffffffff
fffffffb
fffffffe
fffffffb
fffffffd
00000000
fffffffd
00000000
00000000
fffffffc
00000002
00000007
ffffffff
00000001
00000004
fffffffa
ffffffff
00000001
00000000
ffffffff
00000001
00000000
00000000
00000002
ffffffff
fffffff9
00000004
fffffffe
fffffffb
00000000
00000000
fffffffc
fffffffc
00000000
ffffffff
fffffffc
00000001
fffffff6
00000003
00000000
fffffff7
00000002
00000004
fffffff8
fffffffb
00000002
fffffffe
00000000
00000002
fffffffd
00000000
00000003
fffffffc
fffffffe
00000001
00000007
fffffffd
fffffffc
00000004
fffffffc
fffffffa
00000004
00000000
00000000
fffffffe
fffffffc
00000003
00000002
ffffffff
00000000
00000000
fffffffc
00000005
ffffffff
ffffffff
00000002
fffffffd
00000000
00000001
fffffffe
fffffffc
fffffffe
fffffffe
ffffffff
00000000
00000001
fffffffe
fffffffb
ffffffff
ffffffff
00000002
00000002
ffffffff
00000000
00000000
00000000
fffffffc
00000001
fffffffe
fffffffe
fffffffe
00000003
00000001
fffffffc
fffffffe
00000001
fffffffe
fffffffd
00000000
00000000
00000000
ffffffff
fffffffc
00000000
00000002
fffffff8
ffffffff
fffffffe
fffffffb
00000000
ffffffff
00000001
00000003
fffffffb
ffffffff
00000006
fffffffc
00000000
00000001
00000000
ffffffff
00000003
fffffffe
fffffffc
fffffffc
fffffffe
fffffffd
fffffffe
00000004
00000008
ffffffff
00000003
00000008
ffffffff
fffffffb
fffffffd
ffffffff
ffffffff
fffffffb
fffffffb
fffffffe
fffffffb
fffffffe
00000000
fffffff4
fffffffd
00000000
00000008
00000000
00000000
00000008
fffffffd
fffffffd
fffffffc
00000000
fffffffc
fffffffd
00000000
fffffffb
ffffffff
00000002
00000001
00000000
ffffffff
00000001
00000002
fffffffd
fffffffc
fffffffb
fffffff6
00000000
00000000
ffffffff
00000000
00000001
fffffffd
00000003
00000003
fffffffd
fffffffc
fffffffa
00000003
fffffffc
fffffffc
00000001
fffffffe
fffffffc
00000002
fffffffb
00000000
00000000
fffffffe
00000000
ffffffff
ffffffff
00000001
00000001
00000001
00000007
00000000
00000002
00000003
00000000
00000003
00000001
00000000
00000001
00000001
00000000
fffffffe
ffffffff
00000001
fffffffd
fffffff9
00000000
fffffffe
fffffffd
00000002
fffffffc
fffffff9
00000002
fffffffc
fffffff6
00000000
ffffffff
00000000
00000000
fffffffc
fffffffc
00000000
fffffffb
fffffffd
00000000
ffffffff
ffffffff
ffffffff
00000001
00000004
00000002
00000000
00000004
00000001
fffffffd
fffffffb
ffffffff
00000000
00000000
00000000
fffffffe
fffffffd
00000000
ffffffff
fffffffb
ffffffff
00000000
fffffffb
ffffffff
00000002
fffffffa
00000001
00000000
00000002
00000002
00000001
00000002
00000000
00000000
00000001
00000004
fffffffd
fffffff9
fffffffe
fffffffd
fffffffa
fffffffe
fffffffc
fffffff8
fffffffd
00000002
ffffffff
fffffffc
00000000
ffffffff
fffffffd
00000000
fffffffc
fffffffc
fffffffe
fffffffa
00000000
fffffffc
fffffffb
00000000
fffffffe
fffffffb
00000002
fffffffe
ffffffff
00000000
fffffffc
ffffffff
00000002
fffffffe
00000000
00000005
00000000
00000000
00000000
00000000
fffffffe
00000001
00000000
ffffffff
00000000
ffffffff
fffffffc
00000000
00000001
ffffffff
00000002
fffffffe
00000002
00000001
00000000
00000000
00000002
fffffffe
ffffffff
00000001
fffffffe
fffffffe
00000000
00000000
ffffffff
fffffffd
00000002
00000001
fffffffd
00000000
fffffffe
fffffffc
ffffffff
00000000
ffffffff
00000000
fffffffd
ffffffff
00000001
fffffffd
fffffffc
00000002
fffffffe
fffffffd
fffffffd
fffffffe
fffffffd
fffffffd
fffffffd
fffffffd
00000003
00000004
00000000
ffffffff
fffffffc
fffffffe
fffffffd
fffffff9
fffffffe
fffffffe
fffffff6
fffffffe
00000003
fffffffe
00000003
00000002
00000003
00000003
ffffffff
00000000
00000001
fffffffe
fffffffd
fffffffe
00000000
00000000
fffffffd
fffffffd
fffffffe
00000000
fffffffe
00000000
fffffffc
00000000
00000004
fffffffe
fffffff9
fffffff9
ffffffff
fffffffa
fffffff9
ffffffff
fffffff8
fffffff9
00000000
00000000
00000000
fffffffd
00000001
00000000
00000000
00000003
00000002
00000000
00000000
fffffffd
00000000
00000000
fffffffd
00000001
fffffffe
fffffffe
00000000
00000007
00000000
00000003
00000002
fffffffc
ffffffff
00000001
ffffffff
00000000
00000000
fffffffc
00000003
00000000
00000001
00000001
00000000
00000003
ffffffff
00000002
ffffffff
00000000
fffffffd
00000000
00000000
00000000
00000000
00000001
00000002
fffffffc
00000004
00000000
fffffffb
00000000
00000000
fffffffd
fffffffe
00000005
0000000d
00000000
00000001
00000001
00000001
00000000
fffffffc
00000000
fffffffc
fffffff8
fffffffe
ffffffff
fffffff9
00000001
00000000
fffffffe
00000000
fffffffe
fffffffa
00000000
fffffffe
fffffffc
ffffffff
00000000
fffffffe
fffffffd
00000004
00000003
00000001
00000000
00000001
00000000
00000000
00000002
00000002
00000002
fffffffc
fffffffc
ffffffff
ffffffff
fffffffe
00000000
ffffffff
ffffffff
fffffffd
fffffffd
fffffffd
00000005
00000005
fffffffe
0000000c
00000014
00000000
00000000
00000001
00000001
00000000
ffffffff
00000000
fffffffe
ffffffff
00000000
ffffffff
fffffffb
00000000
fffffffe
ffffffff
00000000
00000000
fffffffe
00000000
00000000
00000004
00000000
00000000
00000000
ffffffff
00000000
00000000
00000000
00000000
00000000
00000000
fffffffe
00000001
00000000
ffffffff
00000002
00000000
fffffffd
fffffffb
00000000
fffffffd
fffffff5
fffffffd
fffffffa
fffffff9
fffffffc
00000002
00000003
fffffffe
fffffffc
fffffffa
fffffffd
fffffffe
fffffffa
ffffffff
00000001
00000000
ffffffff
ffffffff
ffffffff
00000000
00000000
fffffffd
00000002
00000003
00000001
00000000
00000003
00000006
00000002
00000001
00000003
00000000
fffffffe
fffffffc
fffffffe
fffffffd
fffffffa
00000001
00000000
fffffffa
00000002
00000000
00000002
00000000
00000002
00000004
fffffffe
00000007
00000002
ffffffff
00000004
00000002
ffffffff
00000000
ffffffff
fffffffe
fffffffe
00000000
fffffffd
ffffffff
ffffffff
ffffffff
00000000
fffffff8
fffffffc
00000000
fffffff7
fffffffb
fffffffe
fffffff9
00000000
00000004
fffffffe
00000000
00000004
00000000
00000000
00000000
00000001
00000003
00000001
00000000
00000004
00000000
00000000
00000001
00000000
00000007
00000004
00000000
00000001
ffffffff
00000000
00000001
00000002
00000001
00000000
00000000
fffffffe
00000000
00000000
fffffffd
fffffffc
00000000
ffffffff
fffffffe
00000000
00000000
ffffffff
00000002
00000000
00000002
00000002
00000001
ffffffff
00000000
ffffffff
fffffffd
ffffffff
00000001
00000004
00000000
fffffffe
fffffffd
00000001
ffffffff
fffffffd
00000001
ffffffff
fffffffd
00000000
00000005
0000000b
00000000
00000000
00000007
00000001
fffffffc
fffffffe
00000000
ffffffff
00000003
00000000
ffffffff
00000000
fffffffe
fffffffa
fffffff9
fffffffe
00000000
00000000
00000001
fffffffe
00000000
fffffffc
00000000
ffffffff
fffffffe
00000002
00000001
00000002
00000005
00000001
00000000
00000002
fffffffb
fffffffb
ffffffff
fffffffd
fffffffc
fffffffe
fffffffb
fffffffe
00000004
00000004
00000006
fffffffd
fffffffc
00000000
ffffffff
00000000
00000003
00000003
00000006
00000005
fffffffe
00000000
fffffffa
fffffffe
fffffffd
00000000
00000001
00000007
00000007
00000002
00000000
00000002
00000002
00000000
00000005
fffffffd
fffffffc
fffffffd
00000001
ffffffff
00000001
fffffffe
fffffffc
00000003
fffffffb
00000003
00000005
fffffffd
00000008
00000000
ffffffff
00000000
fffffff9
00000001
fffffff6
fffffff9
00000001
00000000
ffffffff
00000006
00000000
00000000
00000002
00000000
00000001
fffffffb
00000001
fffffffe
fffffffe
fffffffb
fffffffb
00000003
00000001
fffffffe
fffffffa
fffffffa
fffffffc
fffffffb
fffffffc
fffffffd
fffffffc
fffffffa
fffffffa
00000003
00000001
00000002
fffffffb
fffffffe
fffffffd
fffffffc
00000001
fffffff4
00000004
00000004
00000005
00000003
00000000
ffffffff
00000000
fffffffc
00000000
00000000
fffffffb
00000000
ffffffff
fffffffe
fffffffe
00000000
00000000
00000000
00000002
fffffffd
00000000
ffffffff
00000000
00000000
fffffff9
ffffffff
ffffffff
00000002
00000004
00000008
fffffffd
ffffffff
00000002
fffffffc
fffffff1
fffffff0
00000002
00000000
00000001
00000002
00000000
00000001
00000000
00000002
00000001
00000000
00000005
fffffffd
ffffffff
00000000
fffffffa
00000001
00000005
00000006
fffffffe
fffffffb
fffffffd
fffffffd
fffffffb
fffffffd
fffffffc
00000001
ffffffff
00000001
00000002
00000004
fffffffd
fffffffa
fffffffa
00000001
ffffffff
fffffffb
00000002
00000001
00000004
fffffffd
00000004
00000000
00000000
00000000
fffffff9
00000001
00000006
fffffffd
00000000
00000000
00000000
ffffffff
00000001
00000003
fffffffd
fffffffa
ffffffff
00000002
fffffffc
00000001
00000001
00000003
00000001
00000000
00000001
fffffffe
ffffffff
fffffffc
fffffffd
00000000
fffffffb
00000004
fffffffb
00000000
fffffffe
ffffffff
fffffffb
fffffffd
00000001
00000000
00000002
fffffffd
ffffffff
fffffffb
ffffffff
00000001
00000001
00000000
00000001
fffffffe
00000001
00000000
00000001
fffffffb
fffffff3
fffffff7
00000001
00000000
00000006
ffffffff
fffffffc
00000000
fffffffd
fffffff8
fffffffd
fffffffd
fffffffe
00000002
fffffffd
00000002
fffffffe
fffffffd
fffffffb
fffffffd
00000008
00000000
00000003
00000000
00000007
ffffffff
00000002
ffffffff
fffffffb
00000000
fffffffc
00000000
00000000
ffffffff
fffffffe
fffffffb
fffffffc
00000001
fffffffc
00000000
00000000
00000000
fffffffe
fffffffc
fffffffd
fffffffd
ffffffff
00000002
00000004
00000003
00000001
00000000
00000001
00000001
00000003
ffffffff
fffffff7
fffffffb
fffffffc
00000002
fffffffc
00000004
ffffffff
fffffffe
00000000
00000003
ffffffff
fffffffd
00000002
00000007
ffffffff
fffffffe
fffffffb
fffffffe
00000000
fffffffd
00000005
00000001
00000000
00000000
00000003
fffffff8
fffffffc
fffffff7
fffffff5
00000001
00000001
ffffffff
00000005
00000004
00000000
00000003
fffffffb
ffffffff
00000002
00000002
00000005
00000004
00000000
00000007
00000001
fffffffd
fffffffd
ffffffff
00000001
00000000
00000000
00000003
fffffffd
00000003
ffffffff
fffffffb
fffffffe
00000001
fffffffd
00000001
00000000
00000003
00000000
ffffffff
00000001
fffffffc
00000005
00000004
fffffffe
ffffffff
fffffffc
ffffffff
fffffff1
fffffff5
0000000b
00000000
00000001
fffffffd
00000001
fffffffe
ffffffff
00000002
00000000
00000005
00000000
00000002
00000000
00000002
00000001
00000000
00000002
fffffffb
00000000
00000001
fffffffc
00000003
00000005
00000002
00000000
00000004
00000004
fffffffa
fffffffe
00000000
00000001
00000000
00000000
00000000
00000002
00000000
00000000
fffffffe
ffffffff
fffffffe
ffffffff
fffffffd
ffffffff
00000000
00000000
00000001
00000002
00000001
00000000
00000003
00000000
00000000
fffffffe
ffffffff
fffffffe
00000000
00000003
00000002
fffffffe
fffffffd
fffffffd
ffffffff
fffffff8
00000000
00000000
00000002
00000000
fffffffd
00000002
fffffffc
fffffffd
fffffffd
00000000
00000001
ffffffff
ffffffff
fffffffe
00000000
00000000
fffffffe
00000001
fffffffe
ffffffff
00000000
00000001
fffffffe
ffffffff
00000004
ffffffff
fffffffd
00000002
fffffffd
00000004
00000000
00000006
00000012
ffffffff
fffffffe
00000000
fffffff8
00000000
fffffffc
fffffffe
00000002
fffffffd
00000002
00000005
0000000a
00000006
00000001
00000001
fffffffe
ffffffff
00000000
fffffffc
fffffffb
fffffffd
ffffffff
ffffffff
00000004
ffffffff
fffffffe
fffffffe
fffffffc
fffffffe
fffffffd
fffffffa
00000002
00000003
00000001
ffffffff
fffffff9
ffffffff
fffffff9
fffffff3
00000002
fffffffe
fffffff7
00000003
fffffffc
00000002
00000002
00000002
00000007
00000003
00000000
00000002
00000002
fffffffd
fffffffa
fffffffc
00000000
fffffff9
fffffffb
00000000
00000003
00000001
00000001
00000005
fffffffe
fffffffe
fffffffe
00000002
00000002
00000002
00000002
00000001
fffffffd
ffffffff
00000000
fffffffe
00000001
00000002
00000003
00000003
00000002
00000007
00000005
fffffffd
fffffffe
fffffffc
00000000
ffffffff
00000001
ffffffff
00000006
0000000a
fffffffc
fffffff7
fffffff1
fffffffd
ffffffff
ffffffff
ffffffff
00000000
00000001
00000000
00000002
00000000
00000002
fffffffd
00000003
00000002
00000004
00000002
fffffffb
00000002
fffffffb
fffffff7
fffffff1
fffffff6
00000000
ffffffff
fffffffd
00000004
00000005
00000002
00000000
fffffffb
00000000
fffffffe
fffffffe
00000000
fffffffc
fffffffd
fffffffe
00000000
00000004
00000003
fffffffb
00000002
ffffffff
fffffffd
00000001
00000000
00000006
00000003
00000006
00000000
00000001
ffffffff
ffffffff
fffffffd
fffffffd
ffffffff
00000007
00000002
fffffffe
00000007
00000000
ffffffff
00000002
00000000
fffffff8
fffffff7
fffffffd
fffffffc
fffffff8
ffffffff
ffffffff
fffffffe
fffffffd
00000003
fffffffa
fffffffe
00000000
00000000
ffffffff
00000000
fffffffe
00000003
fffffffe
ffffffff
00000000
00000001
00000005
00000006
fffffffb
ffffffff
00000001
00000003
00000002
00000000
00000004
00000004
00000000
00000003
00000005
00000001
ffffffff
fffffffd
00000001
00000000
00000002
00000002
fffffffe
fffffffb
fffffffe
00000002
00000000
00000000
00000001
00000001
ffffffff
00000000
ffffffff
00000000
00000002
00000001
00000000
00000002
00000000
00000000
00000000
fffffffd
00000001
00000000
00000004
00000004
00000000
00000000
00000002
00000001
00000002
00000004
00000002
00000000
00000001
00000002
00000004
00000005
00000001
00000004
00000001
fffffffd
fffffffc
00000000
fffffffe
fffffffa
fffffffc
00000000
fffffffc
fffffffd
00000001
ffffffff
00000005
00000001
00000001
00000007
ffffffff
00000000
00000000
00000000
fffffffa
00000000
00000001
ffffffff
fffffffc
00000003
00000002
00000001
00000005
00000007
00000002
ffffffff
00000001
ffffffff
fffffffd
ffffffff
00000000
00000000
fffffffd
fffffffe
00000001
00000000
ffffffff
00000003
00000001
00000001
00000002
ffffffff
00000000
00000001
ffffffff
ffffffff
00000000
fffffffd
00000000
fffffffc
fffffffb
fffffffd
00000000
00000000
00000001
00000002
00000007
00000008
fffffffc
ffffffff
00000001
fffffffc
00000000
00000000
00000000
fffffffd
00000002
00000004
00000003
00000002
00000002
00000004
00000003
00000004
00000003
00000001
fffffffd
00000000
00000000
fffffffc
fffffffd
fffffffe
fffffffe
fffffffa
fffffffe
00000000
00000009
00000002
00000004
00000008
00000006
fffffffc
ffffffff
fffffffd
fffffffd
fffffff9
fffffffb
fffffffd
fffffffc
ffffffff
fffffffb
fffffff8
fffffffb
00000000
ffffffff
00000000
00000000
ffffffff
00000000
fffffffe
fffffff9
ffffffff
00000008
00000007
00000001
00000001
00000002
00000000
fffffffe
fffffffd
fffffffd
00000002
00000000
00000001
fffffffe
fffffffe
ffffffff
fffffffb
fffffffc
fffffffe
fffffffd
fffffffb
00000000
fffffffc
fffffffe
ffffffff
fffffffe
fffffffc
fffffffe
00000001
00000000
00000002
ffffffff
fffffffc
fffffffd
fffffff9
fffffffb
ffffffff
ffffffff
00000002
00000000
ffffffff
00000000
00000002
ffffffff
ffffffff
fffffffe
00000003
00000003
00000001
00000002
00000001
00000000
00000007
00000005
00000002
ffffffff
ffffffff
ffffffff
00000001
00000000
00000000
00000002
fffffffe
00000000
fffffffc
fffffffc
fffffffd
00000003
00000000
ffffffff
00000003
00000004
00000000
00000000
fffffffe
fffffffe
00000002
ffffffff
fffffffb
fffffffc
fffffff9
fffffffa
00000002
fffffff8
fffffffa
00000003
ffffffff
fffffffc
00000000
fffffffd
ffffffff
fffffffd
fffffff8
ffffffff
ffffffff
fffffffc
00000000
00000002
00000001
00000000
fffffffe
fffffffe
fffffffe
fffffff8
fffffffc
ffffffff
fffffffb
ffffffff
00000000
00000000
00000002
00000003
00000001
00000005
00000001
ffffffff
00000000
00000001
ffffffff
fffffffd
fffffffd
00000001
ffffffff
fffffffd
00000001
00000000
00000000
00000000
00000004
00000001
00000001
00000006
00000001
fffffffb
fffffffd
fffffffd
00000000
00000000
fffffffe
fffffffd
fffffffd
fffffffc
fffffffd
fffffffb
fffffffb
fffffffe
fffffffa
fffffffb
00000000
ffffffff
ffffffff
00000001
00000004
00000001
00000001
00000005
00000001
fffffffc
fffffffd
ffffffff
fffffff5
fffffff5
fffffff8
00000001
00000005
00000002
00000000
ffffffff
00000002
fffffffd
fffffffd
00000000
fffffff9
fffffff3
fffffffb
fffffffe
fffffffd
00000001
00000003
00000002
00000003
fffffffb
00000000
fffffffe
00000000
00000002
00000000
00000002
00000005
00000001
00000002
00000000
00000000
ffffffff
ffffffff
fffffffc
00000000
fffffffe
00000000
fffffffc
fffffff7
fffffffc
ffffffff
fffffffd
fffffffe
00000002
00000007
00000001
00000000
fffffffe
fffffffe
00000000
fffffffe
fffffffc
00000000
00000001
00000001
00000000
00000000
00000000
fffffffd
00000000
fffffffe
00000000
fffffffd
fffffffc
fffffffc
fffffffa
fffffffd
fffffffc
fffffffb
fffffffe
ffffffff
fffffffe
fffffffb
fffffffd
00000001
fffffffe
fffffffe
00000000
fffffffd
00000000
fffffffd
ffffffff
00000002
00000005
00000004
00000004
00000008
00000005
00000000
00000003
00000003
00000002
00000002
00000001
00000001
00000000
00000000
00000003
00000003
ffffffff
ffffffff
fffffffc
ffffffff
ffffffff
fffffffc
fffffffd
fffffffa
fffffffb
fffffffe
fffffffb
fffffff4
fffffff9
ffffffff
fffffffc
fffffffe
ffffffff
00000000
00000002
ffffffff
fffffffd
00000001
fffffffd
00000000
00000000
ffffffff
fffffffe
fffffffd
00000000
00000000
00000003
00000001
00000000
00000000
fffffffc
fffffffa
fffffffa
fffffffe
fffffffe
fffffffc
00000003
fffffffe
fffffffc
00000003
00000001
00000001
fffffffe
fffffffc
fffffffe
ffffffff
00000000
00000002
fffffffc
fffffffd
00000003
fffffff6
fffffff6
fffffff7
fffffffe
fffffffe
fffffffc
00000004
00000000
00000001
fffffffe
fffffffa
fffffffd
00000001
ffffffff
00000000
00000000
ffffffff
00000002
fffffffe
ffffffff
00000002
ffffffff
ffffffff
00000002
00000000
00000005
fffffffe
fffffffd
00000001
00000002
00000001
fffffffe
00000000
00000000
00000000
00000000
00000000
fffffffe
00000004
00000001
00000000
00000004
fffffffd
fffffffd
ffffffff
ffffffff
00000000
ffffffff
fffffffe
00000001
00000000
00000003
00000003
00000001
00000000
fffffff9
00000003
ffffffff
fffffffb
00000002
00000003
fffffffa
00000000
fffffffb
00000000
00000001
00000000
00000000
00000000
00000000
00000003
00000000
fffffffe
00000001
ffffffff
ffffffff
00000002
ffffffff
fffffffc
00000002
fffffffc
00000000
fffffffe
00000001
00000000
fffffffe
00000002
fffffffd
fffffffd
fffffffd
ffffffff
ffffffff
00000000
fffffffe
ffffffff
00000000
00000000
fffffffe
00000000
00000002
00000000
fffffffe
00000000
00000000
00000000
fffffffb
fffffffd
00000000
00000002
fffffffc
fffffffb
00000006
00000000
ffffffff
00000003
00000001
fffffffd
00000000
fffffffc
fffffffa
00000004
fffffffa
fffffff8
00000002
fffffffb
00000000
00000005
00000000
00000000
00000003
ffffffff
fffffffe
00000005
00000000
ffffffff
00000001
fffffffd
ffffffff
fffffffd
fffffffa
fffffffe
fffffffe
fffffffa
fffffffd
fffffffc
00000001
00000000
00000000
00000000
00000000
fffffffe
fffffffb
fffffffe
00000000
00000000
fffffffd
00000001
fffffffd
ffffffff
fffffffe
fffffff9
00000000
00000000
ffffffff
00000000
00000002
fffffffe
00000002
00000001
00000000
00000005
fffffffe
00000000
00000000
fffffffa
fffffffe
fffffffd
00000002
00000002
00000000
fffffffb
fffffffb
ffffffff
00000000
fffffffc
00000001
00000001
00000000
00000000
00000000
00000002
00000002
00000001
ffffffff
00000002
00000000
fffffffc
00000001
00000004
00000003
00000000
00000003
00000003
ffffffff
00000000
fffffffe
fffffffe
00000000
fffffffd
00000003
00000000
fffffffd
00000001
fffffffe
ffffffff
00000000
00000004
ffffffff
fffffffb
00000008
00000001
fffffffc
00000002
00000000
fffffffd
00000000
00000000
fffffffd
00000000
00000003
00000000
00000000
00000000
ffffffff
00000006
00000000
ffffffff
00000000
00000000
ffffffff
00000002
fffffffd
00000000
00000006
fffffffd
00000001
00000005
fffffffb
ffffffff
00000003
fffffff8
ffffffff
fffffffc
00000000
fffffffe
ffffffff
00000000
ffffffff
00000001
ffffffff
00000001
fffffffb
fffffffe
00000000
fffffffd
fffffffe
ffffffff
00000000
00000001
ffffffff
fffffffe
fffffffe
00000001
fffffff6
fffffffe
00000003
fffffffd
fffffff9
00000000
ffffffff
fffffffc
00000000
fffffffb
00000003
00000004
fffffff6
fffffffc
00000005
fffffffd
00000000
00000005
00000000
00000000
00000000
00000002
00000000
00000000
fffffffd
00000001
00000003
00000000
00000001
00000006
fffffff9
fffffffd
00000002
00000000
00000000
ffffffff
fffffffe
00000002
fffffffe
fffffffc
00000003
00000000
ffffffff
00000008
ffffffff
ffffffff
00000004
fffffffd
fffffffc
00000001
fffffffe
00000004
ffffffff
00000001
ffffffff
00000000
00000001
00000000
00000003
00000000
fffffff9
00000000
00000001
fffffff7
fffffffe
00000004
ffffffff
00000002
fffffffd
00000000
fffffffe
fffffffe
00000002
00000000
00000001
00000003
00000007
00000004
00000004
00000002
fffffffe
00000002
00000000
00000000
00000003
00000001
ffffffff
fffffffa
ffffffff
00000000
fffffff7
fffffffc
00000002
fffffff9
fffffffc
00000001
00000001
fffffffc
fffffffd
00000002
00000000
fffffffe
00000000
00000002
00000001
00000002
00000000
fffffffe
00000000
0000000a
00000003
fffffffa
00000007
00000007
fffffffc
fffffffc
fffffffe
fffffffd
fffffffd
00000000
00000001
00000002
ffffffff
00000000
00000000
00000002
ffffffff
fffffffe
ffffffff
00000000
ffffffff
fffffffe
00000001
00000000
fffffffe
00000007
00000003
00000000
00000003
00000008
fffffffe
fffffff9
00000000
00000006
fffffffb
fffffffe
00000006
fffffffd
00000000
00000005
fffffffd
00000001
00000001
fffffffb
00000000
00000001
fffffff9
00000000
00000005
00000000
00000000
00000001
fffffffe
fffffffe
00000000
fffffffe
00000000
ffffffff
00000000
ffffffff
00000000
00000000
00000003
00000000
fffffffe
ffffffff
fffffffe
fffffffe
fffffffa
ffffffff
ffffffff
fffffff7
00000000
00000005
00000000
00000006
fffffffb
00000001
00000000
00000000
00000000
fffffffc
fffffffc
fffffff7
fffffff9
fffffff8
00000000
00000005
fffffff8
ffffffff
00000005
fffffff7
ffffffff
00000001
00000006
00000005
00000003
00000005
fffffffd
00000000
00000000
0000000a
00000002
00000002
00000006
00000002
00000005
0000000a
00000000
fffffffa
00000000
fffffffd
00000000
ffffffff
00000004
00000000
fffffffa
00000003
00000000
fffffffb
00000000
00000000
fffffffd
fffffffe
fffffffe
fffffffc
fffffffe
00000000
fffffff7
fffffffc
fffffff9
00000000
ffffffff
fffffffa
00000000
ffffffff
fffffffa
00000005
00000000
fffffffd
fffffffd
00000000
00000005
ffffffff
00000000
00000000
00000001
00000000
00000000
fffffffe
00000000
00000000
fffffffa
00000003
00000000
fffffffa
ffffffff
fffffffe
00000005
00000001
fffffffd
00000007
00000002
fffffffc
00000006
00000004
00000007
00000000
fffffffd
00000005
fffffffc
fffffffd
00000000
ffffffff
ffffffff
fffffffe
00000002
00000000
fffffffb
00000000
00000002
fffffffc
ffffffff
00000000
00000008
00000000
fffffff8
0000000a
00000000
fffffff8
0000000b
fffffffc
fffffff6
ffffffff
00000000
00000000
00000001
00000000
00000000
00000002
00000005
fffffffd
fffffffb
ffffffff
ffffffff
00000000
fffffffe
00000000
00000000
00000001
00000000
00000000
ffffffff
00000000
00000000
00000003
ffffffff
00000005
00000002
fffffffd
fffffffe
ffffffff
fffffffb
fffffffc
fffffffd
fffffffb
fffffffe
fffffffe
fffffffd
fffffffe
fffffff6
fffffffe
ffffffff
fffffff4
fffffffc
ffffffff
fffffffa
fffffffd
fffffffe
ffffffff
00000001
00000003
00000000
00000001
00000000
00000002
00000000
fffffffe
00000004
00000000
fffffffe
00000000
fffffffc
fffffffd
fffffffd
fffffffd
00000000
fffffffe
00000000
ffffffff
ffffffff
00000000
fffffffc
fffffffc
ffffffff
ffffffff
00000000
00000000
fffffffd
fffffffc
00000000
00000000
00000000
00000003
fffffffd
00000006
fffffffc
00000000
0000000c
00000000
00000001
0000000b
00000000
fffffffc
fffffff8
fffffffe
fffffffc
fffffff2
fffffffc
00000000
fffffffb
00000001
00000002
fffffffd
fffffffe
fffffffd
00000000
00000001
fffffffc
ffffffff
00000000
fffffff9
fffffffc
fffffffd
fffffffb
fffffffe
fffffffe
ffffffff
fffffffd
00000000
fffffffe
00000000
fffffffe
ffffffff
00000000
fffffffe
fffffffe
fffffffc
fffffffe
00000003
00000007
00000002
ffffffff
00000001
00000000
00000000
00000000
00000000
fffffffd
fffffffe
00000001
00000000
ffffffff
ffffffff
fffffffb
ffffffff
00000001
fffffffc
fffffff8
00000002
fffffffa
fffffff8
fffffffd
fffffff9
fffffff9
fffffff9
00000001
00000002
00000003
00000001
ffffffff
00000000
00000000
fffffffe
fffffffe
00000000
fffffffe
00000001
00000000
fffffffc
ffffffff
00000003
00000002
00000001
00000001
fffffffe
fffffffe
00000004
fffffffd
ffffffff
00000005
ffffffff
00000002
ffffffff
fffffffe
00000000
ffffffff
ffffffff
