00000000
00000005
00000007
00000004
00000000
00000000
00000000
00000000
00000001
00000000
fffffffe
00000000
00000001
00000000
00000001
00000004
00000000
00000000
00000000
00000000
00000000
00000002
ffffffff
00000000
00000000
00000000
ffffffff
00000000
00000000
00000000
00000000
00000000
fffffffd
00000000
00000001
00000000
00000000
00000000
00000002
00000000
00000000
00000000
fffffffd
00000001
00000001
00000000
fffffffe
00000001
00000000
ffffffff
00000004
fffffffa
00000000
fffffffe
00000001
00000000
00000009
00000001
00000002
00000000
00000000
00000000
00000000
00000000
00000000
00000000
ffffffff
00000000
00000000
00000002
fffffffe
fffffff4
00000001
00000000
ffffffff
00000000
00000002
00000000
00000000
00000001
00000000
00000000
00000000
00000000
00000000
00000000
fffffffc
00000000
00000000
ffffffff
ffffffff
00000000
00000000
fffffffc
00000000
00000000
00000000
00000000
00000000
ffffffff
00000000
fffffffe
00000000
00000000
00000000
00000000
fffffffd
00000000
00000000
00000000
00000000
00000000
00000000
00000006
00000000
00000001
ffffffff
00000000
fffffffb
00000000
00000000
0000000e
fffffffe
00000000
00000000
00000000
00000000
fffffffe
00000001
ffffffff
fffffffd
00000000
00000000
00000000
00000000
00000001
fffffffe
00000000
00000000
00000000
fffffff9
00000000
00000000
00000000
00000000
00000000
00000000
00000000
00000003
00000000
00000001
00000000
00000000
00000002
00000000
00000000
00000005
00000000
00000000
ffffffff
00000000
00000000
00000000
00000000
00000000
ffffffff
00000000
00000000
fffffffd
ffffffff
00000000
ffffffff
00000000
00000000
00000000
00000000
ffffffff
00000000
00000000
00000000
00000000
00000000
ffffffff
00000000
00000000
fffffffc
00000001
00000000
00000000
00000001
fffffffe
fffffff2
00000000
00000001
00000001
00000001
fffffff8
fffffffe
00000000
00000000
ffffffff
00000000
00000000
00000001
00000000
00000000
00000002
00000000
00000000
fffffffe
00000000
fffffffb
00000000
00000001
00000000
0000000c
00000001
00000009
00000001
00000000
00000000
00000001
00000000
00000000
00000000
00000000
00000000
00000003
00000000
00000000
00000000
00000000
fffffffe
00000000
00000000
00000000
00000000
00000000
00000000
00000000
00000000
00000006
00000001
00000000
00000003
00000000
00000000
00000002
fffffffe
fffffffb
00000004
00000001
00000003
ffffffff
00000000
00000002
ffffffff
00000000
ffffffff
00000000
00000000
00000000
00000000
00000000
00000000
ffffffff
00000001
00000000
00000001
fffffffe
00000002
00000001
00000001
00000000
00000000
00000002
ffffffff
00000000
fffffff5
00000000
fffffffb
00000000
00000000
00000000
00000000
ffffffff
00000002
00000000
00000002
00000000
00000000
ffffffff
00000000
fffffffe
00000002
00000000
00000001
00000000
ffffffff
00000004
fffffffd
0000000d
00000002
ffffffff
fffffffe
00000000
00000000
00000000
00000001
00000000
fffffffd
00000000
00000001
00000000
00000000
00000000
00000000
00000000
00000000
00000004
fffffffe
00000000
00000000
00000000
00000001
00000000
00000000
00000000
00000000
00000000
00000000
00000000
fffffff3
ffffffff
00000000
00000000
00000000
00000000
00000001
00000001
00000001
00000002
00000000
00000000
00000000
00000002
00000000
fffffffe
00000000
00000000
00000001
00000000
fffffff6
00000002
00000000
00000000
fffffffb
fffffffd
00000000
00000000
00000000
00000000
00000004
00000000
ffffffff
00000000
00000000
00000000
fffffffe
00000000
00000000
fffffff9
ffffffff
00000000
fffffffc
00000000
00000000
00000000
00000000
00000000
fffffffe
00000000
00000001
00000000
00000000
ffffffff
00000001
00000000
00000000
fffffff9
00000000
fffffffe
00000000
00000004
00000000
00000000
00000000
00000000
00000000
00000000
00000002
00000000
00000000
00000000
00000000
00000000
00000000
00000001
00000001
00000001
ffffffff
fffffffa
00000000
00000000
00000000
00000000
ffffffff
fffffffd
00000000
00000000
00000000
00000001
00000000
00000000
ffffffff
fffffffe
00000000
00000000
00000002
00000000
00000000
00000000
ffffffff
00000000
00000000
00000000
00000002
00000001
00000000
00000000
00000001
00000000
00000000
00000000
00000000
00000000
00000000
00000000
00000001
00000000
00000000
ffffffff
ffffffff
00000000
ffffffff
00000000
00000003
00000000
00000000
00000001
00000000
00000001
ffffffff
00000000
00000007
00000002
00000000
00000000
00000000
00000000
00000000
00000000
00000000
fffffffe
fffffffe
00000000
00000000
fffffffc
ffffffff
00000000
00000001
00000000
fffffffe
00000000
00000000
00000000
00000003
fffffff8
ffffffff
ffffffff
00000000
00000000
00000008
fffffffe
00000000
00000000
00000002
00000007
00000000
00000004
00000000
00000000
00000003
00000000
00000000
ffffffff
00000000
00000000
00000000
00000000
00000000
00000001
00000000
00000002
fffffffb
00000000
00000000
00000002
ffffffff
00000000
00000000
fffffff6
fffffffc
00000000
00000000
00000000
00000000
00000000
00000000
00000000
00000000
00000000
00000001
00000000
ffffffff
00000000
00000000
00000000
00000003
00000004
00000000
00000000
00000002
00000000
fffffffc
00000000
00000000
00000000
00000000
00000000
00000000
00000000
00000000
00000000
00000000
00000001
ffffffff
00000000
00000000
00000001
00000000
00000001
00000000
fffffffa
00000001
00000001
00000000
ffffffff
00000002
00000000
fffffffe
00000000
00000000
00000000
00000000
fffffffe
00000003
fffffffc
00000000
00000001
00000000
00000000
ffffffff
00000000
00000002
00000000
00000000
00000000
00000000
00000000
00000005
00000000
00000001
00000000
00000000
fffffffe
ffffffff
00000000
00000002
00000000
00000000
ffffffff
ffffffff
00000000
00000000
00000000
00000000
fffffffa
00000000
00000000
fffffffd
00000002
00000000
fffffffe
00000000
00000000
00000000
00000000
00000000
00000001
00000000
00000000
00000001
00000000
00000000
00000007
00000002
fffffff8
fffffffc
00000000
00000000
00000000
fffffff9
00000000
00000001
00000000
ffffffff
00000000
ffffffff
00000000
00000000
00000000
00000000
ffffffff
00000003
00000000
00000000
00000003
00000005
00000000
00000000
00000001
00000000
00000000
00000000
00000000
00000000
00000000
00000001
00000000
00000002
00000000
ffffffff
00000000
00000002
00000000
00000000
00000000
fffffffc
00000005
00000001
ffffffff
00000000
00000003
00000001
00000000
00000000
00000002
00000000
00000000
00000000
00000002
ffffffff
00000001
00000000
00000000
ffffffff
00000000
ffffffff
00000000
00000008
00000000
00000001
00000000
00000001
00000000
00000002
00000004
00000001
00000000
00000000
00000000
00000002
00000000
00000000
fffffffb
00000000
fffffffe
00000000
00000000
fffffffe
00000000
00000000
00000000
00000000
00000002
00000000
00000000
00000002
ffffffff
00000000
fffffffb
00000000
00000005
00000000
00000005
00000000
00000000
fffffff1
00000000
00000000
00000000
ffffffff
fffffffe
00000001
00000000
00000000
00000000
00000000
00000003
00000000
00000000
00000001
00000000
fffffff6
fffffffe
00000000
00000000
00000000
00000000
00000000
00000000
ffffffff
fffffffe
00000000
00000000
00000004
fffffffd
00000000
00000000
fffffffd
00000000
00000000
00000001
ffffffff
ffffffff
00000002
00000000
00000000
00000000
00000001
00000003
00000003
00000000
00000000
fffffff9
00000000
ffffffff
ffffffff
00000000
00000000
ffffffff
00000000
fffffffa
00000001
00000001
00000000
00000000
fffffff8
00000000
00000000
00000000
00000003
00000000
00000000
00000000
00000000
00000007
0000000b
00000000
00000000
00000000
00000000
00000000
00000000
00000001
00000000
00000000
00000002
00000000
00000000
fffffffd
fffffffe
ffffffff
00000000
00000004
00000005
00000000
00000000
00000000
00000001
00000000
00000001
00000000
00000002
00000000
00000002
00000000
fffffffe
00000000
00000004
00000000
00000000
00000000
00000000
00000000
fffffffc
fffffffd
fffffffe
00000000
00000000
00000000
00000000
00000000
ffffffff
00000000
00000000
ffffffff
00000000
fffffffb
ffffffff
00000000
00000002
ffffffff
00000000
00000000
fffffffd
00000000
00000000
00000000
ffffffff
00000000
ffffffff
00000000
00000001
00000002
fffffffe
ffffffff
00000000
00000001
00000000
00000000
00000000
00000000
ffffffff
00000000
00000000
00000000
00000000
00000001
fffffffe
00000000
00000000
00000002
ffffffff
ffffffff
00000005
00000000
00000009
00000000
00000000
00000000
00000000
00000000
fffffff7
00000002
00000000
00000000
00000000
00000000
00000002
00000006
00000000
ffffffff
fffffffc
0000000e
00000014
00000000
fffffffd
ffffffff
00000000
00000002
00000000
fffffffd
00000000
00000000
00000000
00000000
00000000
00000000
ffffffff
00000001
00000000
fffffffd
00000000
00000001
00000000
00000000
00000001
00000001
00000004
00000000
00000000
00000000
00000000
00000000
00000000
00000000
00000000
00000000
ffffffff
ffffffff
ffffffff
00000002
ffffffff
00000000
00000000
fffffffb
00000000
00000000
00000000
00000000
00000000
00000009
00000000
00000000
ffffffff
fffffffe
ffffffff
00000000
00000000
00000000
fffffffb
00000001
00000001
00000000
00000000
00000000
fffffffb
ffffffff
00000001
00000001
00000000
ffffffff
00000001
ffffffff
fffffff8
00000000
00000000
00000000
00000000
00000000
00000000
00000000
00000000
ffffffff
ffffffff
fffffff9
00000000
fffffffd
fffffffc
00000000
00000001
00000001
fffffffb
00000000
00000000
00000000
00000002
00000001
00000001
00000000
00000000
00000000
00000000
ffffffff
00000000
00000000
00000003
ffffffff
00000002
00000000
00000000
00000000
00000008
00000000
00000000
00000003
fffffffc
00000000
00000000
00000000
00000000
00000000
00000000
00000000
00000000
00000000
00000000
00000000
00000000
00000000
00000001
00000000
00000000
00000000
00000000
00000000
00000000
00000000
00000000
00000000
00000000
00000001
00000000
00000000
00000000
00000000
00000000
00000000
00000000
00000000
00000000
00000000
00000000
00000000
00000000
00000000
00000000
00000000
00000000
00000000
00000000
00000000
00000000
00000000
ffffffff
00000000
00000001
00000000
00000000
00000000
00000000
00000000
00000000
ffffffff
00000000
00000000
00000000
00000000
fffffffc
00000000
00000000
00000000
00000000
00000000
00000000
00000000
00000000
00000000
00000000
00000000
00000000
00000000
00000000
ffffffff
00000000
00000000
00000000
00000000
00000003
00000000
00000000
00000000
00000000
00000000
00000000
00000000
00000000
00000000
00000000
00000000
00000000
00000000
00000000
00000000
00000000
00000001
00000000
00000000
00000000
00000000
00000000
00000000
00000000
00000000
00000000
00000000
00000000
00000000
00000000
00000000
00000000
00000000
00000000
00000000
00000000
00000001
00000000
00000000
00000000
00000000
00000000
00000000
00000000
00000000
00000000
00000000
00000000
00000000
00000000
00000000
00000000
00000000
00000000
00000000
00000000
00000000
00000000
ffffffff
00000000
00000000
00000000
00000000
00000000
00000000
00000000
00000000
00000000
00000000
00000000
00000000
00000000
00000000
00000000
00000000
00000000
00000000
00000000
00000000
00000000
00000001
ffffffff
00000000
00000000
00000000
00000000
00000000
00000000
00000000
00000000
00000000
00000000
00000000
00000000
00000000
00000000
00000000
00000000
00000000
00000000
00000000
00000000
00000000
00000000
00000000
ffffffff
00000000
00000000
00000000
00000000
00000000
00000000
00000000
00000000
00000000
00000000
00000000
00000000
00000000
00000000
00000000
00000000
00000000
00000000
00000000
00000000
00000001
00000000
00000000
00000000
00000000
00000000
00000000
00000000
00000000
00000000
00000000
00000000
00000000
00000000
00000000
00000000
00000000
fffffffe
00000000
00000000
00000000
00000000
00000000
00000000
00000000
00000000
00000000
00000000
00000000
00000002
00000000
00000000
00000000
00000000
00000000
00000000
00000000
00000000
00000000
00000000
00000000
00000000
00000000
00000000
ffffffff
00000000
00000000
00000000
00000000
00000000
00000000
00000000
00000000
fffffffe
00000000
00000000
00000000
00000000
00000000
00000000
00000000
00000000
00000000
00000000
00000000
00000000
00000000
00000000
00000000
00000000
00000000
00000000
00000000
00000000
00000000
fffffffe
00000000
00000000
00000000
00000000
00000000
00000000
00000000
00000000
00000000
00000000
00000000
00000000
00000000
00000000
00000000
00000000
00000000
00000000
00000000
00000000
ffffffff
00000000
00000001
00000000
00000000
00000000
00000000
00000000
00000000
00000000
00000000
00000001
00000000
00000000
00000000
00000000
00000000
00000000
00000000
00000000
00000001
00000000
00000000
00000000
00000000
00000000
00000000
00000000
00000000
00000000
00000000
00000000
00000000
00000001
00000000
00000000
ffffffff
00000000
00000000
fffffffe
00000000
00000001
00000003
00000000
00000000
00000000
00000000
00000000
00000000
00000000
00000000
00000000
00000000
00000000
00000000
00000000
00000000
00000000
00000000
00000000
00000000
00000000
00000000
00000000
00000000
00000000
00000000
00000000
00000000
00000000
00000000
00000000
00000001
00000000
00000000
00000000
00000000
00000002
00000000
00000000
00000000
00000000
00000000
00000001
00000000
00000000
00000000
00000000
00000000
00000000
ffffffff
00000000
00000000
00000000
00000000
00000000
00000001
00000000
00000000
00000000
00000000
00000000
00000000
00000000
00000002
00000000
00000000
00000000
00000000
00000000
00000000
00000000
00000000
00000000
00000000
00000000
00000000
00000000
00000000
00000000
00000000
00000000
00000001
00000000
00000000
00000000
00000000
00000000
00000000
00000000
00000000
00000000
00000000
00000001
00000000
00000000
00000001
00000000
00000000
00000000
00000000
00000000
00000001
00000000
00000000
00000000
00000000
00000000
00000000
00000000
00000000
00000000
00000000
00000000
00000000
ffffffff
00000000
00000000
00000000
00000000
00000000
00000000
00000000
00000000
00000000
ffffffff
00000000
00000000
00000000
00000000
00000000
00000000
00000000
00000000
00000000
00000000
00000000
00000000
00000000
00000000
00000000
00000000
00000000
00000000
ffffffff
00000000
00000000
00000000
00000000
00000000
00000000
00000000
00000000
00000000
00000000
00000000
00000000
00000000
00000000
00000000
00000000
00000000
00000000
00000000
00000000
00000000
00000000
00000000
00000000
00000000
00000000
00000000
00000000
00000000
00000000
00000000
00000000
00000000
00000000
00000000
00000000
00000000
00000000
00000000
00000000
00000000
ffffffff
00000000
00000000
00000000
00000000
00000000
ffffffff
00000000
00000000
00000000
ffffffff
00000000
00000000
00000000
fffffffe
00000000
00000000
00000000
00000000
00000000
00000000
00000000
00000000
00000000
00000000
00000000
00000000
00000001
00000000
00000000
00000000
00000000
00000000
00000000
00000000
00000000
00000000
ffffffff
00000002
00000000
00000000
00000000
00000000
00000002
00000000
00000000
00000000
00000000
00000000
00000000
00000000
00000000
00000000
00000000
00000000
00000000
00000000
00000000
00000000
00000000
00000000
00000000
00000000
00000000
00000000
00000000
00000000
00000000
00000000
00000000
00000000
00000000
00000000
00000000
00000000
00000000
00000000
00000000
00000000
00000000
00000000
00000000
00000000
00000000
00000000
ffffffff
00000000
00000000
00000000
00000000
00000000
00000000
00000000
00000000
00000000
00000000
00000000
00000000
00000000
00000000
fffffffe
00000000
ffffffff
00000000
00000000
00000000
00000000
00000000
00000000
00000000
00000000
00000000
00000000
00000000
00000000
00000000
00000000
00000000
00000000
00000000
ffffffff
00000000
00000000
00000000
00000000
00000000
ffffffff
00000000
00000000
00000000
00000000
00000000
00000000
00000000
00000000
00000000
00000000
00000000
00000000
00000000
00000000
00000000
00000000
00000000
fffffffe
00000000
00000000
00000000
00000000
00000000
00000000
00000000
00000000
00000000
00000000
00000000
00000001
00000000
00000000
00000000
00000000
00000000
00000000
ffffffff
00000000
00000000
00000000
00000000
00000000
ffffffff
00000000
00000000
00000000
00000000
00000000
00000000
00000000
00000000
00000000
00000000
00000000
00000000
00000000
ffffffff
00000000
ffffffff
00000000
00000000
00000000
00000000
ffffffff
00000000
00000000
00000000
00000000
00000000
00000000
00000000
00000000
00000000
ffffffff
00000000
00000000
00000000
00000000
00000000
00000000
00000000
00000000
00000000
00000000
00000000
00000000
00000000
00000000
00000000
00000000
ffffffff
00000000
ffffffff
ffffffff
00000000
00000000
00000000
00000000
00000000
00000000
00000000
00000000
00000001
00000000
00000000
00000000
00000000
00000000
00000000
00000000
00000000
00000000
00000000
ffffffff
00000000
00000000
00000000
00000000
00000000
00000000
ffffffff
00000000
00000000
fffffffd
00000000
00000000
00000000
00000000
00000000
00000000
00000000
00000000
00000000
00000000
00000000
00000000
00000000
00000000
00000001
00000000
ffffffff
00000000
00000000
00000000
00000000
00000000
00000000
00000000
00000000
00000000
00000000
00000000
00000000
00000000
00000000
00000000
00000000
00000000
00000000
00000000
00000000
00000000
00000001
00000000
00000000
00000000
00000000
00000000
00000000
00000000
00000000
00000000
00000000
00000000
00000000
00000000
00000000
00000000
00000000
00000000
00000000
00000000
00000000
00000000
00000000
00000000
00000000
00000000
00000000
00000000
00000000
00000000
00000000
00000000
00000000
00000001
00000000
00000000
ffffffff
00000000
00000001
00000000
00000000
00000000
00000001
00000000
00000000
00000000
00000000
00000000
00000000
00000000
00000000
00000000
00000000
00000000
00000000
00000000
00000000
00000000
00000000
00000000
00000000
00000000
00000000
00000000
00000000
00000000
00000000
00000000
00000000
00000000
00000000
00000000
00000000
00000000
fffffff8
00000000
00000000
00000000
00000000
00000000
00000000
00000000
00000000
00000000
00000000
00000000
00000000
00000000
00000000
ffffffff
00000000
00000000
fffffffe
00000000
00000000
00000001
00000000
00000000
00000000
00000000
00000000
ffffffff
00000000
00000000
00000000
00000000
00000000
00000000
00000000
00000000
00000000
00000000
00000000
00000000
00000000
00000000
ffffffff
00000000
00000000
00000000
00000000
00000000
00000000
00000000
00000000
00000000
00000000
00000000
00000000
00000000
00000000
00000000
00000000
00000000
00000000
00000000
00000000
00000000
00000000
00000000
00000000
ffffffff
00000000
00000000
00000000
00000000
00000000
00000000
00000001
00000000
00000000
00000001
00000001
00000000
00000000
00000000
00000000
00000000
00000000
00000000
00000000
00000000
00000000
00000000
00000000
00000000
00000000
00000000
00000000
00000000
00000000
00000000
00000000
fffffffc
00000000
00000000
00000000
00000000
00000000
00000001
ffffffff
00000001
00000000
00000000
00000000
00000000
00000000
00000000
00000000
00000000
00000000
00000001
00000000
00000000
00000000
00000000
ffffffff
00000000
00000000
00000000
00000002
00000000
00000000
00000000
00000000
00000000
00000000
00000000
00000000
00000000
00000001
00000000
fffffffa
fffffff7
00000000
fffffff5
00000000
fffffff2
fffffffa
00000000
ffffffef
ffffffff
fffffff5
fffffff3
ffffffee
ffffffee
00000000
fffffffb
00000001
fffffffb
00000001
fffffff6
fffffff9
fffffff4
00000002
00000000
fffffff8
ffffffff
00000000
00000001
fffffff8
00000000
fffffffc
fffffff9
00000000
ffffffff
fffffff7
00000000
fffffffd
ffffffef
fffffff3
00000000
fffffffb
fffffffa
fffffffa
00000000
fffffff4
fffffff7
ffffffff
fffffff2
fffffffc
00000000
fffffffd
fffffff5
00000010
fffffff8
00000004
00000000
00000001
00000004
00000004
00000000
00000000
fffffffa
fffffffb
00000000
00000002
fffffff8
00000001
ffffffff
00000003
fffffffe
fffffff3
00000000
fffffff7
0000000a
fffffffb
00000000
fffffff9
fffffff4
00000002
00000000
00000001
00000003
00000004
ffffffff
ffffffff
00000000
ffffffef
fffffffd
ffffffeb
00000002
00000000
ffffffe9
fffffff0
fffffffe
00000003
00000002
fffffff8
fffffff7
00000000
fffffff4
00000000
fffffffc
00000003
00000001
00000003
00000003
00000001
00000001
fffffff6
ffffffff
00000000
00000002
fffffff6
fffffffa
00000004
00000000
ffffffe9
00000000
fffffffd
00000013
fffffff5
00000000
00000002
00000001
fffffff6
fffffffb
fffffff1
fffffff5
fffffff2
fffffffc
fffffffc
fffffff8
00000000
00000000
fffffff9
fffffffe
00000001
fffffff4
00000001
00000000
00000000
fffffffd
ffffffff
00000000
00000000
00000000
fffffffc
00000000
fffffff1
00000000
00000000
fffffff4
00000002
00000000
fffffff9
fffffff6
fffffff3
fffffff9
00000000
fffffff0
00000000
00000000
fffffff7
fffffffa
00000001
ffffffff
fffffffa
fffffff7
00000000
fffffffa
00000000
ffffffff
00000002
00000000
fffffff8
00000002
00000001
00000001
ffffffff
00000000
fffffff9
00000001
ffffffec
fffffffe
fffffff8
00000000
ffffffff
ffffffef
fffffffc
ffffffff
00000001
fffffff4
fffffff7
fffffff7
fffffffe
fffffffb
00000000
fffffffa
00000000
00000000
00000003
fffffff7
00000000
00000000
fffffff8
fffffff3
00000000
fffffff8
00000000
fffffffd
fffffff5
00000006
00000000
fffffff1
fffffff6
00000001
00000002
00000000
fffffff9
00000005
fffffff9
00000000
00000000
00000002
fffffff7
fffffff9
00000000
fffffff4
ffffffdb
00000002
00000002
fffffffd
ffffffff
fffffff6
00000001
00000000
00000000
00000000
00000001
00000000
fffffff8
00000002
fffffff7
fffffff5
00000002
fffffff7
fffffffc
fffffff6
fffffffd
fffffffa
fffffff8
fffffff8
00000007
fffffffc
fffffff5
00000002
00000002
fffffffa
fffffffd
00000000
00000003
fffffffc
00000001
00000001
fffffffb
fffffff6
fffffff3
fffffffa
00000000
00000001
ffffffe9
fffffff4
00000002
fffffff0
fffffffb
00000000
00000008
00000004
fffffffb
fffffffb
00000001
00000001
fffffff4
ffffffeb
fffffff2
ffffffff
00000001
00000002
fffffff9
00000001
fffffff7
fffffff7
fffffff6
fffffff2
ffffffee
fffffff5
fffffff7
fffffffe
fffffff1
fffffff8
fffffff0
fffffffb
fffffff7
00000001
00000000
00000000
fffffffa
00000000
fffffffc
00000001
00000001
00000000
fffffffa
00000001
fffffffe
fffffff3
fffffff2
ffffffec
fffffff3
00000000
00000002
fffffff8
ffffffeb
fffffff6
0000001a
fffffff8
00000000
fffffff7
ffffffff
00000001
fffffff3
00000002
00000000
fffffff5
00000000
fffffff7
fffffff9
00000003
fffffff9
fffffff7
00000002
00000000
fffffff5
fffffff0
ffffffef
fffffff1
ffffffef
fffffff4
fffffff9
00000004
fffffffe
fffffff3
fffffffd
ffffffe7
ffffffea
fffffff0
00000001
ffffffff
00000000
00000000
fffffffc
00000000
ffffffff
00000001
00000002
fffffffe
00000000
fffffff5
00000001
fffffff3
ffffffee
00000000
00000001
00000004
0000000d
00000002
00000000
00000001
fffffff2
00000000
fffffff9
fffffff4
00000006
fffffff9
fffffffa
00000000
ffffffed
00000000
00000000
fffffff6
ffffffee
00000003
fffffffe
ffffffec
fffffff4
ffffffeb
fffffffd
fffffff0
fffffff2
ffffffeb
ffffffe9
fffffffb
00000000
00000003
00000000
00000000
fffffff7
ffffffeb
fffffffb
00000011
00000002
ffffffeb
00000000
00000000
fffffffd
fffffff3
fffffffa
00000000
00000006
00000000
fffffffd
00000000
fffffffa
fffffff6
ffffffff
00000000
ffffffff
fffffff8
ffffffff
fffffff9
0000001a
fffffff7
00000000
00000003
fffffffc
00000007
00000000
00000001
fffffff9
fffffff7
ffffffff
fffffffc
fffffffc
fffffffd
fffffff0
00000000
00000001
00000000
fffffff6
fffffff9
fffffff1
fffffff5
fffffff7
00000003
fffffffe
fffffffb
fffffff7
fffffffb
fffffff2
fffffffb
fffffffb
fffffff5
00000000
fffffff8
00000000
fffffff0
00000000
00000000
00000001
fffffffc
00000000
fffffffb
ffffffe7
fffffffe
00000001
fffffffa
00000000
00000000
fffffff4
fffffff9
fffffff5
fffffffb
00000000
00000001
00000000
00000015
fffffff6
00000000
00000000
00000000
00000000
fffffff6
00000000
00000003
ffffffff
fffffffd
fffffff7
ffffffe8
fffffff8
00000003
ffffffef
00000000
00000000
fffffff3
00000005
ffffffff
00000000
00000001
00000001
fffffff7
00000003
00000002
00000001
00000000
fffffffa
ffffffff
fffffff5
00000001
ffffffff
ffffffff
00000000
fffffffa
00000001
00000001
ffffffff
00000000
fffffffb
fffffffe
ffffffff
00000000
00000005
00000000
00000001
00000000
fffffffe
fffffffe
00000000
ffffffff
fffffff9
fffffff9
ffffffff
00000009
ffffffff
fffffffe
fffffff3
fffffffe
00000000
fffffff9
fffffffc
00000000
ffffffff
ffffffff
00000005
00000001
ffffffff
00000006
00000000
00000000
fffffffa
00000001
ffffffff
fffffffe
00000000
ffffffff
ffffffff
00000002
00000000
fffffffe
00000000
00000000
fffffffa
fffffffb
ffffffff
00000000
00000000
00000000
00000002
fffffffb
fffffffc
00000003
ffffffff
00000001
ffffffff
fffffff9
00000001
fffffff9
00000000
ffffffff
00000001
00000000
fffffffb
fffffff6
fffffffe
ffffffff
ffffffff
fffffffd
00000000
fffffff7
00000001
00000000
fffffffe
00000000
fffffffd
00000001
00000000
00000001
fffffff9
fffffff9
00000002
00000000
fffffffa
00000000
00000000
fffffffc
00000000
fffffffc
00000001
fffffff9
fffffffe
fffffffa
00000000
0000000e
ffffffff
fffffffc
00000000
00000002
fffffffd
fffffff2
00000000
fffffffe
00000001
00000003
ffffffff
fffffff9
fffffffd
fffffffa
00000001
00000000
00000000
00000000
ffffffff
00000000
00000000
00000000
fffffffa
ffffffff
00000000
fffffff7
fffffffb
00000000
00000001
00000000
fffffffb
00000004
fffffffe
00000002
fffffffd
fffffffb
ffffffff
00000002
00000000
ffffffff
fffffffd
00000000
00000006
fffffffd
ffffffff
00000001
00000000
fffffffc
fffffff9
00000000
fffffff9
fffffff7
ffffffff
00000001
ffffffff
fffffffd
00000001
ffffffff
fffffffe
00000000
fffffff7
00000000
00000000
fffffffb
00000001
fffffffb
fffffffc
00000000
00000000
fffffffe
00000001
fffffffc
fffffffe
00000000
ffffffff
fffffffc
fffffff9
00000000
ffffffff
00000003
fffffffd
00000000
00000001
00000000
fffffffe
00000000
fffffffd
00000001
00000005
fffffffe
fffffffd
00000001
fffffffd
fffffff6
ffffffff
00000001
fffffffc
00000000
00000001
00000002
ffffffff
fffffffe
fffffffb
ffffffff
ffffffff
00000000
ffffffff
fffffffa
fffffffe
ffffffff
fffffffe
fffffffe
fffffffb
00000001
00000000
00000001
ffffffff
00000002
00000000
fffffffa
00000000
ffffffff
fffffffb
00000000
fffffffa
fffffffc
fffffffc
fffffff9
00000007
ffffffff
00000001
fffffffa
00000001
fffffffe
fffffffa
00000000
00000000
00000001
ffffffff
00000000
00000001
fffffffe
00000000
00000000
ffffffff
fffffffa
fffffff9
00000000
00000001
00000002
00000006
00000001
fffffffb
00000003
ffffffff
00000002
ffffffff
00000000
fffffffe
00000002
00000000
00000000
fffffff7
00000000
00000000
fffffff9
ffffffff
fffffffc
00000000
ffffffff
00000003
00000000
00000000
00000001
00000000
00000002
00000000
00000006
00000001
fffffffe
00000001
00000000
00000000
ffffffff
00000000
00000001
ffffffff
00000000
00000000
00000000
00000000
00000000
00000002
0000000b
fffffffe
fffffff9
fffffffe
00000001
00000001
fffffffc
00000000
fffffffc
00000001
fffffffb
00000001
00000000
ffffffff
00000001
00000000
fffffff8
fffffffb
00000000
00000000
00000000
fffffffd
00000000
00000000
00000001
00000001
fffffffe
00000000
fffffffe
fffffffd
00000000
00000002
00000000
00000000
fffffff8
00000001
00000000
00000003
fffffff8
ffffffff
00000001
00000001
00000000
00000000
fffffffe
00000000
fffffffd
fffffffd
00000000
fffffffd
fffffffe
ffffffff
00000000
00000000
fffffffb
fffffffb
fffffffb
00000000
fffffff0
00000001
fffffff6
fffffff7
00000007
00000001
00000001
fffffffe
ffffffff
00000000
00000008
00000001
fffffffb
00000000
00000007
00000006
00000000
00000001
fffffff8
00000000
00000002
fffffffb
00000000
00000001
fffffffb
00000000
fffffffd
fffffffe
00000000
00000000
fffffffe
00000002
00000000
00000002
00000001
00000003
00000000
00000001
00000000
00000000
fffffffe
ffffffff
fffffffd
fffffffe
fffffffc
ffffffff
00000000
ffffffff
00000000
fffffffd
00000001
00000000
fffffff8
ffffffff
00000001
00000000
fffffffe
ffffffff
00000000
fffffffa
fffffffc
00000000
ffffffff
fffffffc
ffffffff
fffffffc
ffffffff
00000000
00000001
00000004
ffffffff
0000000d
00000000
00000000
ffffffff
fffffffa
fffffffa
ffffffff
fffffffc
00000002
ffffffff
00000000
00000004
00000001
fffffffc
00000004
00000000
00000000
00000000
00000000
00000001
00000000
00000002
ffffffff
00000000
fffffffe
fffffffe
00000001
fffffffe
00000001
00000001
ffffffff
00000001
fffffffd
00000000
00000000
fffffff9
00000000
fffffffd
fffffffc
ffffffff
00000000
fffffffe
fffffff5
00000000
fffffffd
00000002
00000000
00000000
00000000
00000000
fffffffd
00000008
00000002
fffffffe
00000000
00000000
00000005
fffffff8
00000000
00000001
ffffffff
fffffffb
00000001
fffffffe
00000000
00000001
00000000
00000005
00000000
00000002
fffffffc
ffffffff
00000002
fffffffd
00000006
fffffffc
fffffffa
00000001
00000002
00000000
00000002
00000000
fffffffe
ffffffff
fffffffc
00000000
00000001
fffffffd
fffffffe
00000002
00000001
00000000
00000000
00000000
00000000
fffffffe
fffffff7
ffffffff
fffffffa
fffffffe
00000002
00000000
fffffffa
0000000b
fffffffe
ffffffff
fffffffb
fffffffc
ffffffff
00000001
fffffffd
00000001
fffffff5
00000000
fffffffe
fffffffa
fffffffb
00000001
00000000
fffffffc
ffffffff
00000001
00000001
00000000
ffffffff
00000000
fffffffb
00000001
00000001
ffffffff
00000001
00000000
ffffffff
ffffffff
00000002
00000007
fffffffd
fffffffc
fffffff6
fffffffa
fffffffd
ffffffff
ffffffff
00000001
00000000
ffffffff
fffffffb
fffffffc
fffffffc
ffffffff
ffffffff
00000000
fffffffd
fffffffc
00000000
00000000
00000001
00000000
fffffffb
ffffffff
00000003
fffffff9
fffffffb
fffffffa
00000000
fffffffc
ffffffff
00000000
00000000
00000001
fffffffa
ffffffff
ffffffff
ffffffff
fffffffb
fffffff4
00000000
00000001
fffffffb
00000001
fffffffd
ffffffff
fffffff9
fffffffd
00000000
ffffffff
00000005
fffffff8
ffffffff
00000000
fffffffc
00000001
fffffffe
fffffffd
fffffffe
ffffffff
00000000
fffffffd
ffffffff
ffffffff
00000001
fffffff9
00000002
fffffff8
00000001
00000000
00000000
00000000
00000000
fffffffe
00000000
00000000
fffffffc
00000000
00000001
fffffffb
ffffffff
00000000
00000001
fffffffe
fffffff9
00000000
fffffffe
00000003
fffffffb
fffffffa
00000002
00000002
00000000
00000000
fffffffd
00000000
00000001
fffffffb
00000001
00000000
ffffffff
fffffffc
fffffff7
00000001
fffffff7
fffffffe
00000000
00000000
00000000
00000000
00000000
00000001
fffffffa
00000000
00000000
00000006
fffffffb
fffffff6
fffffffe
fffffffc
ffffffff
fffffff8
00000000
00000000
ffffffff
00000008
00000000
00000000
fffffffe
fffffffe
00000008
ffffffff
00000000
00000000
fffffffa
00000000
ffffffff
00000000
ffffffff
00000000
fffffffe
00000000
00000002
fffffffa
fffffff7
fffffffe
fffffffb
fffffff9
00000000
00000001
fffffffa
00000001
00000002
00000001
fffffffe
ffffffff
fffffff9
00000000
fffffffe
fffffffe
fffffff9
fffffffe
fffffffe
00000000
ffffffff
00000000
fffffffc
00000001
ffffffff
00000000
fffffff7
00000000
00000000
ffffffff
00000000
00000000
fffffffd
00000000
fffffffd
fffffffb
fffffffd
fffffff9
fffffff8
fffffffd
00000000
fffffff9
ffffffff
00000000
fffffffc
ffffffff
00000001
00000000
fffffffe
ffffffff
00000000
ffffffff
fffffffc
00000001
00000001
00000001
ffffffff
00000001
fffffffd
fffffffb
fffffffc
00000000
ffffffff
fffffffe
ffffffff
00000000
00000000
00000000
fffffffc
ffffffff
00000000
ffffffff
fffffffb
00000000
00000001
fffffffa
fffffffe
00000001
ffffffff
fffffffe
fffffffe
fffffffc
00000000
00000000
00000000
fffffffc
fffffffb
ffffffff
00000000
fffffffd
00000000
00000001
ffffffff
00000001
fffffffe
ffffffff
00000000
00000000
00000000
fffffffe
00000001
fffffffe
fffffffd
fffffffc
fffffffe
fffffff6
00000002
fffffff8
00000001
fffffff8
00000000
ffffffff
00000001
fffffffe
fffffffb
00000000
ffffffff
00000000
00000001
fffffffd
00000002
00000000
00000000
ffffffff
fffffffc
00000000
fffffffe
00000000
fffffffb
0000000d
00000000
ffffffff
fffffff8
fffffffd
00000002
00000001
ffffffff
00000008
fffffffe
fffffffe
fffffffc
fffffffc
00000000
ffffffff
ffffffff
00000001
00000000
00000000
00000000
fffffffb
fffffffe
ffffffff
ffffffff
00000000
00000000
00000000
fffffff8
00000005
fffffffc
fffffff9
00000000
fffffffc
fffffffb
fffffffb
00000000
00000000
00000000
fffffffe
fffffffa
00000001
fffffffe
fffffffe
fffffffc
ffffffff
00000000
fffffffe
00000000
fffffffb
00000001
ffffffff
fffffffe
00000001
fffffffa
fffffffe
00000000
00000004
00000000
00000000
fffffffb
00000001
00000000
fffffffd
00000000
00000000
ffffffff
00000000
00000000
00000001
00000000
00000000
00000000
00000001
00000007
00000008
00000002
fffffffd
00000000
ffffffff
00000001
fffffffe
00000002
fffffffe
fffffff6
fffffff9
ffffffff
00000000
fffffffe
00000004
fffffffc
ffffffff
00000003
fffffffc
ffffffff
00000000
fffffffe
00000005
fffffffb
00000000
fffffffe
00000003
ffffffff
fffffffd
fffffffe
fffffffe
fffffffe
fffffff8
00000000
fffffff8
00000001
ffffffff
fffffff9
00000000
ffffffff
00000002
00000000
fffffff9
fffffffa
00000000
00000000
00000001
ffffffff
00000000
ffffffff
fffffffb
00000002
ffffffff
fffffffe
fffffffe
fffffffe
00000000
00000001
ffffffff
00000001
00000000
fffffffa
00000000
fffffff9
fffffffe
fffffffb
fffffffa
fffffff9
00000000
00000000
00000000
fffffffb
00000000
fffffffe
fffffffc
00000001
00000000
ffffffff
00000000
ffffffff
00000003
fffffffb
00000002
00000001
fffffff9
fffffffb
00000003
00000000
00000001
ffffffff
00000000
00000000
00000000
00000000
00000001
ffffffff
fffffff8
00000001
fffffffd
fffffffb
00000000
00000000
fffffffa
00000000
00000009
ffffffff
00000000
fffffffc
00000001
fffffffe
00000000
fffffff8
ffffffff
fffffff8
fffffffe
ffffffff
fffffffd
fffffffe
fffffff6
ffffffff
ffffffff
00000000
00000001
00000000
00000000
fffffffe
00000000
00000000
00000000
00000002
fffffffe
fffffffa
ffffffff
00000000
fffffffe
fffffffc
fffffffd
00000000
fffffffa
fffffffe
00000001
fffffffa
fffffffd
fffffffe
fffffffa
fffffffd
ffffffff
00000000
fffffffb
fffffffc
00000001
00000000
fffffffc
00000000
00000000
fffffffe
ffffffff
fffffffe
00000001
00000001
fffffffe
00000002
fffffffe
00000000
00000000
fffffff9
fffffffd
00000000
ffffffff
fffffffc
00000000
00000000
fffffffd
00000002
00000005
fffffffd
00000000
fffffffc
00000000
00000002
fffffffd
00000000
fffffffa
00000003
fffffff7
00000001
00000001
00000000
00000000
fffffffc
fffffffc
fffffffd
fffffffe
ffffffff
ffffffff
00000001
00000000
00000002
fffffffc
fffffffc
00000000
fffffffe
fffffffb
fffffffd
fffffff8
00000001
00000000
fffffff8
ffffffff
00000000
00000000
fffffffd
0000000a
fffffffc
fffffff9
fffffffb
fffffff7
ffffffff
ffffffff
fffffffe
00000002
00000001
ffffffff
fffffffd
fffffff9
00000002
fffffff6
00000000
00000000
00000001
fffffff8
fffffffc
fffffff8
00000000
00000000
fffffffe
00000000
ffffffff
00000001
00000002
00000000
ffffffff
fffffffe
00000000
fffffffd
00000000
00000000
00000001
fffffff7
00000003
fffffffc
fffffff9
fffffff7
fffffff9
fffffffa
00000000
fffffffa
fffffffe
00000000
fffffffd
00000001
00000000
fffffffa
fffffffe
00000000
fffffffe
fffffffd
fffffff9
00000000
00000005
00000000
00000001
ffffffff
00000008
fffffff9
00000001
ffffffff
fffffffd
00000000
fffffffc
00000001
ffffffff
fffffff6
00000001
fffffff8
ffffffff
fffffff9
00000000
fffffffe
ffffffff
00000003
00000001
00000001
00000001
ffffffff
fffffffe
00000001
00000001
00000000
fffffff7
00000001
00000000
fffffffe
ffffffff
ffffffff
ffffffff
fffffffe
fffffffe
fffffffe
fffffffa
00000000
fffffffa
00000002
00000001
00000000
fffffffe
00000000
fffffffb
00000002
fffffffe
00000001
fffffff9
fffffffe
00000001
fffffffe
fffffffb
00000000
fffffffc
ffffffff
00000000
fffffffa
00000003
00000000
ffffffff
00000000
00000003
00000001
00000003
fffffff9
00000002
00000000
fffffffa
00000000
fffffff7
ffffffff
00000007
00000005
0000000a
fffffffd
00000001
fffffff7
fffffffe
fffffffe
fffffffb
00000001
ffffffff
00000001
00000001
00000000
00000000
00000000
fffffffd
fffffffe
ffffffff
00000000
fffffff8
00000001
ffffffff
ffffffff
00000006
ffffffff
fffffffe
00000000
00000000
00000000
00000001
00000000
fffffffc
ffffffff
00000000
ffffffff
00000002
00000000
00000000
0000000a
ffffffff
fffffffb
00000000
00000001
fffffff8
00000000
00000000
00000000
00000001
ffffffff
fffffffd
ffffffff
00000000
fffffffd
00000001
00000000
ffffffff
ffffffff
00000000
00000001
00000001
00000000
ffffffff
ffffffff
ffffffff
fffffffe
00000000
00000002
fffffffc
fffffff6
00000004
00000003
00000001
fffffffa
fffffffe
ffffffff
ffffffff
fffffffd
fffffffd
ffffffff
00000000
00000002
fffffffe
00000001
fffffffd
00000001
00000000
00000002
fffffffc
fffffffe
00000000
ffffffff
ffffffff
00000001
00000000
fffffffc
fffffff9
fffffffe
00000004
fffffffe
00000000
fffffffb
00000000
00000000
fffffff7
fffffffb
ffffffff
00000000
00000001
00000001
00000000
fffffffe
00000001
00000008
fffffffb
ffffffff
00000002
00000000
ffffffff
fffffffe
fffffff7
ffffffff
fffffffb
fffffffe
00000000
fffffffe
fffffffd
00000002
fffffff9
ffffffff
00000001
00000000
fffffffc
00000000
00000000
fffffff8
00000002
fffffffc
00000000
fffffff8
ffffffff
fffffffc
00000000
ffffffff
fffffffe
00000000
fffffffc
00000001
00000001
fffffffd
00000001
fffffffc
fffffffb
ffffffff
00000002
00000000
00000002
00000000
00000000
00000001
00000002
ffffffff
fffffffe
00000000
00000001
ffffffff
00000008
fffffff7
fffffff9
fffffff9
00000002
ffffffff
00000000
fffffffe
0000000c
00000000
ffffffff
fffffffc
00000000
00000000
00000000
00000000
00000000
00000000
fffffffc
ffffffff
00000000
00000000
00000001
00000009
fffffffe
ffffffff
fffffffe
fffffffd
ffffffff
fffffffe
fffffffa
00000001
00000000
00000000
fffffffe
fffffff8
00000001
ffffffff
fffffff9
00000001
ffffffff
fffffffe
00000002
00000006
00000004
fffffffe
00000000
00000000
00000000
ffffffff
ffffffff
fffffff8
00000002
00000001
fffffffe
00000000
fffffffe
00000000
00000000
ffffffff
ffffffff
00000000
fffffffe
00000000
fffffffd
fffffff9
fffffffc
fffffffe
fffffffb
ffffffff
ffffffff
ffffffff
fffffff7
fffffffe
fffffffd
00000000
00000002
00000000
00000000
00000000
00000004
00000003
fffffffd
00000000
00000000
ffffffff
fffffff9
fffffffe
fffffffe
00000001
00000003
fffffffc
00000000
00000000
fffffffe
00000001
00000000
fffffffa
00000000
00000000
fffffffb
ffffffff
00000000
fffffffa
00000000
00000005
00000000
ffffffff
fffffff6
00000001
00000000
ffffffff
fffffffd
fffffffe
fffffff6
ffffffff
00000001
fffffffe
00000000
fffffffb
fffffffe
00000000
00000000
00000000
fffffffc
00000000
fffffff9
00000002
fffffff5
00000000
00000000
00000001
fffffffb
fffffffb
ffffffff
ffffffff
fffffffc
00000000
00000000
fffffff9
00000000
fffffffe
fffffff8
fffffffc
fffffffe
fffffff9
fffffffc
00000001
00000000
00000000
00000002
00000000
00000000
00000000
00000000
00000001
fffffffe
00000001
00000001
fffffffe
00000000
00000000
00000000
00000000
00000000
fffffffb
00000000
fffffffd
fffffffa
fffffffa
fffffffb
00000001
00000000
00000000
fffffffe
00000001
ffffffff
00000006
fffffffe
00000000
00000000
00000006
ffffffff
fffffff9
00000001
fffffffb
ffffffff
00000000
fffffffa
fffffff9
fffffffd
00000001
00000003
00000001
00000000
00000000
00000000
00000000
00000000
00000002
00000000
00000001
00000001
ffffffff
fffffffc
fffffff7
00000001
00000000
fffffffd
00000001
fffffffb
fffffffc
fffffffc
fffffffc
fffffffd
fffffff9
fffffffa
fffffffa
00000000
fffffffa
fffffffc
ffffffff
ffffffff
fffffffb
fffffffe
00000002
ffffffff
fffffffb
00000001
00000001
fffffffe
fffffff9
00000003
fffffffb
00000001
fffffffe
ffffffff
00000001
00000000
00000000
00000000
00000000
fffffffa
ffffffff
00000000
00000000
fffffff9
00000000
00000000
fffffffa
00000000
fffffff9
00000007
fffffff9
fffffff9
fffffffc
00000000
00000005
00000000
fffffffb
00000000
00000000
ffffffff
fffffffb
ffffffff
ffffffff
00000000
00000000
fffffffe
00000000
fffffffc
fffffffb
00000000
ffffffff
fffffff9
fffffffa
00000001
00000001
fffffffa
00000000
fffffffc
00000000
fffffffa
fffffff9
ffffffff
00000002
00000000
fffffff9
fffffffe
fffffffd
00000001
fffffffd
00000000
fffffffd
00000000
fffffffc
00000007
ffffffff
00000000
00000000
00000007
00000000
00000000
ffffffff
00000000
ffffffff
00000000
00000000
fffffffc
fffffffc
fffffffb
fffffffe
fffffffc
00000004
fffffffe
00000000
fffffffd
ffffffff
00000000
fffffffe
fffffffe
fffffffe
ffffffff
00000000
00000000
ffffffff
fffffffa
fffffffe
fffffffe
ffffffff
ffffffff
00000003
fffffff9
fffffffc
fffffffe
00000001
fffffffb
00000001
00000000
fffffffa
00000000
00000001
00000000
00000001
fffffffd
00000000
fffffff9
ffffffff
fffffffc
00000000
00000001
fffffff5
00000000
00000000
fffffffc
ffffffff
fffffffe
00000001
ffffffff
00000000
00000000
00000000
fffffff8
00000000
00000000
fffffffc
00000006
00000001
fffffffe
fffffffb
fffffffb
00000002
00000005
00000000
00000000
00000000
00000000
00000001
00000001
fffffffe
00000001
00000000
fffffff8
ffffffff
ffffffff
fffffffb
fffffffd
fffffff8
00000000
00000000
fffffffe
fffffffe
ffffffff
00000000
00000000
fffffffd
ffffffff
00000001
00000001
00000004
00000000
ffffffff
00000001
ffffffff
fffffffe
00000000
00000000
00000000
00000000
00000000
00000000
fffffffe
00000000
00000002
fffffff8
fffffffc
00000001
fffffffb
00000001
fffffffd
00000004
00000000
ffffffff
fffffffe
fffffffe
fffffffe
00000001
ffffffff
00000000
fffffffa
fffffffb
00000000
00000001
ffffffff
ffffffff
00000001
00000000
00000000
fffffffe
00000000
00000001
fffffffe
fffffffc
00000000
00000006
ffffffff
fffffffe
fffffffa
00000001
00000001
00000003
fffffffd
00000001
ffffffff
00000000
00000000
fffffffe
ffffffff
00000001
fffffffa
00000000
00000000
00000000
00000000
00000001
00000000
fffffffb
00000000
00000000
fffffff9
00000001
fffffffb
fffffffe
00000003
fffffff7
00000001
ffffffff
fffffffe
ffffffff
00000001
00000002
00000000
00000001
fffffffe
00000001
fffffffc
00000000
00000008
00000000
00000002
00000000
00000000
00000005
00000000
fffffffe
fffffff6
00000002
fffffffc
fffffff9
00000000
ffffffff
00000000
00000000
00000000
00000002
ffffffff
fffffffe
fffffffe
fffffffe
00000001
ffffffff
fffffffe
fffffffe
fffffffb
0000000d
fffffffc
00000002
00000000
ffffffff
fffffffe
fffffffc
00000000
00000003
00000005
00000000
fffffffe
ffffffff
fffffffe
fffffffe
00000000
fffffffc
00000005
00000001
fffffffe
fffffffc
00000003
fffffffb
00000000
fffffffd
fffffffe
ffffffff
00000000
0000000a
00000001
fffffffe
00000006
fffffffe
fffffffa
00000001
00000000
00000003
00000001
ffffffff
00000000
00000000
fffffffe
00000000
fffffffe
fffffffe
fffffffe
00000001
ffffffff
00000001
ffffffff
fffffffe
00000000
00000000
00000000
00000001
00000000
00000001
ffffffff
00000004
fffffffe
fffffffa
00000001
00000003
fffffffb
fffffff9
fffffffe
fffffffd
00000000
ffffffff
00000001
00000005
00000000
ffffffff
fffffff6
00000000
00000001
00000000
00000000
fffffffb
0000000a
fffffffb
00000004
00000000
fffffffb
fffffff8
fffffffd
fffffffe
00000002
00000000
fffffff7
fffffffd
00000001
fffffffe
00000000
00000002
ffffffff
00000001
00000000
fffffffa
00000002
00000000
ffffffff
fffffff7
fffffffa
fffffffe
fffffffe
fffffffb
ffffffff
fffffffe
00000000
fffffffd
00000000
00000001
00000000
fffffffe
ffffffff
fffffffe
fffffffc
00000000
00000001
00000000
00000000
fffffffd
00000000
fffffff5
00000000
fffffffc
00000001
fffffffe
00000001
ffffffff
ffffffff
fffffffe
ffffffff
fffffff7
fffffffe
ffffffff
fffffff9
00000001
00000000
fffffff9
fffffffd
fffffffe
fffffff7
fffffffa
ffffffff
00000000
fffffffc
fffffffe
ffffffff
00000001
fffffffc
00000000
ffffffff
fffffffc
00000000
00000000
fffffffb
00000000
00000001
00000005
ffffffff
00000000
00000001
ffffffff
ffffffff
fffffffd
fffffffb
fffffffb
00000000
00000001
fffffffe
fffffffe
00000001
fffffff8
fffffffd
fffffffe
fffffffd
00000000
00000003
ffffffff
fffffffd
00000002
fffffff9
00000000
ffffffff
fffffffa
fffffffc
fffffffe
fffffff4
fffffffc
00000004
ffffffff
fffffffe
fffffffe
00000002
00000001
00000007
fffffffa
00000000
ffffffff
fffffffe
ffffffff
fffffff9
00000001
00000000
ffffffff
00000001
fffffffa
fffffffc
fffffffe
00000003
fffffffe
fffffffd
fffffff6
00000001
00000000
fffffffa
00000000
fffffffd
00000002
ffffffff
fffffffd
fffffffa
ffffffff
fffffffb
00000001
00000000
fffffffe
fffffff7
fffffffc
fffffff8
00000002
00000000
00000000
00000001
00000001
fffffffd
00000000
00000000
fffffff9
ffffffff
ffffffff
fffffffe
00000004
00000000
00000000
fffffff4
00000004
00000009
fffffffc
fffffffd
00000001
00000009
00000000
ffffffff
ffffffff
00000002
00000000
00000000
fffffffe
fffffff8
00000001
00000000
00000000
00000000
fffffffd
00000001
00000003
00000000
fffffffe
00000001
00000005
fffffff7
00000000
00000000
fffffffb
ffffffff
fffffffe
00000005
fffffffc
fffffffc
ffffffff
fffffffa
ffffffff
fffffffb
ffffffff
fffffffc
00000000
fffffffd
00000000
fffffffd
00000000
fffffffb
00000001
00000000
00000001
fffffffc
00000007
00000000
ffffffff
fffffffe
00000000
00000001
00000000
fffffffe
fffffff9
ffffffff
fffffffc
00000000
fffffffe
00000001
ffffffff
00000000
fffffffc
00000001
fffffff9
ffffffff
00000000
00000002
fffffffb
00000000
00000001
00000001
00000002
fffffffe
ffffffff
00000000
ffffffff
fffffffd
fffffff8
fffffffe
00000000
00000000
fffffff9
00000001
00000000
00000004
00000002
00000002
fffffffe
00000001
fffffff8
00000002
fffffff9
fffffffb
ffffffff
fffffffe
fffffffe
fffffffe
ffffffff
00000000
fffffffa
00000001
00000000
fffffffe
ffffffff
00000001
00000000
00000000
fffffffa
00000000
ffffffff
ffffffff
fffffffc
00000000
00000000
00000000
fffffffe
ffffffff
fffffffc
fffffffd
00000000
ffffffff
00000001
00000001
fffffffd
ffffffff
00000000
ffffffff
fffffffc
00000000
00000001
fffffff5
00000000
fffffffc
fffffffe
00000001
fffffff3
00000002
00000000
00000000
00000000
fffffffe
fffffffc
fffffffa
00000000
fffffffe
fffffffe
00000001
00000000
00000001
fffffffe
ffffffff
fffffffe
00000001
ffffffff
00000000
ffffffff
00000000
00000000
fffffff4
fffffff8
fffffffc
00000000
fffffffa
fffffffe
fffffff9
00000006
fffffff9
fffffffe
fffffffd
fffffffd
00000000
ffffffff
00000000
00000000
fffffffa
fffffffb
00000001
00000001
00000000
00000000
00000000
fffffffd
00000001
00000000
fffffffb
00000000
00000005
fffffffb
fffffffd
00000009
00000000
00000001
00000000
00000000
00000001
fffffff7
fffffff8
ffffffff
fffffffe
00000001
00000001
00000001
fffffffe
00000000
fffffff9
00000000
00000000
fffffffe
00000002
00000000
fffffffe
fffffffb
00000002
00000002
fffffffe
ffffffff
fffffff7
fffffff9
fffffffb
fffffffd
00000001
00000002
fffffffe
fffffffc
00000000
00000001
00000003
00000001
fffffffc
00000000
ffffffff
fffffff8
fffffffb
00000001
fffffffe
ffffffff
ffffffff
ffffffff
00000000
ffffffff
fffffffc
00000002
ffffffff
00000003
00000001
00000000
fffffffe
00000002
00000000
00000000
ffffffff
00000000
ffffffff
fffffffe
00000000
00000001
ffffffff
fffffffd
fffffffa
fffffffd
fffffffb
00000000
ffffffff
00000000
00000000
ffffffff
fffffffe
fffffffd
00000005
00000000
00000000
fffffffe
ffffffff
fffffffd
00000000
00000004
fffffffd
ffffffff
00000000
fffffffe
00000002
fffffffe
fffffffe
fffffffd
00000000
00000000
00000001
00000003
00000001
00000000
fffffffa
00000009
00000000
00000000
fffffffe
fffffffc
ffffffff
00000000
00000004
00000000
00000000
00000000
fffffffe
00000001
00000001
fffffffe
00000000
00000000
00000006
00000000
fffffffd
ffffffff
00000000
fffffffe
00000000
ffffffff
00000000
ffffffff
ffffffff
fffffffb
00000001
ffffffff
fffffffd
00000000
ffffffff
fffffffa
00000001
ffffffff
fffffffe
fffffffc
00000003
ffffffff
fffffff8
00000001
ffffffff
fffffffc
00000001
00000001
00000009
fffffffe
ffffffff
00000000
00000001
00000005
fffffffa
fffffffe
ffffffff
fffffffd
fffffffd
fffffffe
ffffffff
00000000
00000000
00000000
fffffffd
00000000
fffffffd
fffffffd
00000000
ffffffff
fffffffb
0000000a
00000007
fffffffa
fffffffe
00000000
00000000
00000000
00000000
fffffff6
00000001
fffffffa
00000001
00000000
00000002
00000000
fffffff9
fffffffe
00000001
00000001
ffffffff
fffffffa
fffffffd
fffffffc
ffffffff
fffffff9
00000000
00000000
ffffffff
fffffffc
00000000
00000000
00000001
fffffff7
00000002
00000000
fffffffe
00000000
00000001
ffffffff
fffffffd
00000000
fffffffe
00000000
00000000
00000000
fffffffb
00000000
00000000
ffffffff
00000000
00000001
00000000
fffffffd
00000000
00000002
fffffffe
fffffffe
ffffffff
00000000
00000000
00000001
fffffff4
fffffffb
fffffffc
fffffffd
00000000
fffffff7
00000002
ffffffff
00000001
fffffffa
00000001
ffffffff
0000000a
fffffffd
fffffffe
ffffffff
00000000
00000000
fffffff8
00000000
fffffffe
00000001
ffffffff
00000009
00000002
00000004
fffffff7
00000005
00000002
ffffffff
fffffffe
00000000
00000000
ffffffff
fffffffb
00000004
00000000
fffffffe
00000005
fffffff9
fffffffa
00000000
00000001
fffffff9
00000001
fffffffd
fffffffd
fffffffe
fffffff4
ffffffff
fffffff8
fffffffa
fffffffb
00000000
fffffffd
fffffff9
fffffffe
00000002
00000000
00000000
fffffff9
00000002
00000008
00000001
fffffffd
fffffffe
fffffff8
00000000
fffffff9
00000002
00000000
ffffffff
00000000
00000000
fffffffb
00000002
00000000
00000002
ffffffff
00000000
fffffff9
ffffffff
00000000
00000000
ffffffff
fffffffb
00000001
fffffffd
fffffff8
00000008
fffffff7
ffffffff
00000008
ffffffff
00000003
00000000
ffffffff
fffffffd
fffffff9
ffffffff
00000000
00000001
fffffffd
fffffffa
00000001
00000000
fffffff6
00000002
ffffffff
00000000
00000001
00000000
00000000
fffffffd
00000001
00000002
00000004
00000004
fffffffa
00000000
fffffff4
00000000
ffffffff
fffffffe
00000001
ffffffff
fffffff9
00000002
00000001
00000002
fffffffe
00000002
00000001
00000000
00000003
fffffffc
00000000
ffffffff
00000000
00000001
ffffffff
fffffffe
fffffffe
00000006
fffffffa
fffffffb
00000000
fffffff5
ffffffff
00000000
00000002
fffffff9
ffffffff
0000000c
ffffffff
00000000
fffffffa
fffffffd
00000000
00000003
00000000
fffffffe
fffffff7
ffffffff
00000000
00000000
fffffffa
00000001
ffffffff
00000000
ffffffff
fffffff3
00000001
00000001
00000003
fffffffb
00000000
fffffffa
00000000
fffffff8
fffffffb
fffffffc
fffffff6
00000008
00000001
ffffffff
fffffffe
ffffffff
00000001
fffffffc
00000001
00000000
00000001
00000001
00000000
00000002
00000000
fffffffc
00000000
00000000
fffffffb
00000007
00000000
fffffffe
00000000
fffffffc
00000000
fffffffa
ffffffff
00000000
ffffffff
00000002
00000001
fffffffa
00000002
00000000
00000000
00000006
00000000
ffffffff
ffffffff
00000000
fffffffe
00000000
ffffffff
fffffffb
fffffffe
00000002
00000001
00000002
fffffffd
fffffffc
fffffffd
00000000
fffffffd
00000000
00000000
00000001
00000000
00000002
00000000
00000001
00000000
fffffffe
ffffffff
00000001
00000000
00000000
fffffffc
fffffff6
ffffffff
00000003
00000000
00000001
00000005
00000000
fffffffd
ffffffff
fffffffe
00000000
fffffffe
00000000
00000000
00000001
fffffffc
ffffffff
fffffffe
00000001
00000003
00000000
00000001
ffffffff
00000000
00000000
00000000
00000000
fffffffa
00000007
00000002
fffffffd
00000000
00000000
fffffffa
ffffffff
00000000
ffffffff
fffffffb
00000000
00000002
00000001
00000000
ffffffff
fffffffe
00000001
0000000c
fffffffe
00000000
00000004
00000002
ffffffff
00000000
fffffffb
fffffffe
00000000
fffffff4
00000001
fffffff7
fffffffd
00000002
ffffffff
00000003
ffffffff
ffffffff
fffffffa
00000000
00000000
00000002
00000004
fffffffc
00000001
fffffffd
ffffffff
fffffffa
00000000
fffffffb
00000001
00000000
fffffffe
00000000
00000000
fffffff9
ffffffff
ffffffff
fffffffd
fffffffe
00000000
00000000
00000000
fffffffe
00000005
ffffffff
00000002
ffffffff
ffffffff
00000002
00000000
00000001
00000000
fffffff2
fffffffe
fffffffe
00000000
00000000
00000000
00000000
00000002
00000000
00000003
ffffffff
fffffffe
00000001
ffffffff
ffffffff
ffffffff
00000004
fffffffd
00000000
fffffffe
00000002
00000000
fffffff8
fffffffa
00000000
fffffffd
00000000
fffffffd
ffffffff
fffffff0
00000002
00000000
00000001
00000000
fffffff7
00000000
fffffffe
fffffffa
00000000
00000000
00000001
00000002
00000000
00000005
fffffff7
00000000
ffffffff
fffffffe
00000001
00000000
fffffff5
00000001
ffffffff
ffffffff
00000001
00000000
ffffffff
ffffffff
00000001
00000001
00000000
fffffffd
00000000
fffffff8
fffffff5
fffffffe
ffffffff
fffffffc
00000001
00000000
00000000
fffffffe
00000000
00000000
fffffffb
00000000
00000000
ffffffff
00000000
fffffff5
00000006
00000000
fffffffd
fffffffe
00000002
fffffff8
00000007
00000000
00000002
fffffffa
fffffffa
00000000
fffffffe
00000001
00000000
ffffffff
00000004
00000003
00000000
fffffffa
00000000
00000001
fffffffe
ffffffff
fffffffc
fffffff9
00000000
fffffffe
00000000
00000001
00000000
fffffffc
00000000
00000000
ffffffff
00000000
ffffffff
00000001
00000000
ffffffff
00000000
ffffffff
00000000
fffffffb
00000001
fffffffd
00000001
00000000
ffffffff
fffffffe
00000000
fffffffb
00000000
fffffffe
00000000
fffffffc
fffffffd
00000002
fffffffb
00000003
00000002
00000006
fffffffa
00000000
ffffffef
fffffffd
fffffffe
00000000
fffffff6
ffffffff
00000002
00000000
ffffffff
00000000
ffffffff
fffffff8
00000000
00000002
00000000
00000001
00000001
fffffffa
00000000
00000001
fffffffb
ffffffff
fffffffb
fffffffd
fffffffa
fffffffb
00000000
00000001
00000001
00000000
00000000
00000006
fffffffe
00000003
00000000
00000001
fffffffd
00000001
00000001
ffffffff
fffffff8
00000000
ffffffff
00000001
fffffff6
fffffffb
0000000a
fffffff7
00000009
ffffffff
00000001
00000001
ffffffff
00000001
00000003
fffffffd
00000000
00000001
fffffffd
fffffffe
fffffffe
00000000
ffffffff
00000000
00000000
fffffffa
00000001
ffffffff
fffffffc
fffffffe
fffffffc
fffffffa
00000000
00000000
fffffffe
00000000
fffffffd
ffffffff
ffffffff
fffffffe
fffffffb
00000000
00000004
00000000
00000001
00000000
fffffffb
fffffffe
ffffffff
00000000
00000001
00000000
00000000
00000002
ffffffff
00000000
00000001
fffffff6
00000002
fffffffd
00000002
fffffff7
00000000
00000000
00000005
fffffff8
00000003
fffffff9
fffffffc
00000002
fffffff4
ffffffff
fffffffa
fffffffe
fffffffb
fffffffe
00000000
fffffffc
00000000
00000001
00000000
fffffffe
fffffffe
ffffffff
ffffffff
fffffffc
00000002
00000001
00000000
fffffffc
00000002
00000001
fffffffe
fffffffc
ffffffff
00000008
fffffffb
fffffffa
ffffffff
00000000
fffffff7
00000000
fffffffc
fffffffe
fffffffa
00000000
fffffffd
00000000
00000000
00000001
fffffff5
fffffffe
00000001
ffffffff
00000000
00000009
00000000
ffffffff
00000000
ffffffff
fffffffe
00000000
ffffffff
fffffff9
fffffff8
fffffff6
00000001
00000006
fffffff6
00000000
00000000
00000001
00000001
00000006
00000002
00000001
00000000
ffffffff
00000000
00000002
00000000
fffffff9
fffffffc
ffffffff
00000002
00000002
00000000
fffffff8
fffffff7
fffffffe
00000000
fffffff7
00000001
00000000
ffffffff
00000001
00000001
fffffffb
00000001
00000000
00000004
fffffffe
fffffff1
00000000
00000000
ffffffff
fffffffc
ffffffff
00000001
fffffffc
fffffffe
fffffffe
00000000
00000000
00000000
ffffffff
00000000
00000000
00000000
00000001
fffffffc
fffffff6
fffffffe
00000001
fffffffa
ffffffff
ffffffff
fffffff9
00000002
ffffffff
ffffffff
00000000
00000000
fffffffc
00000003
00000000
00000000
fffffffb
00000000
00000000
fffffffd
00000002
fffffffe
fffffffe
ffffffff
00000000
fffffffc
00000001
00000000
00000001
fffffff6
fffffffb
00000004
00000002
fffffff8
00000000
00000000
00000001
ffffffff
ffffffff
fffffffe
00000000
00000001
00000000
00000000
00000000
00000001
fffffffe
00000000
fffffff6
fffffffb
00000000
fffffffe
00000001
fffffff0
ffffffff
00000004
00000000
00000001
fffffffd
00000000
fffffffe
ffffffff
ffffffff
fffffffa
fffffff4
00000001
00000000
00000000
ffffffff
00000000
fffffffc
ffffffff
fffffffd
fffffff9
00000003
00000000
fffffffe
ffffffff
00000000
00000000
00000000
fffffffe
00000000
00000000
00000005
fffffff6
00000002
ffffffff
00000000
fffffffe
00000000
00000000
ffffffff
fffffff3
fffffffc
00000001
00000000
00000001
00000000
00000001
00000001
fffffffb
fffffff4
fffffff4
fffffffe
fffffff7
ffffffff
fffffffb
fffffffa
00000004
00000001
00000000
00000000
00000000
fffffffe
00000001
fffffffc
00000002
00000001
fffffffe
fffffff3
fffffffb
00000001
fffffff3
ffffffff
ffffffff
fffffffc
ffffffff
ffffffff
fffffff5
fffffffe
00000001
fffffffe
ffffffff
ffffffff
fffffff9
ffffffff
00000000
fffffffe
00000000
00000002
00000000
00000000
00000000
00000002
00000000
fffffff7
00000000
fffffff9
00000001
00000000
ffffffff
00000002
ffffffff
fffffffd
ffffffff
00000000
00000008
ffffffff
00000001
00000000
fffffffa
fffffff8
00000000
ffffffff
00000003
00000000
fffffffe
fffffff8
fffffffd
00000002
00000001
fffffffe
00000001
00000003
fffffffe
00000005
00000001
00000000
fffffff8
fffffffa
fffffff6
00000000
00000000
00000001
00000002
00000000
ffffffff
00000000
00000007
fffffffd
fffffff7
ffffffff
00000001
00000000
00000001
00000000
00000004
00000001
00000000
00000000
00000000
00000000
00000001
ffffffff
fffffffe
fffffffd
ffffffff
00000008
00000000
00000000
fffffffb
00000000
00000000
00000001
ffffffff
00000001
fffffffd
00000004
00000000
ffffffff
fffffffd
00000000
ffffffff
00000001
ffffffff
fffffff8
ffffffff
fffffffd
fffffffa
00000001
fffffffd
fffffff9
fffffffe
00000001
00000001
ffffffff
00000009
00000000
ffffffff
00000000
00000001
00000000
00000000
00000000
00000001
fffffffa
ffffffff
ffffffff
ffffffff
00000000
fffffffe
fffffff7
00000000
fffffffe
00000001
00000000
00000000
00000000
fffffffe
00000007
ffffffff
00000000
00000000
00000001
00000002
00000002
00000002
00000002
fffffffe
fffffff8
ffffffff
00000001
00000000
fffffffe
ffffffff
00000000
00000000
00000002
00000003
00000000
00000000
00000005
fffffffe
ffffffff
fffffffa
00000000
fffffffe
00000008
00000000
fffffffe
fffffff9
ffffffff
00000001
00000000
fffffffe
fffffffd
00000000
00000000
fffffffc
00000000
00000001
fffffffa
ffffffff
ffffffff
ffffffff
00000000
00000000
fffffff9
fffffffe
fffffffe
00000000
00000002
fffffffd
fffffffd
fffffffd
fffffffd
00000001
00000001
00000004
00000004
fffffffd
fffffff8
00000000
00000001
00000000
00000000
00000001
00000000
00000004
ffffffff
00000001
ffffffff
00000000
00000002
fffffffc
fffffffc
00000000
00000002
00000001
00000001
fffffffa
00000000
00000000
fffffffe
0000000b
fffffffa
00000000
00000002
fffffffd
fffffffb
fffffffb
00000000
00000000
fffffffc
ffffffff
fffffff3
00000000
00000008
fffffff6
fffffffd
00000004
fffffff2
fffffffb
00000002
ffffffff
fffffffe
fffffffd
00000002
00000000
fffffffb
fffffffd
00000000
fffffffb
00000003
00000000
00000000
fffffff8
fffffffd
fffffffd
00000000
00000001
00000002
00000001
00000000
00000000
00000000
00000001
fffffff4
00000000
00000000
fffffff4
00000000
00000000
00000000
fffffff2
fffffff8
00000009
00000000
00000001
fffffffe
00000005
fffffffe
fffffffb
ffffffff
fffffffa
00000001
00000001
fffffffa
00000000
00000000
00000000
fffffffe
fffffffe
fffffffe
00000000
fffffff7
fffffffe
00000000
00000000
fffffff8
00000003
00000000
fffffffe
fffffffb
00000001
00000004
fffffffa
fffffffa
00000001
00000001
fffffffb
00000003
fffffff9
ffffffff
fffffffb
00000002
00000000
ffffffff
00000000
00000000
fffffff6
00000005
00000000
00000001
ffffffff
fffffff2
ffffffff
00000000
00000000
00000001
00000002
ffffffff
ffffffff
00000000
00000000
00000002
00000000
fffffffa
0000000a
00000002
00000000
fffffffc
00000003
00000000
00000000
00000000
00000000
fffffff8
ffffffff
00000002
00000000
ffffffff
fffffffb
00000005
00000002
ffffffff
00000006
fffffff2
00000007
00000000
00000001
00000005
00000001
ffffffff
fffffff4
fffffffe
00000000
fffffffc
fffffffe
fffffff7
ffffffff
fffffffd
00000007
fffffffe
ffffffff
fffffffe
fffffffa
00000003
00000001
ffffffee
00000000
00000000
00000000
00000001
00000001
ffffffff
ffffffff
00000002
00000000
ffffffff
fffffff4
fffffff9
ffffffff
00000003
ffffffff
00000000
ffffffff
fffffffb
00000002
ffffffff
ffffffff
00000000
ffffffff
fffffffc
00000000
00000000
ffffffff
fffffff9
00000000
00000001
fffffff3
ffffffff
00000002
ffffffff
ffffffff
fffffffd
ffffffff
00000000
00000000
fffffffe
fffffff8
fffffff9
fffffff7
00000000
fffffffe
00000000
00000001
00000000
00000000
00000000
00000000
00000001
fffffffe
00000000
00000001
fffffffe
fffffffe
00000002
00000008
fffffffa
fffffffa
00000001
00000000
00000000
00000005
00000003
fffffffa
00000000
fffffffe
00000001
00000000
00000002
00000000
00000000
fffffff9
fffffff9
00000000
fffffffe
00000000
fffffffe
ffffffff
fffffffd
00000001
00000000
00000006
ffffffff
00000000
fffffffb
00000000
00000000
00000000
00000002
00000001
00000000
00000000
00000000
ffffffff
00000000
00000001
00000001
00000002
00000000
00000001
00000002
fffffff5
00000000
00000003
00000000
ffffffff
00000000
00000001
fffffffe
fffffffa
fffffffe
fffffffc
00000000
fffffff5
00000000
00000002
fffffff7
00000002
00000000
00000000
fffffff4
00000000
00000001
ffffffff
fffffffd
00000000
00000000
fffffff6
00000002
fffffff9
00000000
fffffffd
ffffffff
00000002
fffffffb
00000001
00000001
fffffffb
00000000
fffffffe
fffffffd
00000000
ffffffff
ffffffff
fffffffd
00000000
ffffffff
00000000
00000000
00000000
00000002
00000001
ffffffff
00000001
ffffffff
fffffffc
fffffffe
00000004
ffffffff
00000002
00000001
00000000
fffffff4
00000001
fffffff4
fffffff2
00000000
ffffffff
fffffffd
fffffffa
fffffff9
00000000
00000007
00000005
00000000
00000000
ffffffff
00000002
ffffffff
00000000
fffffffe
00000000
00000000
fffffffe
00000000
00000000
00000003
fffffffd
fffffff9
fffffff1
00000001
ffffffff
00000006
00000001
ffffffff
00000000
ffffffff
00000002
00000000
fffffff4
fffffffe
00000000
00000001
00000001
ffffffff
fffffffb
ffffffff
ffffffff
00000000
ffffffff
00000001
00000001
fffffffe
00000000
fffffffc
00000000
fffffffa
fffffffe
fffffffd
00000000
fffffffd
fffffffe
00000002
00000000
ffffffff
fffffffe
fffffffb
00000000
00000001
fffffffa
00000001
00000002
ffffffff
00000000
00000002
fffffffe
00000000
fffffffb
00000000
fffffffa
fffffffc
fffffffd
00000000
00000000
00000000
00000002
00000000
ffffffff
ffffffff
00000001
00000001
fffffffe
00000000
00000002
fffffff3
00000000
ffffffff
ffffffff
fffffff9
00000002
fffffffc
00000002
00000002
00000000
00000000
00000000
fffffffb
00000001
ffffffff
00000000
fffffffe
fffffffe
fffffffe
fffffff6
00000000
00000001
ffffffff
00000000
fffffffc
00000000
fffffffe
00000001
fffffffd
00000000
00000000
ffffffff
fffffffd
fffffffa
00000001
00000000
00000002
fffffffb
ffffffff
fffffffd
00000000
00000000
fffffff3
fffffffe
ffffffff
fffffff8
00000000
00000000
00000002
ffffffff
00000000
00000000
ffffffff
00000006
ffffffff
ffffffff
fffffffe
00000001
ffffffff
00000002
00000000
00000001
00000002
00000001
00000001
fffffffa
00000000
fffffffa
00000000
fffffffb
fffffffd
00000001
00000001
00000001
ffffffff
fffffffd
fffffffe
00000000
00000002
00000001
ffffffff
fffffffe
fffffffe
fffffffe
fffffffe
fffffffe
00000000
00000000
00000001
00000000
fffffffe
fffffffe
00000001
00000002
00000000
fffffff8
00000000
00000001
00000002
00000001
00000000
00000000
00000000
fffffffe
ffffffff
00000000
00000000
fffffffe
fffffff6
00000000
fffffffb
fffffffb
fffffff8
00000007
ffffffff
fffffffb
fffffffb
00000001
fffffffe
00000004
fffffff5
00000002
00000000
00000001
fffffffd
fffffff5
00000000
00000000
00000002
fffffffd
00000000
fffffff2
fffffffc
fffffff7
ffffffff
00000001
00000000
00000001
fffffffe
00000000
00000001
00000001
fffffffe
fffffffe
00000001
00000000
fffffffa
fffffffe
00000000
00000000
00000002
fffffffb
fffffff7
fffffffb
fffffffd
fffffffb
00000001
00000007
ffffffff
fffffffb
00000000
00000000
fffffffd
fffffff9
00000002
00000000
00000000
00000000
fffffffb
00000000
fffffffd
00000001
ffffffff
00000001
00000000
fffffff6
ffffffff
00000000
00000000
00000001
fffffffe
fffffffa
00000000
ffffffff
00000000
fffffff8
00000004
00000002
00000000
00000007
00000000
fffffff9
00000000
ffffffff
ffffffff
fffffffa
ffffffff
00000000
00000001
fffffffb
00000009
00000000
00000001
00000000
00000000
00000001
00000000
00000001
00000000
00000000
fffffffe
fffffffe
00000009
ffffffff
00000000
00000000
fffffff6
00000000
00000000
ffffffff
ffffffff
fffffffe
fffffffa
00000001
00000000
00000000
00000000
00000000
fffffffe
00000003
00000000
00000002
fffffffe
fffffffd
00000001
00000000
00000006
ffffffff
00000001
fffffffd
00000000
00000000
fffffffc
ffffffff
fffffffc
00000008
00000000
00000000
00000002
00000000
00000000
fffffff9
00000001
00000000
fffffffc
00000001
00000001
ffffffff
ffffffff
00000000
ffffffff
fffffffe
fffffffa
fffffffe
00000001
fffffffa
fffffff6
00000000
fffffffe
fffffffc
00000000
00000000
fffffffe
00000001
00000001
ffffffff
00000000
00000000
fffffffd
00000001
00000002
fffffffe
fffffff9
00000000
00000000
fffffff7
ffffffff
fffffffb
00000000
00000000
ffffffef
00000006
00000000
00000000
00000001
fffffffd
00000001
fffffff8
fffffffe
00000003
00000001
00000000
00000000
00000000
00000000
00000000
00000001
ffffffff
00000001
00000000
fffffffe
00000001
ffffffff
fffffffe
00000003
fffffff7
00000005
fffffffb
00000000
fffffff5
00000005
fffffff9
00000001
fffffffb
fffffff8
00000001
00000000
00000000
00000000
fffffff8
fffffff6
00000000
ffffffff
00000003
00000007
00000002
fffffffc
00000000
fffffffe
fffffff2
ffffffff
00000004
fffffff8
00000000
fffffffe
00000000
00000000
fffffff5
00000000
00000000
fffffff5
fffffffb
fffffffe
ffffffff
00000000
ffffffff
ffffffff
00000000
00000002
00000007
00000000
00000000
fffffffe
ffffffff
ffffffff
00000002
fffffff8
00000002
fffffffb
fffffffc
00000001
fffffff3
ffffffff
0000000a
ffffffff
00000001
00000001
00000001
fffffff7
ffffffff
fffffffe
fffffffb
00000002
fffffffa
ffffffff
fffffff8
00000001
fffffff7
00000000
fffffff8
fffffffd
00000000
fffffff9
fffffffe
00000001
fffffff9
ffffffff
00000001
fffffffa
00000001
00000000
00000000
00000001
00000000
00000000
00000001
00000000
00000001
ffffffff
00000000
ffffffff
00000000
00000003
00000001
00000000
fffffffd
00000001
00000001
00000001
fffffffe
fffffffe
fffffffe
fffffff8
fffffff7
ffffffff
00000001
fffffffd
fffffffe
00000002
00000005
00000000
00000013
ffffffff
00000000
00000003
fffffff5
fffffffe
fffffffe
ffffffff
00000002
fffffffd
ffffffff
00000001
00000000
ffffffff
fffffffd
fffffffa
fffffff9
00000000
00000003
00000004
00000000
00000001
00000000
00000002
fffffff5
fffffffd
fffffff8
00000000
00000000
00000001
00000000
00000000
00000000
fffffffd
fffffffe
00000000
00000000
fffffffe
00000001
ffffffff
00000001
ffffffff
00000000
00000000
00000000
00000003
fffffff9
00000004
fffffff6
fffffffd
ffffffff
00000000
00000000
0000000b
00000000
00000000
fffffffe
00000000
fffffffe
00000000
00000000
fffffff5
fffffff8
00000000
00000004
00000001
00000002
fffffff8
00000007
00000003
00000000
fffffffd
fffffff6
00000000
ffffffff
00000000
00000000
00000000
fffffff8
00000001
fffffffe
fffffff6
fffffffe
00000000
fffffffd
fffffff8
00000004
fffffff7
ffffffff
00000006
00000000
00000001
00000000
00000008
00000000
fffffff7
00000000
00000000
fffffffb
00000000
fffffffa
00000001
00000000
00000000
ffffffff
fffffffe
00000001
fffffffa
00000002
fffffffc
00000001
00000001
00000001
00000005
fffffffc
00000000
00000000
00000007
fffffffc
00000000
ffffffff
00000001
00000000
fffffff9
fffffffe
00000000
fffffffb
fffffffe
fffffffe
fffffffe
fffffff7
ffffffff
00000002
00000000
fffffffe
00000002
00000000
fffffffe
00000000
00000000
ffffffff
ffffffff
00000000
00000000
ffffffff
00000000
fffffff7
00000000
00000004
fffffffe
00000001
fffffffd
00000000
00000002
00000000
fffffffe
00000000
fffffffd
ffffffff
00000000
ffffffff
00000001
fffffff9
00000000
fffffff6
fffffffe
fffffff7
fffffffe
00000001
00000003
00000001
00000009
fffffffe
fffffff8
ffffffff
00000000
ffffffff
00000001
00000000
00000000
fffffffe
fffffffb
ffffffff
fffffffe
fffffffd
00000008
fffffffb
00000001
ffffffff
fffffff9
00000000
00000006
00000000
fffffffc
fffffffc
fffffffc
ffffffef
fffffffc
fffffffd
00000002
ffffffff
00000000
fffffffe
00000000
fffffffc
fffffffe
fffffffc
fffffffe
fffffff9
fffffffd
00000001
00000000
fffffffa
00000003
fffffffa
fffffffe
00000000
00000001
00000001
00000001
0000000a
00000000
00000000
fffffffc
ffffffff
00000000
fffffffb
fffffff7
00000001
fffffffe
fffffffb
fffffff9
00000004
00000003
fffffffc
fffffff9
fffffffa
00000000
fffffff7
ffffffff
00000000
00000000
00000000
00000000
fffffffa
fffffffd
00000001
00000001
00000004
fffffffc
00000000
00000000
00000001
00000000
00000000
fffffffa
00000000
00000000
00000000
fffffffc
00000000
00000001
ffffffff
fffffffb
fffffffa
00000000
fffffff9
fffffffc
fffffff5
fffffffd
fffffff8
00000002
fffffff8
fffffffe
00000000
00000000
fffffffb
ffffffff
ffffffff
fffffffe
fffffffe
fffffff9
00000001
ffffffff
00000000
fffffffd
00000001
fffffffe
00000000
fffffffe
00000000
fffffff6
fffffffe
fffffffe
00000002
00000000
ffffffff
00000000
00000000
00000000
fffffffe
00000000
00000000
fffffff6
00000000
ffffffff
ffffffff
fffffff2
00000004
00000001
fffffffb
00000000
00000008
fffffff8
00000001
00000000
00000001
00000008
00000000
ffffffff
fffffff9
00000001
00000000
fffffffe
00000000
fffffffa
fffffffd
00000000
00000003
fffffffd
fffffffd
00000001
fffffffe
00000000
ffffffff
00000002
00000000
00000000
00000000
00000000
00000000
ffffffff
ffffffff
fffffffb
fffffffe
00000002
00000006
fffffffb
00000000
fffffffe
00000000
00000000
00000000
fffffffc
ffffffff
fffffffe
ffffffff
00000001
00000001
00000005
00000000
fffffffe
00000001
fffffff8
00000000
00000001
fffffffa
00000000
fffffff8
ffffffff
00000001
00000002
00000003
00000001
fffffffe
00000001
00000000
fffffff9
fffffff7
00000000
fffffffb
00000000
00000000
fffffffe
00000001
00000001
ffffffff
ffffffff
00000000
00000001
fffffffe
fffffffe
00000001
00000000
fffffffc
fffffffa
00000004
fffffffd
00000009
ffffffff
fffffffe
fffffffe
fffffffe
00000002
00000000
ffffffff
00000002
00000000
00000000
fffffffe
fffffffb
fffffffb
00000000
00000000
fffffffe
ffffffff
ffffffff
fffffffb
00000000
fffffffd
fffffffb
00000000
00000001
fffffff9
00000000
00000000
00000000
00000000
00000000
00000000
00000000
fffffffa
fffffffb
00000001
00000000
00000000
ffffffff
00000000
ffffffff
00000000
00000000
00000000
00000000
fffffffe
fffffffe
00000001
00000000
00000002
00000004
fffffffd
fffffffd
fffffffe
fffffffd
00000001
fffffffa
00000000
00000002
00000001
ffffffff
fffffffc
fffffffd
00000001
00000002
fffffffb
00000000
00000000
00000003
fffffff5
fffffffa
00000001
fffffffc
00000001
ffffffff
fffffffa
00000001
00000000
fffffffc
00000000
fffffffc
fffffffc
00000001
00000000
fffffffe
00000002
00000000
00000000
00000000
00000001
fffffffe
00000000
fffffffd
ffffffff
00000000
00000000
fffffffa
fffffffd
00000004
00000001
00000000
fffffffe
00000002
fffffffc
00000002
fffffffc
00000008
00000001
00000000
fffffffe
fffffffa
ffffffff
fffffffd
fffffffd
fffffffa
00000000
fffffffe
00000005
00000005
fffffffe
00000001
fffffffe
00000000
fffffffe
fffffffe
fffffffb
00000000
00000000
fffffffe
00000003
fffffffb
ffffffff
00000000
fffffffb
00000000
00000001
fffffffe
00000000
00000000
00000003
fffffffb
00000001
00000000
00000001
fffffffe
00000002
ffffffff
fffffffe
00000001
ffffffff
fffffffd
00000000
00000000
00000001
00000001
fffffffe
00000002
00000002
00000001
00000005
fffffff7
fffffff4
fffffffe
fffffff8
00000000
ffffffff
00000002
fffffffe
00000001
fffffffe
fffffff7
ffffffff
ffffffff
00000002
00000001
fffffffe
fffffffe
fffffffd
ffffffff
00000000
fffffffd
fffffffa
00000000
00000000
ffffffff
fffffffc
fffffff8
ffffffff
00000000
00000000
00000000
00000001
fffffff8
00000001
00000003
fffffffc
fffffffe
00000000
fffffffc
00000000
fffffffd
00000000
00000001
ffffffff
00000000
00000001
00000001
00000004
ffffffff
fffffff7
ffffffff
00000001
00000004
00000000
00000003
ffffffff
00000001
ffffffff
00000000
ffffffff
fffffffd
fffffffe
00000000
00000000
00000001
00000000
00000000
fffffff9
fffffffb
00000001
00000001
fffffffb
fffffffc
00000001
fffffffe
00000001
00000001
fffffffd
fffffffc
00000002
fffffff6
fffffffe
00000001
00000001
00000000
00000001
ffffffff
00000001
00000006
00000000
00000000
fffffff6
00000001
00000002
ffffffff
00000001
00000000
00000002
00000000
00000000
00000000
fffffffb
fffffffd
fffffff8
00000000
fffffff5
ffffffff
00000000
00000002
fffffffd
fffffffe
00000008
00000001
fffffffc
00000003
00000000
00000004
00000002
00000000
fffffffe
fffffffe
00000001
00000001
fffffffd
00000008
fffffff9
fffffffa
fffffffd
00000009
00000001
fffffffb
00000000
00000001
00000000
00000008
fffffff9
00000000
ffffffff
ffffffff
fffffffc
00000002
00000000
00000000
fffffffe
00000001
fffffffa
00000001
fffffff9
fffffff9
fffffffc
fffffffe
fffffff6
00000000
00000000
fffffffe
ffffffff
00000001
ffffffff
00000000
00000000
fffffff8
00000000
fffffffc
00000001
00000000
fffffffe
fffffff7
fffffffa
fffffff7
00000001
00000000
00000001
00000002
00000001
00000004
00000000
fffffffe
fffffffa
ffffffff
00000000
fffffffa
00000002
00000002
00000000
fffffffd
fffffffa
fffffffc
00000000
fffffff7
00000001
fffffff7
00000000
00000008
ffffffff
fffffffd
fffffffc
00000000
fffffffa
fffffffa
00000000
00000003
00000000
fffffffd
00000004
00000002
ffffffff
fffffffc
00000000
ffffffff
00000000
ffffffff
00000001
00000000
fffffffe
ffffffff
fffffffa
fffffffc
fffffffd
00000006
fffffffe
fffffff3
ffffffff
fffffff2
00000001
00000000
00000000
00000002
00000000
00000000
ffffffff
00000002
fffffff7
00000001
ffffffff
00000001
00000000
ffffffff
00000000
ffffffff
00000002
fffffffe
fffffff9
ffffffff
fffffffd
00000001
00000005
fffffffe
00000000
fffffffb
00000000
00000001
ffffffff
00000000
fffffffb
fffffffd
fffffffe
00000001
fffffffd
00000001
00000000
fffffffe
fffffff5
fffffff9
00000000
00000001
00000000
00000005
00000006
fffffffa
00000001
00000000
fffffff5
00000002
00000001
00000000
00000000
00000000
ffffffff
00000001
00000001
fffffffe
00000004
00000000
fffffffa
00000002
00000000
00000002
00000000
00000000
fffffff8
ffffffff
00000001
00000000
ffffffff
00000002
00000001
00000000
00000000
fffffffe
00000001
fffffffc
00000004
ffffffff
00000000
fffffffc
00000000
00000000
00000000
00000000
00000002
00000000
ffffffff
00000000
ffffffff
00000002
00000000
00000001
fffffffd
ffffffff
ffffffff
fffffffc
00000002
fffffff7
00000000
00000000
fffffff7
fffffffd
00000000
00000002
00000004
00000000
fffffff8
00000002
00000000
fffffffd
00000001
00000000
00000001
00000000
ffffffff
00000002
00000000
ffffffff
00000000
ffffffff
00000001
fffffffe
ffffffff
fffffffa
fffffffd
fffffffc
00000000
00000003
00000000
fffffffa
00000000
ffffffff
00000001
fffffffa
fffffffe
00000000
00000002
00000001
ffffffff
fffffffa
fffffff7
00000000
00000002
00000001
fffffffb
00000002
00000000
00000000
ffffffff
00000003
fffffffe
fffffff7
00000004
00000000
fffffffc
fffffffe
00000000
00000006
00000001
ffffffff
fffffffa
fffffffa
00000001
fffffffe
00000000
ffffffff
00000001
00000000
ffffffff
fffffff2
fffffffe
00000001
00000000
00000000
00000001
00000000
fffffff7
fffffffa
fffffff6
fffffff8
00000001
fffffff7
fffffffd
fffffffe
fffffffa
00000000
00000000
00000001
ffffffff
00000000
00000000
fffffffc
fffffffe
fffffff8
00000000
fffffffe
fffffffd
00000002
00000001
fffffffc
00000001
fffffffe
fffffffa
ffffffff
ffffffff
00000005
00000000
fffffffe
00000005
ffffffff
00000000
00000004
00000003
00000001
00000000
00000002
ffffffff
00000001
00000003
00000002
00000000
fffffffe
00000003
fffffffe
fffffffe
fffffffb
00000001
00000000
00000001
00000001
fffffffe
00000000
0000000a
fffffff4
fffffffe
00000002
00000002
fffffffb
00000000
fffffffe
0000000a
fffffff9
00000000
ffffffff
ffffffff
00000000
fffffffa
ffffffff
00000000
fffffffe
ffffffff
ffffffff
fffffff9
fffffffe
00000001
fffffff8
ffffffff
00000004
00000001
fffffffe
fffffffe
00000001
00000000
00000000
00000001
0000000c
fffffffe
00000005
fffffffe
ffffffff
00000001
00000000
00000000
fffffff6
00000001
00000000
ffffffff
00000002
00000000
fffffffe
fffffffe
ffffffff
ffffffff
ffffffff
00000005
00000002
fffffffc
00000007
fffffff7
fffffffc
fffffff6
00000000
00000000
ffffffff
00000001
00000000
00000001
fffffffe
ffffffff
fffffffe
00000000
fffffffe
ffffffff
fffffff8
00000000
fffffffe
00000000
00000004
fffffffc
00000000
00000002
00000000
fffffff8
00000000
00000001
00000000
00000002
00000000
00000000
fffffffa
00000002
ffffffff
fffffff5
ffffffff
00000003
fffffffd
fffffff9
00000007
fffffff4
00000001
00000007
00000002
00000000
00000000
fffffffd
fffffffe
fffffff7
ffffffff
00000001
00000000
ffffffff
00000000
00000002
fffffffe
00000000
00000001
00000000
00000000
fffffffb
ffffffff
00000000
00000001
fffffffe
00000000
00000004
fffffffc
00000001
ffffffff
fffffffa
fffffffc
00000001
ffffffff
00000001
00000000
fffffff9
fffffffd
00000000
fffffff7
00000000
00000000
00000001
00000009
00000002
00000001
fffffffe
ffffffff
00000000
00000001
fffffff9
00000001
00000002
ffffffff
00000000
00000002
fffffffc
ffffffff
00000000
fffffffb
fffffffb
fffffffc
fffffff7
00000000
fffffff8
00000001
00000001
00000000
ffffffff
ffffffff
ffffffff
fffffffd
ffffffff
00000001
00000000
ffffffff
00000000
fffffffa
00000000
00000005
ffffffff
ffffffff
fffffff8
fffffff9
fffffffa
fffffffc
fffffff9
fffffff9
00000002
00000000
00000002
00000000
00000000
0000000a
00000000
00000000
00000002
00000000
0000000c
fffffff9
00000001
00000000
00000000
00000001
00000003
00000000
00000003
fffffffe
fffffffd
00000008
fffffff7
fffffffe
ffffffff
00000005
00000003
00000001
00000000
00000000
00000001
00000000
00000002
00000003
00000002
00000005
00000002
fffffffd
fffffffa
fffffffc
00000001
00000000
00000000
00000003
ffffffff
fffffffa
ffffffff
00000000
fffffffd
00000001
00000001
ffffffff
fffffffd
00000000
00000000
fffffffe
00000003
fffffffc
ffffffff
fffffffd
00000001
fffffffd
00000000
00000003
00000002
fffffffa
ffffffff
00000002
fffffffe
fffffffb
00000001
00000001
00000000
ffffffff
fffffffe
00000001
00000000
fffffffa
ffffffff
00000000
fffffff7
fffffffb
00000000
00000000
ffffffff
fffffffe
00000000
00000000
ffffffff
00000000
00000001
fffffffb
fffffffd
fffffffa
00000002
fffffffc
00000000
fffffff9
00000000
fffffffe
00000000
fffffff9
00000009
00000001
00000000
ffffffff
00000001
00000000
00000001
00000002
fffffffe
ffffffff
fffffffe
00000000
00000003
ffffffff
fffffff9
ffffffff
fffffff8
fffffffc
00000000
00000001
ffffffff
ffffffff
fffffffd
00000005
00000000
00000002
fffffffb
00000003
00000002
00000000
fffffffa
00000005
fffffffe
ffffffff
00000002
fffffff7
00000006
00000000
00000001
00000002
0000000b
00000001
00000000
ffffffff
00000000
ffffffff
ffffffff
00000000
fffffff5
fffffffe
fffffffe
fffffffa
00000000
ffffffff
00000002
fffffff6
00000000
fffffffe
fffffff5
00000000
00000000
ffffffff
00000001
00000001
00000000
00000001
fffffffd
00000000
00000000
fffffffa
00000001
00000000
00000000
00000000
fffffff9
00000000
fffffffa
00000000
00000000
ffffffff
00000000
00000002
fffffff8
00000001
00000000
ffffffff
fffffff9
00000002
ffffffff
fffffff7
00000003
fffffff8
00000000
00000001
fffffffa
00000002
00000001
00000000
00000000
fffffffb
00000001
00000003
00000002
ffffffff
00000000
ffffffff
fffffffe
00000000
00000000
00000000
00000001
00000000
00000001
ffffffff
00000000
ffffffff
ffffffff
fffffffd
00000003
fffffff9
00000001
00000008
ffffffff
ffffffff
00000000
00000001
00000000
fffffffb
fffffffc
00000001
00000002
00000000
ffffffff
fffffffd
fffffff5
00000001
00000002
ffffffff
fffffffe
00000002
ffffffff
00000000
fffffffd
fffffffb
00000000
fffffff2
fffffffb
00000001
00000001
00000000
ffffffff
00000000
00000000
00000000
fffffffb
fffffff9
ffffffff
00000002
fffffffe
ffffffff
00000000
fffffffe
00000000
fffffffe
00000002
00000001
00000002
00000001
00000002
00000000
00000000
00000002
fffffffe
fffffff8
00000000
fffffffc
fffffffb
fffffffa
00000002
fffffffb
00000001
ffffffff
fffffff9
00000000
00000001
fffffff7
fffffffe
ffffffff
ffffffff
fffffffc
fffffffb
00000000
fffffffe
fffffffb
00000002
00000001
fffffff9
00000000
00000001
fffffff7
00000001
fffffffe
fffffffb
00000000
00000002
00000002
00000001
00000000
00000002
00000000
ffffffff
00000000
00000001
00000000
00000000
00000000
fffffffb
fffffff7
fffffff8
fffffffb
ffffffff
ffffffff
00000000
ffffffff
00000000
ffffffff
fffffffb
00000007
00000001
00000001
fffffffe
00000000
fffffffc
fffffffe
fffffffc
fffffffb
00000001
00000000
fffffffc
fffffffb
fffffffc
00000001
fffffffe
00000000
ffffffff
00000000
fffffffa
00000000
ffffffff
fffffffc
fffffffa
fffffff7
00000000
00000000
00000005
ffffffff
fffffffe
00000004
ffffffff
00000006
fffffffe
fffffff8
00000000
00000000
00000000
00000000
00000000
fffffff9
ffffffff
ffffffff
00000000
00000000
00000001
00000001
00000000
ffffffff
00000004
00000000
fffffffd
00000000
fffffff6
00000003
fffffffb
fffffffe
fffffffb
00000000
00000002
00000000
00000006
fffffffe
ffffffff
00000000
00000000
00000002
00000002
00000001
fffffffc
ffffffff
00000000
00000006
00000000
ffffffff
fffffff8
fffffffa
ffffffff
00000000
fffffffe
ffffffff
00000001
00000000
00000000
00000000
ffffffff
fffffff8
fffffffe
00000000
00000000
00000002
fffffffe
fffffffe
00000006
00000000
fffffffb
00000001
fffffffc
00000000
fffffffd
ffffffff
fffffff9
00000001
fffffff9
00000000
ffffffff
fffffffb
00000000
fffffffc
fffffffe
00000000
ffffffff
00000000
fffffffd
fffffffe
00000002
fffffffe
fffffffa
00000001
00000000
00000000
00000002
00000002
00000000
00000002
fffffffc
fffffffa
ffffffff
fffffffe
00000001
fffffffe
fffffff5
fffffffd
fffffffd
fffffff9
00000000
ffffffff
00000000
fffffffd
00000002
00000001
00000000
00000000
00000000
00000000
fffffffd
fffffffe
00000000
00000001
ffffffff
ffffffff
fffffffb
fffffffd
fffffffe
fffffffb
00000000
fffffff5
fffffff9
00000008
fffffffa
00000001
fffffffe
00000000
00000004
fffffffa
ffffffff
00000003
ffffffff
ffffffff
00000000
fffffffb
00000000
fffffff7
fffffffd
fffffffa
00000000
00000001
fffffffc
fffffff5
fffffffe
00000002
fffffffb
ffffffff
00000000
ffffffff
fffffffe
00000000
ffffffff
fffffff9
ffffffff
00000001
00000002
00000002
00000000
ffffffff
00000000
fffffffe
00000003
00000002
fffffffb
fffffffe
00000009
fffffff5
fffffffe
fffffff6
fffffffa
00000000
00000002
00000000
fffffffd
ffffffff
00000000
fffffffc
00000000
fffffff8
00000000
00000000
00000000
00000007
00000001
fffffffb
fffffffe
ffffffff
00000000
00000000
00000001
ffffffff
00000000
ffffffff
ffffffff
00000000
00000000
fffffffe
00000001
ffffffff
fffffffc
fffffffe
00000001
fffffffd
fffffff7
fffffff8
00000008
fffffff9
00000000
fffffffe
00000001
00000003
00000000
ffffffff
fffffffc
00000000
00000001
fffffff8
ffffffff
00000000
00000000
00000001
00000001
ffffffff
ffffffff
fffffff7
ffffffff
00000000
fffffff6
0000000c
fffffffe
00000000
00000000
00000001
fffffffe
fffffffe
00000000
00000003
00000000
00000000
fffffffe
00000004
fffffffc
fffffffa
00000001
fffffffc
00000000
00000001
00000001
ffffffff
fffffff6
00000000
00000001
00000001
00000001
00000000
00000002
00000002
fffffffd
ffffffff
00000001
00000000
fffffffc
fffffffc
fffffff6
00000000
fffffffd
00000005
00000001
ffffffff
fffffffb
fffffffe
fffffffe
fffffffe
ffffffff
ffffffff
fffffffd
ffffffff
ffffffff
00000000
fffffff5
fffffffc
fffffffe
00000000
00000000
ffffffff
ffffffff
00000001
ffffffff
00000001
00000002
00000000
fffffffe
fffffffa
ffffffff
00000001
00000003
00000000
ffffffff
ffffffff
00000000
fffffffe
00000004
ffffffff
00000000
00000003
ffffffff
00000000
fffffffd
00000000
00000000
00000001
ffffffff
00000001
00000000
00000000
fffffffd
ffffffff
fffffffe
fffffffa
00000000
00000001
fffffffe
00000000
00000001
fffffffe
fffffffd
00000002
00000000
00000001
00000000
00000000
fffffffb
00000000
00000001
00000001
fffffff8
ffffffff
00000000
fffffff6
00000000
00000000
ffffffff
00000000
00000009
00000005
00000000
fffffffd
ffffffff
00000000
fffffffd
00000004
ffffffff
00000001
00000000
ffffffff
00000001
ffffffff
ffffffff
00000000
00000001
00000001
00000001
00000000
00000000
00000001
00000000
fffffff6
00000001
00000008
fffffffe
fffffffc
00000001
fffffffb
fffffffe
00000008
00000002
fffffffe
00000005
ffffffff
00000001
ffffffff
fffffffe
fffffffe
fffffff9
00000000
00000000
00000000
00000001
00000000
fffffffd
00000000
00000000
fffffffb
00000000
fffffff7
00000001
00000000
fffffffb
fffffffe
00000000
fffffff7
00000000
00000000
fffffffe
00000006
00000000
00000000
00000000
00000000
00000001
00000000
00000001
00000002
ffffffff
00000001
ffffffff
00000000
00000000
00000000
ffffffff
fffffff6
fffffffc
fffffffa
00000000
fffffffa
fffffffb
ffffffff
fffffffd
ffffffff
00000000
ffffffff
fffffffd
00000000
00000001
fffffffe
fffffff9
fffffffc
ffffffff
00000001
00000003
00000000
ffffffff
fffffff9
00000003
00000001
fffffff4
00000000
00000000
fffffff6
fffffffe
fffffffd
ffffffff
00000000
00000000
00000000
fffffffe
00000001
ffffffff
00000000
fffffffd
fffffffe
00000000
ffffffff
ffffffff
00000000
fffffffd
00000000
00000007
fffffffd
ffffffff
00000000
00000000
00000000
fffffffd
00000000
fffffffb
fffffff8
ffffffff
ffffffff
ffffffff
fffffffd
fffffffd
00000001
00000000
0000000d
ffffffff
00000001
fffffff9
fffffff9
00000002
00000000
00000000
fffffffd
00000001
fffffffe
fffffff7
00000000
00000000
00000003
fffffffa
fffffffc
00000002
00000000
00000005
00000001
00000000
fffffffa
fffffffe
fffffffd
fffffffc
fffffffd
fffffffe
00000000
00000001
00000000
00000000
fffffff5
ffffffff
ffffffff
00000001
00000000
00000002
00000000
00000001
00000000
00000000
00000000
fffffffb
ffffffff
00000001
00000002
00000000
00000000
fffffff9
00000000
00000001
00000000
00000007
00000001
00000000
fffffffa
00000000
00000000
00000001
fffffffe
fffffffb
fffffff8
ffffffff
00000003
00000000
fffffffd
fffffff9
00000005
00000000
00000000
fffffff9
fffffff6
00000000
ffffffff
ffffffff
fffffffe
00000002
fffffff9
00000000
fffffffc
fffffffb
fffffffe
ffffffff
fffffffe
fffffff9
fffffff9
fffffff4
ffffffff
00000000
00000004
fffffffe
00000000
fffffffb
00000000
fffffff7
fffffffe
00000000
fffffffb
00000000
fffffffa
00000001
00000001
ffffffff
ffffffff
fffffff9
fffffffd
fffffffc
fffffffe
fffffffd
00000000
00000000
00000001
00000000
00000000
fffffffe
00000000
00000003
fffffff6
00000001
00000000
00000000
ffffffff
fffffff1
fffffffc
00000001
fffffffc
ffffffff
00000000
00000000
fffffffb
00000001
00000000
fffffffe
fffffffe
00000000
ffffffff
fffffffb
00000002
ffffffff
fffffffe
00000000
00000001
fffffffa
fffffffd
00000000
fffffffa
00000000
fffffff7
fffffff8
fffffffe
fffffff4
00000000
fffffffe
00000001
00000001
fffffff9
fffffff9
fffffffd
00000001
00000001
00000000
fffffffb
00000002
00000000
fffffffd
00000000
00000002
00000000
00000001
00000000
fffffffc
fffffffc
fffffff8
fffffffc
ffffffff
fffffffc
00000000
ffffffff
00000000
00000003
fffffffe
00000001
ffffffff
00000003
fffffff9
fffffff6
00000002
00000000
fffffffe
00000000
fffffffa
00000000
00000003
fffffff6
fffffffe
ffffffff
fffffff9
00000005
00000000
00000001
fffffffc
fffffffe
fffffffe
fffffffd
fffffffc
fffffffe
00000001
fffffffe
00000000
00000000
00000000
fffffff6
fffffffc
00000000
00000000
00000001
00000000
ffffffff
00000000
00000000
00000001
ffffffff
00000005
fffffffe
fffffffd
00000007
fffffffb
00000000
00000000
00000003
fffffff3
00000006
fffffffb
fffffff5
00000002
00000000
00000000
fffffff9
fffffffe
fffffffe
fffffffd
00000000
fffffffc
fffffffc
00000003
00000000
00000000
00000000
00000003
00000000
fffffff8
fffffffc
00000001
ffffffff
fffffffa
fffffffa
00000001
00000000
fffffff9
00000000
fffffff8
fffffffb
fffffff7
00000008
00000000
fffffff4
00000000
00000005
fffffffd
fffffffc
00000000
fffffffa
ffffffff
ffffffff
fffffffe
fffffffa
fffffffe
00000000
00000000
00000004
00000000
00000000
ffffffff
ffffffff
00000000
00000002
ffffffff
00000001
fffffff9
00000000
00000003
00000000
00000006
fffffffc
00000000
fffffffe
00000002
00000000
fffffffe
00000000
00000000
fffffffa
fffffff8
00000000
ffffffff
00000000
00000003
00000004
ffffffff
00000002
00000001
00000008
fffffff9
fffffff4
00000000
00000000
fffffffd
00000002
00000000
ffffffff
ffffffff
00000000
ffffffff
fffffffe
00000003
fffffff6
fffffff9
fffffffa
fffffffc
ffffffff
00000000
fffffffc
00000000
00000000
fffffffd
fffffffe
00000000
00000000
fffffffe
ffffffff
00000000
00000001
00000002
fffffffd
00000001
00000000
fffffff4
00000001
00000000
00000001
fffffffd
00000000
00000000
fffffffd
00000001
00000002
00000000
fffffffe
00000000
00000001
00000000
00000001
fffffff8
fffffffe
00000000
ffffffff
ffffffff
00000006
fffffffe
ffffffff
fffffff6
0000000a
ffffffff
00000000
ffffffff
ffffffff
fffffff7
ffffffff
00000001
00000002
00000001
ffffffff
00000000
00000001
ffffffff
00000000
00000002
00000002
00000000
00000000
00000001
fffffffe
ffffffff
fffffff6
fffffffb
00000004
00000000
fffffff9
00000000
00000008
00000000
ffffffff
ffffffff
fffffff8
00000001
ffffffff
00000000
00000000
00000000
fffffffa
fffffff3
00000000
ffffffff
00000000
ffffffff
00000001
fffffffb
00000000
00000000
fffffffb
00000000
00000003
fffffff5
00000001
fffffff9
00000000
fffffffe
fffffff5
00000002
00000000
fffffff9
00000002
ffffffff
00000001
00000001
00000001
ffffffff
ffffffff
00000000
00000008
ffffffff
00000002
fffffffe
00000002
ffffffff
ffffffff
00000001
00000000
fffffffd
fffffff7
fffffffe
fffffffa
fffffffb
fffffffe
fffffff7
fffffffc
00000000
00000001
fffffffe
fffffffe
00000000
00000003
fffffffe
00000006
00000000
00000002
00000000
fffffff7
00000001
fffffffb
00000003
ffffffff
fffffff8
00000000
ffffffff
fffffffe
00000000
00000000
00000000
ffffffff
00000000
00000001
fffffffe
00000001
00000002
00000000
00000001
ffffffff
00000000
fffffffe
ffffffff
00000001
ffffffff
fffffffd
00000000
00000007
00000000
00000000
00000001
ffffffff
fffffffb
00000000
0000000a
fffffff2
00000000
ffffffff
00000001
ffffffff
fffffff5
00000000
ffffffff
fffffffc
00000001
00000001
ffffffff
ffffffff
00000000
00000001
00000001
00000000
fffffffe
ffffffff
fffffffe
fffffffe
00000001
fffffff2
00000008
fffffffa
00000001
ffffffff
00000006
ffffffff
00000000
00000000
00000000
00000006
0000000a
fffffffa
ffffffff
00000001
00000000
ffffffff
00000000
ffffffff
fffffffd
00000000
00000002
00000000
00000000
00000002
00000000
00000000
fffffffe
00000001
0000000a
ffffffff
fffffffa
fffffffc
ffffffff
fffffffa
00000001
ffffffff
ffffffff
00000001
fffffffd
00000000
00000001
00000000
00000001
00000001
fffffffe
00000000
fffffff8
fffffffc
00000001
fffffffa
00000000
ffffffff
00000004
fffffff5
00000000
ffffffff
fffffffd
fffffff7
00000000
00000000
ffffffff
00000000
00000001
fffffff9
00000002
00000001
fffffff9
00000001
fffffffe
00000001
fffffffe
fffffff9
fffffffa
fffffffe
fffffff8
00000002
00000001
ffffffff
00000002
ffffffff
fffffff8
00000002
fffffffe
00000003
00000002
fffffffb
00000001
00000001
00000001
ffffffff
fffffffa
00000008
fffffffc
00000001
fffffffb
00000000
ffffffff
00000002
fffffffb
00000004
00000000
00000001
00000006
fffffff4
ffffffff
fffffffa
00000000
fffffffe
fffffff5
fffffffe
00000000
fffffffb
ffffffff
00000000
00000000
fffffffd
fffffffe
00000000
00000002
fffffffd
00000000
00000001
ffffffff
00000000
00000001
00000002
00000000
ffffffff
00000001
ffffffff
00000004
fffffffd
fffffff9
fffffffb
00000002
00000000
fffffffb
00000002
ffffffff
ffffffff
00000000
00000009
fffffffc
ffffffff
00000000
00000000
ffffffff
fffffffd
00000001
fffffff9
00000002
fffffffc
fffffffe
00000001
fffffffe
fffffffa
fffffff4
fffffffc
fffffffc
00000000
ffffffff
ffffffff
00000001
00000000
00000002
fffffffc
00000005
00000000
00000000
fffffffc
00000003
fffffffe
00000002
00000000
00000000
ffffffff
fffffffb
fffffffa
fffffff7
00000000
00000000
fffffff6
fffffffc
fffffffd
00000002
00000000
fffffffc
ffffffff
fffffffe
fffffffd
fffffffe
fffffffb
00000000
fffffff9
00000000
fffffffd
00000001
fffffff7
fffffffe
fffffffc
00000000
00000000
00000000
00000000
ffffffff
fffffffc
ffffffff
ffffffff
00000000
ffffffff
ffffffff
fffffffc
fffffffc
00000000
00000001
00000004
fffffffc
fffffffd
fffffffa
fffffffe
fffffffc
00000004
00000001
00000000
00000002
00000000
fffffffe
00000001
00000003
0000000b
ffffffff
ffffffff
00000000
00000001
fffffffb
00000001
00000006
fffffff5
ffffffff
fffffffe
fffffff6
fffffffc
00000000
00000001
00000002
00000000
ffffffff
fffffffa
00000001
fffffff8
00000000
fffffff6
fffffffd
fffffff8
00000003
fffffffe
00000000
fffffffc
00000000
ffffffff
00000000
fffffffe
ffffffff
00000000
00000000
ffffffff
fffffffb
00000000
00000000
00000001
00000001
00000000
fffffffc
00000000
fffffffc
00000003
00000006
fffffffe
fffffff9
00000004
ffffffff
00000000
fffffff7
00000001
fffffffa
fffffffd
00000000
00000000
fffffffe
00000000
00000002
00000002
fffffffd
00000000
00000001
00000000
00000000
fffffffb
fffffff8
fffffff8
00000001
00000001
fffffff8
fffffffe
ffffffff
fffffff7
fffffffb
fffffffe
fffffffd
fffffffe
00000002
fffffffc
ffffffff
fffffffd
fffffffc
00000000
fffffffe
fffffff9
00000001
00000001
00000000
00000000
ffffffff
00000000
fffffffe
ffffffff
00000001
00000000
fffffffd
00000002
00000000
00000002
00000002
fffffffe
fffffffd
00000000
00000002
00000000
fffffffb
00000000
00000000
fffffffe
00000000
00000000
fffffffc
fffffffe
