ffffffff
ffffffff
00000004
ffffffff
fffffff8
00000000
00000004
fffffffe
00000001
00000000
fffffffc
00000000
00000000
fffffffa
00000000
00000006
00000000
00000005
00000000
fffffffe
00000003
ffffffff
ffffffff
00000001
ffffffff
00000001
00000000
00000005
00000006
ffffffff
00000006
00000001
ffffffff
00000002
00000000
fffffffd
ffffffff
ffffffff
ffffffff
fffffffd
fffffffb
fffffffd
00000002
00000000
ffffffff
00000000
fffffffe
00000002
fffffffc
fffffff9
ffffffff
fffffffe
fffffffb
00000000
ffffffff
00000002
00000002
fffffffa
fffffff4
fffffffc
00000000
ffffffff
00000004
00000000
fffffff9
fffffffe
00000000
fffffff2
fffffffc
00000001
fffffffb
00000001
00000000
fffffffe
00000003
fffffffa
fffffffa
fffffffc
00000002
ffffffff
00000003
00000000
00000000
00000000
00000000
ffffffff
ffffffff
00000000
00000001
00000001
00000004
00000002
00000004
fffffffd
fffffff1
fffffffb
00000006
fffffffa
fffffffd
ffffffff
fffffff5
fffffff9
ffffffff
fffffff5
fffffffc
fffffffe
00000000
00000003
fffffffe
00000003
fffffffc
ffffffff
00000000
ffffffff
00000003
00000007
00000003
fffffffd
00000000
00000001
fffffffa
fffffffa
00000001
fffffffc
00000000
00000003
fffffffd
fffffff9
00000000
fffffff6
ffffffec
fffffffe
00000000
fffffff8
00000004
00000003
00000001
00000004
00000002
00000001
00000001
00000000
00000000
00000000
00000003
00000004
00000000
00000000
ffffffff
ffffffff
ffffffff
00000000
00000000
0000000a
00000004
00000001
00000004
fffffffc
fffffffc
fffffffe
fffffffb
fffffffa
fffffff9
fffffffc
fffffffe
fffffffe
00000000
00000001
ffffffff
00000002
00000003
00000008
00000008
00000004
00000003
00000000
ffffffff
fffffffc
fffffffd
ffffffff
fffffffc
fffffffb
fffffffb
fffffffd
00000000
00000000
00000004
00000005
00000002
00000002
00000000
00000002
00000002
00000001
00000000
00000003
00000002
00000001
fffffffd
fffffff9
fffffff9
fffffff9
fffffff3
fffffffb
fffffffd
fffffffe
00000002
ffffffff
00000000
00000001
fffffffe
00000001
00000001
00000000
00000005
00000002
fffffff9
fffffff6
00000000
fffffff6
fffffff7
00000002
fffffffb
fffffffc
00000005
00000002
00000000
00000001
00000000
ffffffff
00000001
00000000
00000000
00000000
00000002
00000000
ffffffff
00000001
fffffffc
ffffffff
ffffffff
fffffffc
ffffffff
00000004
00000007
00000003
00000002
00000004
ffffffff
00000004
00000005
00000000
00000000
00000000
00000001
00000001
ffffffff
fffffffd
fffffffe
fffffffb
fffffffc
00000001
fffffffc
fffffffd
00000000
fffffffc
00000000
ffffffff
fffffffe
00000001
00000000
fffffffe
fffffffd
fffffffa
fffffff8
fffffffd
fffffffa
ffffffff
fffffffe
00000004
00000004
00000003
00000000
ffffffff
00000000
00000000
00000000
fffffffe
ffffffff
00000000
00000008
fffffffc
fffffffa
00000005
fffffffe
fffffff9
00000003
00000002
00000000
00000002
00000002
ffffffff
00000002
00000004
fffffffc
ffffffff
fffffffc
00000000
00000009
fffffffd
fffffffe
00000005
00000000
ffffffff
00000008
ffffffff
00000000
00000008
fffffffc
fffffffc
00000002
fffffffc
fffffffc
00000001
00000001
00000000
00000004
00000000
00000000
00000002
00000003
00000002
00000004
fffffffd
00000000
00000005
fffffffe
ffffffff
00000000
00000000
00000001
00000001
00000002
00000000
00000000
fffffff7
fffffff5
fffffffc
00000001
fffffffa
ffffffff
fffffffb
fffffffc
00000000
fffffffc
fffffffb
00000001
fffffffe
fffffffd
00000001
00000002
00000004
fffffff9
00000004
00000009
fffffffe
ffffffff
00000004
fffffff9
fffffffb
fffffffc
00000000
fffffffd
fffffffe
00000000
fffffffe
fffffffc
fffffffd
fffffffc
00000003
00000000
fffffff6
fffffffd
00000006
fffffffe
ffffffff
00000006
fffffffd
fffffff9
00000001
fffffffa
fffffff7
fffffffe
00000000
fffffffc
00000000
fffffffa
00000000
0000000c
fffffff9
fffffff9
00000003
ffffffff
fffffffd
00000005
00000001
ffffffff
00000004
fffffffa
fffffff6
00000003
ffffffff
fffffffc
00000002
fffffffe
00000004
00000003
fffffff8
fffffff7
00000002
fffffffc
fffffffa
fffffffd
ffffffff
00000000
00000000
fffffffe
fffffffb
00000000
fffffffd
fffffffb
ffffffff
fffffffe
fffffff2
fffffffc
00000000
fffffffb
00000001
00000001
00000004
fffffffd
00000003
fffffffc
fffffffa
00000000
fffffffd
ffffffff
00000000
00000001
00000008
ffffffff
fffffff7
fffffffb
00000003
00000000
00000001
00000000
00000009
00000002
fffffffe
fffffffb
fffffffd
00000002
fffffffe
00000000
00000006
00000005
00000000
00000000
fffffffe
00000000
fffffffe
fffffffb
00000000
00000003
00000004
00000003
fffffffc
fffffff6
fffffffe
00000000
00000002
00000005
00000005
00000007
00000004
fffffffe
fffffff9
fffffffc
00000001
fffffffd
00000000
00000002
00000003
00000003
00000000
ffffffed
fffffff5
fffffffc
fffffff0
fffffffa
fffffffb
00000000
00000001
00000000
00000005
00000000
00000000
00000003
fffffffe
00000000
fffffffc
ffffffff
ffffffff
ffffffff
ffffffff
00000000
00000000
ffffffff
00000001
ffffffff
00000000
fffffffc
fffffff9
fffffffd
00000000
00000002
00000007
00000001
00000003
fffffffc
00000000
00000000
00000002
00000002
00000002
00000003
00000000
00000006
00000000
fffffff5
fffffff4
fffffff6
fffffffa
fffffffa
00000000
0000000f
0000000e
0000000b
fffffffb
fffffff6
fffffff8
ffffffff
00000002
00000009
00000002
00000006
00000001
00000000
fffffffc
ffffffff
00000000
ffffffff
00000002
00000000
00000000
00000000
00000001
00000000
00000000
00000001
fffffffe
00000002
00000002
00000001
00000001
00000000
00000001
00000000
fffffffc
00000000
00000001
fffffffc
fffffffe
00000000
00000001
00000000
00000000
fffffffa
fffffffa
ffffffff
fffffffe
fffffffd
00000001
fffffffe
fffffffc
fffffffe
00000003
00000004
00000000
00000000
ffffffff
fffffffe
fffffffd
fffffffe
fffffffe
00000002
00000006
00000000
00000000
00000006
00000004
fffffffe
fffffffc
fffffffe
fffffffd
fffffffd
ffffffff
00000001
fffffffd
fffffffe
ffffffff
ffffffff
00000001
00000000
fffffffe
ffffffff
00000000
00000000
00000001
00000002
00000003
00000001
00000002
00000004
00000004
00000003
00000001
00000003
00000000
fffffffd
00000000
00000002
00000000
fffffffa
00000000
00000005
fffffffd
00000000
00000004
00000005
fffffffe
fffffffd
00000000
00000002
fffffffd
fffffffd
00000003
00000003
00000002
00000005
00000003
00000004
00000003
00000005
00000004
00000003
fffffffe
00000000
00000003
fffffffe
fffffffb
ffffffff
00000000
ffffffff
fffffffd
fffffff3
fffffff6
00000000
fffffff6
fffffffe
00000000
ffffffff
00000002
fffffffb
fffffffc
fffffffc
00000000
00000007
00000001
fffffffb
00000004
00000004
fffffffc
00000001
ffffffff
00000000
00000009
00000008
ffffffff
00000006
00000007
00000000
ffffffff
00000000
00000001
fffffffd
00000001
00000001
fffffffe
ffffffff
00000000
00000000
00000000
00000003
00000003
00000003
00000000
00000000
00000001
00000002
00000000
fffffffa
00000000
00000000
fffffffc
ffffffff
fffffffe
00000000
00000003
00000000
fffffffa
00000005
00000003
fffffffe
fffffffb
fffffffd
fffffffe
ffffffff
fffffffd
00000007
fffffffa
fffffff8
00000004
00000003
00000000
00000000
fffffffd
fffffff5
00000006
fffffffb
fffffff5
00000004
00000007
00000008
00000004
00000007
00000008
00000000
00000000
00000003
ffffffff
fffffffe
ffffffff
fffffffb
00000001
00000001
ffffffff
00000001
00000000
00000000
00000001
00000000
00000000
00000000
00000000
00000000
00000000
00000000
00000000
00000001
00000003
00000002
00000000
00000002
00000002
ffffffff
00000000
00000000
00000001
00000000
00000001
00000002
0000001f
fffffff7
00000003
00000019
fffffff8
fffffff7
fffffff8
fffffff1
fffffffc
fffffffc
fffffffe
fffffffe
ffffffff
fffffffe
ffffffff
00000001
00000000
fffffff7
fffffffa
00000002
ffffffff
00000006
00000004
ffffffff
00000000
fffffffc
fffffffe
00000005
00000000
fffffffb
00000000
ffffffff
ffffffff
fffffffe
00000000
fffffffb
ffffffe0
00000016
fffffffd
ffffffe9
0000000e
0000000e
00000006
00000002
0000000c
fffffffe
ffffffff
00000003
fffffff4
fffffffc
00000001
00000001
00000006
00000000
00000006
fffffffc
00000000
00000004
fffffffd
00000000
ffffffff
ffffffff
fffffffc
fffffff8
00000000
fffffffe
fffffffc
00000001
00000000
00000000
00000004
00000000
00000001
00000000
00000000
00000000
00000000
00000000
00000000
00000000
00000002
00000004
00000000
00000001
00000002
00000000
ffffffff
00000000
00000000
ffffffff
ffffffff
00000002
ffffffff
00000001
00000002
ffffffff
00000001
00000001
fffffffe
00000000
fffffffe
00000000
00000003
00000002
fffffffe
00000000
00000001
00000000
00000000
00000000
00000000
00000000
00000000
00000000
00000000
00000000
00000000
00000000
00000000
00000000
00000000
00000001
00000000
00000000
00000000
00000000
00000000
00000000
00000000
00000001
00000001
00000000
00000000
00000000
00000000
00000000
00000001
00000000
00000000
00000001
00000000
00000000
00000000
fffffffc
fffffff8
ffffffff
fffffffe
fffffff7
ffffffff
00000001
fffffffc
00000000
00000000
00000000
00000000
00000000
00000000
00000000
00000000
ffffffff
ffffffff
00000001
00000003
fffffffe
00000001
00000001
ffffffff
00000000
00000000
fffffffe
00000000
fffffffe
fffffffc
00000001
00000000
00000000
00000000
00000000
00000000
00000000
00000008
fffffffd
00000000
0000000f
00000003
fffffffa
00000004
00000000
fffffffd
ffffffff
00000001
fffffffc
00000000
00000005
ffffffff
00000000
00000003
fffffffe
fffffffd
fffffffe
00000000
fffffffe
fffffffe
00000001
00000001
00000000
00000000
00000003
00000000
00000000
00000002
00000001
00000000
00000000
ffffffff
fffffff2
ffffffe9
ffffffef
fffffff4
ffffffe6
ffffffee
ffffffff
fffffffc
fffffffb
fffffff5
00000000
fffffffd
fffffffc
00000003
00000001
00000003
00000009
00000009
00000008
00000003
00000000
00000002
fffffffe
fffffffc
fffffffd
fffffffa
fffffffd
fffffff8
ffffffff
00000001
fffffff5
fffffffe
00000000
fffffffe
00000003
00000008
00000001
00000003
00000003
00000001
fffffffd
00000000
00000000
00000000
00000005
fffffffd
ffffffff
00000000
00000000
ffffffff
00000000
00000000
00000000
00000000
00000000
00000004
00000000
00000001
00000000
fffffffe
00000005
00000007
00000006
00000005
00000005
ffffffff
00000000
fffffffa
fffffff6
ffffffff
fffffff8
ffffffff
ffffffff
00000000
00000000
ffffffff
00000005
00000004
fffffffe
00000001
00000004
fffffffa
fffffffe
00000000
fffffffe
00000001
00000005
00000003
00000006
00000007
fffffffd
fffffffb
ffffffff
fffffffe
fffffffa
fffffff7
00000000
00000003
00000004
00000001
00000001
00000006
fffffffd
fffffffe
fffffffe
00000000
fffffffe
00000002
fffffff7
fffffffc
fffffffa
00000004
00000000
00000000
00000006
0000000c
0000000e
00000006
00000003
00000007
00000002
ffffffff
fffffffc
ffffffff
ffffffff
00000000
00000003
fffffffc
fffffffe
fffffffd
fffffffb
fffffffc
00000005
00000000
00000004
fffffffb
00000000
00000001
fffffff9
ffffffff
00000002
00000002
00000006
00000009
00000000
00000003
00000000
fffffffa
fffffff7
ffffffff
fffffff6
00000000
00000007
00000000
00000001
00000002
00000001
fffffffe
ffffffff
fffffffe
fffffffa
00000003
0000000e
00000001
00000000
00000005
fffffff6
fffffffe
fffffffe
fffffff9
00000001
ffffffff
00000001
fffffffd
00000001
00000000
fffffffc
00000000
ffffffff
fffffffd
00000007
00000000
00000004
00000004
fffffffb
fffffffc
00000000
fffffffc
00000002
0000000e
fffffffd
fffffffe
0000000a
fffffff3
fffffffb
00000001
fffffff5
00000002
00000002
fffffffc
fffffffa
00000008
ffffffff
fffffff6
0000000a
fffffff8
fffffffc
00000005
0000000e
00000001
0000000a
00000000
fffffffc
fffffffe
fffffff8
00000000
00000004
fffffffa
00000000
00000002
fffffffe
00000001
00000000
fffffffd
00000002
ffffffff
fffffffc
ffffffff
fffffffc
fffffffd
fffffffe
fffffffe
fffffffe
fffffffd
00000002
00000000
ffffffff
00000000
fffffff8
ffffffff
fffffffc
fffffff9
00000002
00000002
fffffff1
fffffffa
fffffffb
ffffffee
00000000
00000000
fffffffd
00000007
00000008
00000004
00000000
00000006
fffffffb
fffffffc
fffffffc
fffffffc
ffffffff
00000004
fffffffe
00000002
00000004
fffffff6
00000000
ffffffff
fffffffb
00000004
00000003
fffffffd
00000000
00000006
fffffff8
ffffffff
00000000
fffffff9
00000005
00000002
00000000
00000000
ffffffff
fffffffe
00000000
fffffffe
fffffffe
00000000
00000002
ffffffff
00000000
00000001
00000003
fffffffe
00000000
00000001
00000000
fffffffe
00000002
fffffffe
00000004
00000012
00000001
fffffffc
00000002
fffffffc
fffffff7
fffffff7
fffffff6
fffffff4
ffffffea
fffffff3
fffffffe
fffffff6
fffffffa
00000000
fffffffe
00000000
fffffffd
fffffff6
fffffffb
00000000
fffffffd
00000001
00000003
ffffffff
00000000
00000005
00000006
00000005
00000003
00000004
00000001
ffffffff
00000005
00000002
00000003
00000007
00000006
00000002
00000006
00000002
ffffffff
ffffffff
fffffffe
ffffffff
fffffffc
fffffffe
00000000
00000000
00000000
00000000
fffffffd
00000000
fffffffd
fffffffd
00000001
00000002
00000000
00000002
fffffff7
fffffff9
fffffff3
fffffffc
00000019
0000000d
fffffff9
ffffffff
fffffffd
00000000
00000000
00000000
fffffffc
fffffffd
fffffffd
fffffffd
fffffffe
fffffffb
00000000
00000000
00000001
00000000
ffffffff
00000003
00000003
00000005
00000007
00000002
00000006
00000005
ffffffff
00000002
00000004
00000000
00000000
00000000
00000002
00000002
00000004
00000003
fffffff5
fffffffe
00000005
ffffffff
00000003
00000000
fffffffe
fffffffc
00000000
fffffff5
fffffff5
fffffffe
fffffff7
fffffff4
00000001
00000001
ffffffff
00000000
00000003
00000000
00000000
00000002
00000000
fffffffe
fffffffc
fffffffd
fffffffc
fffffffb
fffffffb
00000000
00000001
fffffffd
00000001
00000002
fffffffe
00000004
00000003
00000000
00000001
00000004
fffffffd
00000001
00000001
00000000
00000000
00000000
ffffffff
ffffffff
00000000
00000000
00000002
00000000
00000000
00000000
00000000
00000000
ffffffff
00000000
ffffffff
00000000
00000000
00000001
fffffffc
fffffffe
00000000
ffffffff
fffffffd
00000000
00000000
00000001
00000003
00000002
00000006
00000004
00000003
00000006
00000009
00000007
0000000a
00000009
00000006
0000000c
00000007
00000004
00000005
00000007
ffffffff
fffffffe
00000000
00000000
fffffffe
00000000
00000000
00000001
00000005
00000001
00000002
fffffffe
00000001
00000003
00000002
00000002
00000001
00000002
fffffffd
ffffffff
00000002
fffffffb
fffffffc
00000005
fffffffc
00000000
00000008
00000000
00000001
00000000
ffffffff
00000001
00000000
fffffffe
fffffffe
00000000
00000000
00000001
00000002
00000000
00000002
00000000
00000003
00000004
00000000
00000001
00000002
00000000
00000002
00000002
00000002
ffffffff
fffffffc
00000000
00000002
00000001
00000001
fffffffb
fffffffc
00000002
00000001
fffffffe
00000004
ffffffff
ffffffff
00000002
00000000
fffffffd
00000000
ffffffff
fffffffd
00000000
00000001
00000001
00000000
00000000
00000003
00000000
00000000
00000002
00000002
fffffffe
fffffffe
ffffffff
fffffffe
ffffffff
ffffffff
fffffffe
fffffffd
00000000
00000001
ffffffff
00000000
00000000
00000001
00000000
ffffffff
00000002
00000001
00000001
00000003
00000004
fffffff3
fffffffa
00000001
fffffff2
fffffffe
00000002
fffffffc
fffffffe
fffffffd
00000004
00000002
ffffffff
0000000a
0000000a
fffffffd
fffffffd
fffffffa
fffffffc
00000002
ffffffff
fffffffd
00000006
00000001
fffffffe
00000001
00000003
00000000
ffffffff
00000000
fffffffe
00000001
00000000
00000000
00000004
00000002
ffffffff
00000000
00000000
00000000
00000002
00000000
00000003
00000000
00000000
00000000
00000000
00000000
00000001
00000003
00000003
00000002
00000000
00000001
00000000
00000000
fffffffd
00000002
00000005
00000000
ffffffff
00000002
00000002
ffffffff
fffffffc
ffffffff
00000001
fffffffc
fffffff7
ffffffff
00000002
00000000
00000000
00000001
00000002
00000001
00000003
00000002
00000003
00000000
00000002
00000004
00000004
00000002
00000000
00000002
fffffff8
fffffffa
00000002
00000002
00000001
fffffffe
fffffffa
00000001
00000002
00000005
00000003
fffffffc
fffffff8
fffffffd
00000000
ffffffff
00000001
00000009
0000000a
00000003
00000001
00000000
fffffff8
00000001
00000004
fffffff9
00000002
00000014
00000000
ffffffff
00000000
fffffffc
fffffffc
fffffffc
00000000
fffffffe
fffffffc
ffffffff
fffffffc
fffffffc
fffffffc
00000001
00000000
ffffffff
fffffffe
00000000
00000001
00000002
00000001
00000000
00000003
00000001
fffffffe
fffffffd
00000000
00000001
00000000
00000001
fffffffa
ffffffff
00000002
fffffffd
00000000
00000000
00000000
00000002
00000004
00000005
00000000
fffffffe
00000000
00000000
fffffffd
fffffffe
ffffffff
fffffffd
00000000
00000000
fffffff9
fffffffd
00000004
00000000
00000000
ffffffff
00000001
00000002
ffffffff
00000000
00000001
fffffffa
ffffffff
00000000
00000000
00000003
00000004
fffffffe
ffffffff
ffffffff
ffffffff
fffffffe
fffffffd
00000000
ffffffff
00000000
00000001
ffffffff
ffffffff
00000001
00000001
00000002
ffffffff
00000002
00000002
fffffffe
fffffffd
00000000
00000003
00000000
00000001
00000000
00000005
fffffffa
fffffffc
0000000c
00000006
fffffffb
00000002
00000001
00000001
00000002
00000003
00000003
00000000
00000002
00000001
00000001
00000000
ffffffff
fffffffc
00000000
ffffffff
ffffffff
00000000
00000001
00000000
00000001
00000000
00000002
00000000
fffffffb
00000000
fffffffe
00000000
fffffffe
00000000
fffffffb
fffffff3
fffffffd
fffffffe
ffffffe7
fffffff0
00000008
fffffff7
fffffffc
00000002
00000004
00000005
00000003
00000007
00000004
ffffffff
00000003
00000000
00000000
00000003
00000001
00000000
00000003
00000002
00000001
00000001
00000003
fffffffe
00000000
00000000
00000001
00000001
fffffffe
00000000
ffffffff
00000000
00000001
ffffffff
00000001
00000002
00000000
00000001
ffffffff
00000000
00000001
00000008
00000006
00000000
00000007
00000002
00000001
00000000
00000000
fffffffe
fffffffd
ffffffff
00000000
fffffffd
ffffffff
fffffffe
00000002
00000000
00000000
fffffffb
ffffffff
00000000
ffffffff
ffffffff
00000001
00000002
00000003
00000001
00000001
00000001
ffffffff
00000000
00000000
ffffffff
ffffffff
ffffffff
fffffffd
00000004
00000001
00000000
00000000
00000001
00000000
fffffffe
00000000
ffffffff
00000000
ffffffff
00000000
00000000
ffffffff
00000000
ffffffff
00000000
ffffffff
00000000
00000000
00000002
fffffffd
00000000
00000000
00000000
fffffffd
ffffffff
00000010
00000008
fffffffd
00000007
00000005
fffffffd
fffffffd
00000000
00000000
00000000
00000002
00000001
00000001
00000002
00000000
00000001
00000000
00000002
fffffffd
00000000
00000000
00000000
00000002
00000001
00000002
00000001
00000000
00000000
00000000
00000000
ffffffff
00000003
00000000
00000000
00000000
00000001
fffffff6
fffffffd
00000003
fffffffc
00000000
00000000
00000002
00000001
00000001
00000000
ffffffff
00000000
fffffffe
fffffffb
00000000
00000001
fffffffe
00000000
00000000
00000000
00000000
00000002
00000002
ffffffff
00000001
00000000
fffffffe
00000000
00000000
fffffffe
00000003
00000001
00000000
00000002
00000003
00000002
fffffffe
fffffffc
00000000
fffffffd
fffffffc
fffffffc
00000005
00000001
00000006
00000002
00000001
00000006
00000000
fffffffe
ffffffff
00000004
00000000
ffffffff
ffffffff
00000002
00000000
fffffffb
fffffffd
00000000
00000002
00000003
00000002
00000003
00000000
00000004
ffffffff
fffffff7
fffffffa
00000006
fffffffe
fffffffd
00000000
00000005
00000004
00000003
00000004
00000007
00000000
ffffffff
00000000
00000000
00000004
00000002
00000000
00000003
00000004
fffffffd
ffffffff
00000001
00000004
00000000
ffffffff
00000001
00000000
00000000
00000002
ffffffff
ffffffff
fffffffd
00000008
00000005
fffffff9
fffffff5
00000000
00000002
fffffffa
00000000
00000002
00000004
00000007
fffffffa
fffffffb
00000005
ffffffff
fffffff7
ffffffff
fffffffd
fffffffc
fffffffd
00000000
ffffffff
fffffffe
ffffffff
00000000
ffffffff
00000004
00000005
00000009
fffffff7
fffffff2
00000006
fffffffc
ffffffef
fffffff7
00000002
00000000
00000006
ffffffff
fffffff6
fffffff7
fffffffd
fffffff0
fffffff2
fffffffd
00000000
00000005
fffffffc
fffffffd
00000003
ffffffff
00000000
00000005
00000004
00000003
00000009
fffffffa
fffffff9
00000006
fffffffa
fffffff6
fffffff9
fffffffd
00000000
ffffffff
fffffff9
fffffff8
fffffff8
ffffffff
fffffffc
fffffffb
fffffffd
fffffffd
fffffffa
fffffffc
fffffffa
fffffffc
00000003
00000001
00000001
fffffffe
fffffffe
00000000
00000001
00000001
00000000
ffffffff
00000000
ffffffff
00000000
ffffffff
00000000
00000000
00000001
00000000
00000000
00000000
00000000
ffffffff
00000000
00000002
ffffffff
ffffffff
00000000
ffffffff
fffffffe
00000000
00000000
00000000
00000000
00000000
ffffffff
00000000
00000000
00000000
00000000
00000000
00000000
00000000
00000001
00000000
00000000
00000000
00000000
00000000
00000000
00000000
ffffffff
ffffffff
00000000
00000000
00000001
00000001
00000000
00000002
00000001
00000001
00000003
00000002
00000000
00000002
00000003
00000000
00000000
00000000
00000000
ffffffff
00000000
00000000
00000000
ffffffff
00000000
00000000
00000000
00000000
00000000
00000000
00000000
00000000
00000001
00000000
00000000
00000000
00000000
00000000
00000000
00000000
00000000
ffffffff
00000000
00000000
00000001
00000000
00000000
00000002
00000000
00000007
00000003
00000000
00000003
00000004
00000000
00000000
fffffffd
00000000
00000004
00000007
00000000
00000000
00000000
00000000
00000002
00000003
ffffffff
fffffffe
fffffffe
00000000
ffffffff
00000001
00000001
fffffffd
fffffffe
00000000
00000005
00000005
ffffffff
00000000
00000001
ffffffff
00000000
00000000
00000000
00000001
00000001
00000000
ffffffff
00000000
00000000
00000000
00000000
00000000
ffffffff
00000000
00000000
ffffffff
fffffff9
fffffffb
00000000
fffffffa
fffffff7
fffffffd
ffffffff
fffffffd
00000002
fffffffa
fffffffc
00000006
fffffffd
ffffffff
00000007
00000003
00000002
00000001
fffffffe
00000000
00000002
fffffffe
00000002
00000004
fffffff7
fffffffe
fffffff9
fffffffb
fffffffe
ffffffff
ffffffff
fffffffb
fffffffd
00000000
00000000
00000000
fffffffd
ffffffff
00000000
fffffffe
00000000
fffffffe
fffffff9
fffffffc
fffffffc
fffffffe
fffffff9
00000000
00000000
fffffffd
00000002
fffffffb
fffffff9
fffffff9
fffffff6
fffffff9
fffffff9
fffffff5
fffffff9
fffffffa
fffffff7
fffffff9
00000002
fffffff9
fffffffe
00000002
fffffff8
fffffffd
00000001
fffffffa
fffffff8
00000001
ffffffff
00000001
00000002
00000001
00000001
fffffffb
fffffff9
fffffffa
ffffffff
00000003
00000000
00000000
00000001
00000000
00000002
00000002
00000000
fffffffc
fffffffa
fffffffe
fffffffe
fffffffc
fffffffc
00000004
fffffffa
fffffffb
00000000
fffffffd
fffffffd
00000002
00000001
00000000
fffffffe
00000001
fffffffd
fffffffd
fffffffa
fffffffe
00000002
fffffffe
fffffffe
00000005
fffffffe
fffffffe
00000005
ffffffff
fffffffe
00000004
fffffffa
fffffffb
00000004
fffffff6
fffffff6
00000000
fffffff9
fffffff8
00000005
fffffffe
fffffff8
00000003
fffffffd
fffffff9
00000003
00000002
00000002
00000001
00000005
00000001
00000006
00000001
00000001
00000004
fffffffc
fffffffc
00000003
00000009
00000001
fffffffb
00000001
00000002
00000003
fffffffc
00000005
00000002
ffffffff
ffffffff
00000000
00000005
fffffffd
00000005
0000000c
00000000
fffffffc
00000000
00000001
fffffffd
fffffff5
00000002
00000000
00000002
fffffffb
fffffffd
fffffffd
fffffffd
00000001
ffffffff
00000003
00000008
00000007
00000006
00000000
00000005
00000003
fffffffd
fffffffb
00000000
00000005
00000005
00000007
ffffffff
fffffffe
fffffffe
fffffffd
fffffff7
fffffff9
00000000
00000001
00000001
00000002
00000002
00000001
00000000
00000007
00000004
fffffff9
fffffffd
00000005
00000000
00000000
00000000
00000003
00000005
fffffffa
fffffffe
ffffffec
fffffff8
00000008
00000007
00000002
fffffffd
0000000d
00000003
00000000
fffffffd
ffffffff
ffffffff
ffffffff
ffffffff
00000000
00000002
00000000
00000001
fffffffa
fffffffe
00000000
fffffff2
fffffffa
00000000
00000002
00000002
fffffffe
fffffff7
fffffff8
fffffffc
fffffff6
fffffffb
ffffffff
fffffffa
ffffffff
00000006
00000015
00000006
fffffff7
fffffffd
00000001
ffffffff
ffffffea
fffffffe
ffffffff
00000000
00000008
ffffffff
fffffff7
fffffffe
00000005
00000000
fffffffb
fffffffa
fffffff6
fffffffb
00000000
00000005
00000003
00000000
00000008
00000002
fffffffb
fffffffe
ffffffff
ffffffff
fffffffe
fffffffd
00000004
00000001
00000001
fffffffd
00000006
0000000f
fffffff9
ffffffea
fffffffc
00000003
fffffffa
fffffffa
ffffffff
fffffffd
00000000
00000001
00000000
fffffff9
00000000
00000004
00000001
fffffffc
fffffff7
0000000c
00000001
fffffff6
fffffffb
00000009
00000003
ffffffff
00000001
00000003
00000004
00000000
ffffffff
fffffffd
00000004
00000000
fffffffa
fffffffa
fffffffd
00000008
fffffffc
fffffff4
ffffffff
00000007
fffffffe
fffffffc
fffffffd
fffffff3
00000002
0000000b
fffffff5
fffffff4
0000000e
00000006
ffffffff
00000001
fffffffc
00000003
ffffffff
fffffff5
fffffffb
00000000
fffffffe
fffffff0
fffffffc
fffffff0
fffffffe
00000006
00000000
fffffff6
00000001
00000013
00000004
00000000
00000000
00000002
00000000
00000001
00000001
fffffffd
fffffffd
00000000
fffffffe
fffffffb
ffffffff
fffffffe
ffffffff
fffffffe
00000000
00000000
fffffffc
00000000
fffffff9
ffffffff
00000005
00000000
fffffffa
00000000
00000009
00000002
00000001
fffffff1
fffffffa
00000009
00000009
fffffff7
ffffffff
00000009
fffffffd
fffffffd
fffffffa
0000000d
00000002
fffffff2
fffffffd
00000009
00000000
fffffffd
00000000
fffffffe
00000004
00000000
fffffff6
fffffff9
00000004
00000005
00000000
ffffffff
ffffffff
00000008
00000001
fffffff9
00000007
00000001
fffffff9
fffffffa
00000003
00000001
00000003
00000002
fffffffd
ffffffff
00000000
00000000
00000000
00000001
00000005
00000002
00000000
00000004
00000004
fffffffd
00000002
00000002
fffffffe
00000000
00000005
ffffffff
00000000
00000003
fffffffe
00000001
00000000
00000000
00000003
00000003
00000000
00000005
00000002
00000000
00000003
ffffffff
00000000
fffffffc
00000000
00000000
ffffffff
00000001
00000000
fffffffc
00000001
00000000
00000001
00000000
00000000
00000000
00000002
00000002
00000002
00000001
fffffffc
00000001
00000001
fffffffe
00000001
00000001
ffffffff
00000005
00000001
00000001
00000000
fffffff8
fffffffe
fffffff8
fffffff7
00000001
fffffffe
fffffff9
00000000
fffffffd
0000000d
fffffffe
00000000
0000000c
ffffffff
00000003
0000000a
00000000
00000002
ffffffff
00000000
00000001
fffffffb
00000000
00000001
fffffffe
00000000
ffffffff
00000002
00000000
00000000
00000002
00000000
00000000
00000000
ffffffff
fffffffe
fffffffe
fffffffd
fffffffc
fffffffe
ffffffff
fffffffe
00000000
00000000
ffffffff
00000000
00000000
00000001
00000000
00000001
00000001
fffffffd
00000002
fffffffd
00000001
ffffffff
fffffffd
00000000
00000004
00000000
00000000
00000005
ffffffff
fffffffa
00000001
fffffffe
fffffff9
00000009
00000000
fffffffb
00000000
00000003
00000001
fffffffd
00000002
00000002
00000000
00000002
00000000
fffffffd
00000000
00000000
fffffffe
00000000
00000000
ffffffff
fffffffd
00000000
00000005
fffffff9
fffffffb
00000008
fffffff9
fffffff2
0000000d
00000002
fffffffb
00000004
fffffffd
fffffffc
00000005
fffffffe
fffffffe
00000008
fffffffc
ffffffff
00000000
00000000
fffffffb
00000000
00000002
fffffffa
fffffffd
00000003
ffffffff
00000001
ffffffff
ffffffff
00000000
ffffffff
fffffffd
00000004
00000001
fffffffe
00000002
00000001
ffffffff
00000005
00000000
fffffffd
00000002
00000003
00000002
00000000
00000000
ffffffff
ffffffff
00000001
ffffffff
00000000
00000001
00000000
ffffffff
fffffffc
00000001
00000001
fffffff9
fffffffe
00000004
fffffffe
ffffffff
ffffffff
00000001
00000004
fffffffd
fffffffe
00000006
fffffff9
fffffff9
00000000
00000002
fffffffe
00000000
00000003
fffffff9
00000001
00000008
fffffffc
ffffffff
00000000
ffffffff
00000000
00000000
fffffffe
00000000
ffffffff
ffffffff
00000000
00000000
ffffffff
00000001
fffffffd
00000000
00000000
00000004
fffffffb
ffffffff
fffffffe
ffffffff
00000001
ffffffff
fffffffc
00000001
00000000
fffffffe
00000000
00000000
00000001
fffffffa
0000000a
00000005
fffffff1
00000000
0000000b
fffffffe
00000000
00000002
00000001
fffffffb
00000004
00000007
fffffffd
ffffffff
00000007
00000000
00000000
00000005
fffffffd
fffffffc
00000000
00000000
fffffffe
ffffffff
00000003
00000000
fffffffe
00000000
00000002
00000000
00000000
00000001
fffffffd
fffffffd
fffffff9
00000000
00000001
fffffffb
00000002
00000004
fffffffb
0000000b
00000006
fffffffa
00000000
00000004
fffffffe
00000006
00000002
fffffff6
00000002
00000001
00000001
00000006
fffffffb
fffffffa
00000001
00000004
fffffffd
00000009
00000001
fffffffb
00000002
00000001
ffffffff
00000001
00000003
fffffffd
00000004
00000001
00000004
00000003
00000001
00000001
00000002
00000005
00000006
0000000a
ffffffff
fffffffb
00000001
fffffffc
fffffffb
00000002
00000001
00000000
00000006
fffffffe
fffffffe
fffffff9
00000000
00000001
ffffffff
fffffff6
fffffff0
fffffff5
00000003
fffffffc
00000002
00000000
fffffffe
00000000
00000005
fffffffc
00000006
fffffffb
fffffffa
00000000
00000005
ffffffff
00000008
fffffffb
fffffff6
00000000
ffffffff
ffffffff
00000003
00000000
fffffffe
00000000
fffffffd
fffffffd
00000001
fffffffc
fffffffa
fffffff6
fffffffd
00000000
fffffffe
fffffff9
fffffff4
00000003
00000000
00000002
00000005
00000004
00000000
00000003
00000005
fffffffb
00000001
00000004
00000001
00000008
fffffff5
fffffff5
ffffffff
fffffffc
fffffffb
00000006
fffffffc
fffffffb
fffffff2
00000011
0000000c
00000006
fffffff5
ffffffee
fffffff3
00000003
00000000
00000004
00000009
00000006
00000009
00000005
fffffffa
0000000b
fffffffd
fffffffb
00000001
fffffffe
fffffffe
00000002
fffffffc
fffffffe
00000000
00000000
00000001
ffffffff
00000000
00000000
00000000
00000000
00000000
00000000
00000004
0000000a
00000000
00000001
0000000a
00000000
fffffffd
fffffffc
fffffff9
00000003
ffffffff
00000000
00000004
ffffffff
fffffffd
fffffffe
ffffffff
00000000
00000003
00000006
fffffffd
00000005
00000004
ffffffff
fffffffd
fffffffe
00000000
ffffffff
fffffffd
ffffffff
00000001
ffffffff
fffffffe
00000002
00000000
00000000
00000000
00000003
00000000
00000001
00000002
00000000
fffffffe
ffffffff
fffffffb
00000000
00000000
00000000
ffffffff
ffffffff
00000000
ffffffff
ffffffff
00000000
ffffffff
ffffffff
ffffffff
00000000
ffffffff
00000000
00000000
ffffffff
00000000
ffffffef
fffffff1
00000002
fffffffb
fffffff9
00000005
00000009
00000008
00000000
00000002
00000000
ffffffff
00000000
ffffffff
ffffffff
ffffffff
ffffffff
00000000
00000006
00000008
00000000
fffffffb
fffffffc
00000002
fffffffe
00000001
00000005
00000000
00000000
00000000
00000000
00000000
00000000
ffffffff
00000000
00000000
00000012
00000016
fffffff3
00000009
0000000b
fffffff2
fffffff0
fffffff8
fffffffb
00000000
fffffffc
00000000
0000000a
00000003
fffffffa
00000003
fffffffc
fffffffc
00000000
fffffffe
00000003
ffffffff
00000001
00000003
00000001
00000004
00000002
00000007
00000003
fffffffe
ffffffff
ffffffff
00000000
00000000
ffffffff
ffffffff
fffffff5
fffffffd
fffffff8
fffffff5
fffffffa
fffffff7
fffffffd
00000000
fffffffa
fffffffe
fffffffe
fffffffb
fffffffa
fffffffc
fffffffd
ffffffff
ffffffff
00000000
00000001
ffffffff
00000000
fffffffb
fffffff9
fffffff9
fffffffc
fffffffc
ffffffff
fffffffc
00000000
fffffffd
00000000
fffffffe
fffffffb
00000000
00000005
00000004
00000006
00000000
00000005
00000005
fffffffd
00000000
00000003
fffffffa
ffffffff
ffffffff
fffffffd
00000002
ffffffff
fffffffd
fffffffd
ffffffff
00000000
00000001
fffffffe
00000000
00000002
fffffff9
fffffffb
fffffffb
00000001
00000003
00000005
fffffff6
fffffff8
fffffff4
fffffff3
fffffffc
fffffff9
fffffff5
fffffffc
fffffffb
ffffffff
00000000
00000005
00000000
00000002
00000000
fffffffd
fffffffc
fffffff9
00000000
ffffffff
00000000
00000002
00000000
fffffffc
00000002
00000000
00000000
fffffff9
fffffff6
fffffff8
fffffffa
fffffff7
fffffffe
00000005
00000003
00000005
fffffff8
fffffff6
fffffffb
fffffffe
fffffffa
ffffffff
00000000
fffffffd
00000003
00000000
fffffffd
00000000
fffffffa
fffffffb
00000001
fffffffd
00000004
00000009
00000003
00000005
00000004
ffffffff
00000000
00000000
00000000
00000000
ffffffff
fffffffe
00000000
fffffffc
fffffffb
ffffffff
fffffff9
00000003
00000002
00000000
fffffffe
00000001
00000000
00000002
00000003
fffffffe
00000003
00000000
00000002
fffffffa
fffffffa
fffffffc
00000001
00000008
00000003
00000001
00000007
00000003
ffffffff
00000009
fffffff8
00000000
00000000
fffffffa
00000000
fffffffc
00000006
00000002
fffffff2
fffffffb
fffffffc
fffffffc
00000007
fffffffb
00000004
0000000c
fffffffe
fffffff4
fffffffe
fffffff7
00000002
00000005
fffffff9
00000004
00000004
00000003
fffffff6
fffffffc
ffffffff
fffffff9
00000003
fffffffe
fffffffd
00000003
00000005
fffffffc
fffffffc
00000000
fffffffc
00000000
00000001
ffffffff
00000001
00000002
00000003
00000001
00000001
fffffffe
fffffff8
00000000
fffffff9
fffffffb
00000000
00000009
fffffff8
00000000
fffffffa
fffffff9
00000004
fffffff7
00000002
fffffffb
ffffffff
00000001
00000001
00000002
fffffffd
00000001
ffffffff
00000001
00000004
00000001
00000003
00000000
00000000
00000003
00000002
00000002
00000004
fffffffb
fffffff9
00000006
ffffffff
00000003
00000004
ffffffff
00000005
fffffffa
fffffffe
fffffffe
00000008
00000003
00000003
ffffffff
00000000
00000000
fffffffd
0000000a
ffffffee
fffffff2
fffffff4
ffffffe9
00000015
fffffffb
ffffffff
0000001a
00000000
fffffff6
00000000
fffffffd
ffffffff
00000005
ffffffff
fffffffd
0000000b
00000000
00000005
00000001
00000004
00000001
fffffff9
00000000
fffffffa
fffffffb
00000002
00000000
00000001
fffffffe
00000000
00000004
fffffffe
00000001
00000005
fffffffc
fffffff1
ffffffff
fffffff6
fffffff0
00000001
00000002
fffffffa
fffffffb
ffffffff
fffffffa
00000004
fffffffc
ffffffff
00000008
00000002
fffffffe
fffffffb
ffffffff
00000001
00000000
00000001
00000003
fffffffd
00000002
00000001
fffffffd
00000002
fffffffe
00000000
fffffffc
fffffffa
00000006
fffffffe
fffffffb
00000006
fffffffe
00000000
00000001
ffffffff
00000002
00000001
00000000
00000001
fffffffc
fffffffe
00000000
00000002
fffffffd
00000000
00000004
00000000
00000001
00000000
fffffff9
fffffff8
00000004
fffffff8
00000001
0000000a
00000005
00000003
fffffffe
fffffffd
fffffffe
00000008
00000000
00000008
00000009
00000004
00000002
00000002
00000001
00000000
00000002
fffffffe
fffffffe
00000004
00000000
00000000
00000001
00000000
00000001
00000003
00000000
00000002
00000005
00000000
00000000
00000004
00000000
fffffffe
00000001
fffffff9
fffffffa
0000000d
00000000
00000001
00000000
fffffffe
fffffffb
fffffffb
fffffffc
fffffffb
00000004
00000001
fffffffe
00000000
fffffff8
fffffffe
00000008
fffffffb
00000006
00000004
00000003
00000002
fffffffc
fffffffb
ffffffff
00000001
fffffffe
00000000
00000004
fffffffe
00000002
00000001
fffffffe
fffffffb
00000000
fffffff9
00000002
00000007
00000007
00000002
fffffffb
00000000
00000001
00000000
fffffffd
00000001
00000001
ffffffff
00000000
00000003
fffffff7
fffffffd
00000003
fffffffb
fffffffe
ffffffff
00000000
00000002
00000005
fffffff8
fffffff9
fffffff6
fffffffc
fffffffe
fffffffc
00000001
00000005
00000000
00000002
00000000
00000002
fffffffe
00000001
ffffffff
fffffffe
fffffffd
00000003
fffffff8
fffffff8
fffffffa
fffffff9
fffffffb
ffffffff
00000000
ffffffff
00000008
00000007
ffffffff
00000001
00000004
fffffffb
00000000
fffffffe
fffffff8
fffffffe
00000004
00000000
00000001
00000000
fffffffb
fffffffe
fffffffc
fffffffc
fffffffe
00000003
00000007
00000003
00000001
00000000
fffffffb
fffffff8
fffffff6
fffffff3
00000001
00000000
fffffffe
ffffffff
00000000
00000005
fffffff9
fffffffc
00000004
ffffffff
ffffffff
00000003
00000000
fffffffe
00000001
fffffffd
fffffffb
00000000
fffffffb
fffffff7
fffffffb
fffffff9
fffffffb
fffffffe
fffffffc
fffffffe
fffffffe
ffffffff
fffffffe
00000000
fffffffa
fffffff4
ffffffff
fffffffd
fffffff6
fffffffe
fffffffc
fffffffc
fffffff0
fffffff5
fffffffd
ffffffee
fffffff4
fffffff9
fffffff1
00000005
00000000
00000001
fffffffd
fffffff7
fffffffe
fffffffc
fffffffa
00000001
00000005
00000001
00000002
fffffffb
fffffff7
fffffff8
fffffff2
fffffff4
fffffff7
fffffffd
00000002
fffffffd
00000000
00000001
00000000
fffffffd
00000001
fffffffd
fffffffa
fffffffb
fffffffc
00000001
00000003
00000004
00000007
00000009
00000003
00000002
00000005
00000003
00000003
00000007
00000007
00000001
00000003
00000007
00000000
fffffffd
ffffffff
00000005
00000000
fffffff9
00000005
00000000
00000000
fffffffd
00000002
00000004
fffffffe
fffffffd
00000002
00000000
00000000
00000001
ffffffff
fffffffa
fffffffd
00000004
ffffffff
fffffffa
00000008
00000003
00000000
00000002
00000004
00000007
fffffffe
00000002
00000007
fffffffe
00000000
00000004
ffffffff
00000001
00000002
ffffffff
00000002
00000002
fffffffd
00000000
00000002
00000001
00000002
fffffffb
00000002
00000003
fffffffe
00000000
00000000
00000001
fffffffd
fffffff4
00000000
fffffffe
ffffffec
fffffffa
ffffffff
fffffff0
ffffffff
00000002
00000000
00000002
ffffffff
fffffffd
00000001
00000001
ffffffff
00000002
00000004
00000001
fffffffe
00000005
00000001
ffffffff
00000005
00000001
00000000
00000000
00000000
00000003
ffffffff
fffffffe
00000000
00000000
00000000
ffffffff
00000000
00000000
ffffffff
00000000
ffffffff
fffffffa
ffffffff
00000003
ffffffff
00000004
ffffffff
fffffffb
00000008
00000000
fffffff8
00000007
00000002
fffffffd
00000003
00000002
ffffffff
fffffffe
ffffffff
00000001
ffffffff
00000002
ffffffff
ffffffff
ffffffff
ffffffff
00000000
00000000
fffffffc
fffffffe
fffffffd
00000001
00000000
fffffffe
fffffffc
00000002
fffffffe
fffffffc
00000005
00000000
ffffffff
00000002
00000004
fffffffe
00000000
fffffffb
fffffffb
00000000
00000000
fffffffe
00000005
fffffffe
00000000
fffffffe
ffffffed
fffffffb
00000004
fffffff7
fffffffc
fffffff9
00000000
fffffffe
fffffff8
fffffffd
00000000
fffffffb
00000001
00000000
0000000c
00000009
00000007
00000002
fffffff6
fffffffe
00000004
fffffffc
fffffffe
fffffff9
ffffffff
fffffffa
00000000
00000008
00000006
fffffffb
00000006
00000002
00000003
00000006
00000004
00000002
ffffffff
00000000
00000004
00000001
00000002
00000000
fffffffd
fffffffe
00000001
fffffff5
fffffffc
00000003
00000001
ffffffff
ffffffff
00000006
00000001
fffffffb
00000001
00000003
00000002
00000002
00000004
fffffffd
fffffffb
fffffffb
00000000
0000000c
fffffffe
00000005
00000005
00000001
00000002
00000002
00000005
ffffffff
00000000
00000004
00000001
ffffffff
00000004
00000000
ffffffff
00000000
fffffffc
fffffff8
00000003
00000006
00000005
00000009
00000002
0000000c
00000005
00000001
00000001
00000001
00000004
ffffffff
fffffffd
00000011
fffffffd
00000008
fffffff9
ffffffd7
fffffffc
0000000a
fffffff5
00000000
00000000
0000000b
00000000
0000000a
00000008
00000000
fffffffa
fffffff9
fffffffe
00000000
00000001
ffffffff
fffffffa
fffffff8
00000000
fffffffc
fffffffc
fffffffe
fffffffd
fffffffd
00000000
00000000
fffffffe
ffffffff
fffffffc
fffffffa
fffffffc
00000002
00000001
fffffffb
00000001
fffffff0
fffffff8
00000005
fffffffa
fffffffc
00000004
00000005
00000005
00000002
fffffffd
fffffffc
00000000
fffffff9
fffffffc
fffffffd
fffffffe
fffffffc
00000001
00000000
fffffffe
00000001
00000007
00000005
00000000
00000005
00000004
00000005
00000000
00000001
00000003
fffffffb
fffffffc
00000000
fffffffb
fffffffd
00000001
fffffffb
ffffffff
00000004
00000001
00000003
00000002
00000001
00000000
00000002
fffffffa
fffffffe
00000005
00000000
00000000
00000000
ffffffff
fffffff9
00000003
fffffff0
ffffffee
00000000
fffffff6
fffffff5
00000002
00000004
00000000
00000000
fffffff5
fffffff8
fffffffc
fffffff4
fffffffb
00000004
00000001
00000002
00000003
ffffffff
00000000
00000004
fffffffd
00000000
00000001
fffffffe
fffffffe
fffffffe
ffffffff
fffffffe
ffffffff
fffffffd
fffffffe
00000004
ffffffff
00000001
00000007
fffffff3
fffffff8
00000005
fffffff8
fffffff7
ffffffff
00000003
fffffffb
00000005
fffffff9
fffffffc
00000004
fffffffe
00000001
00000007
00000004
00000007
fffffffe
fffffffb
ffffffff
fffffffb
ffffffff
00000003
00000000
00000002
00000004
00000000
00000000
00000004
fffffffe
00000002
00000008
00000003
00000004
00000000
00000000
fffffff4
fffffff3
00000001
fffffff4
fffffff7
00000003
00000004
00000006
00000002
00000000
00000000
fffffffc
fffffffb
fffffffc
00000000
00000000
00000000
fffffff7
ffffffec
fffffff9
fffffff2
fffffff7
00000003
00000002
00000002
00000001
ffffffff
00000000
ffffffff
00000001
fffffffb
00000000
00000004
00000003
00000001
00000000
fffffffa
00000000
fffffffb
fffffffe
00000000
fffffffa
fffffffa
fffffffb
00000000
00000003
00000000
00000005
00000004
00000001
00000006
00000006
0000000a
00000006
00000003
ffffffff
fffffffb
fffffff9
fffffffd
0000000a
0000000a
00000006
fffffffd
fffffff8
fffffff8
fffffff8
fffffff6
fffffffe
00000000
00000004
00000005
00000008
0000000a
00000005
00000009
00000000
ffffffff
fffffffb
00000001
fffffffd
fffffffe
fffffff7
fffffffb
fffffff4
ffffffec
00000001
00000006
00000008
00000004
00000005
ffffffff
fffffffc
fffffffb
fffffffa
fffffffe
ffffffff
00000000
ffffffff
fffffffe
fffffffe
00000000
fffffffd
fffffffe
00000000
fffffffc
fffffffe
00000000
00000000
ffffffff
ffffffff
fffffffe
fffffffa
fffffffe
00000008
00000008
ffffffff
ffffffff
fffffff6
fffffffe
00000000
00000004
00000005
00000000
00000000
00000004
00000001
fffffffe
fffffffe
00000000
00000000
00000001
00000003
00000000
00000001
00000002
fffffffd
00000000
fffffffd
00000002
00000002
00000000
00000002
00000002
00000000
00000000
ffffffff
00000000
fffffffa
00000004
00000000
00000000
00000000
00000000
00000000
00000000
fffffffe
fffffffd
fffffffe
00000001
0000000d
fffffffc
00000005
0000000a
00000000
fffffffe
ffffffe9
00000003
fffffffa
00000000
00000006
fffffff9
00000004
00000004
00000000
fffffffe
00000003
00000005
00000002
fffffffb
00000005
00000000
fffffffc
00000001
ffffffff
fffffffe
00000000
fffffffd
00000001
fffffffb
fffffffc
00000004
fffffffc
00000002
00000004
00000000
00000003
00000002
00000000
00000002
00000000
00000002
fffffffe
fffffffd
fffffffb
00000001
00000001
fffffffd
00000000
00000001
00000000
fffffffc
fffffffe
00000001
fffffffd
00000002
ffffffff
fffffffe
fffffffe
00000001
00000000
00000000
00000000
fffffff0
00000003
00000001
ffffffff
ffffffff
00000002
0000000c
fffffffb
fffffff3
00000004
0000000a
fffffff9
ffffffff
00000006
00000009
fffffffe
fffffffb
00000001
00000000
00000002
00000000
00000000
00000001
00000001
00000001
00000001
00000000
fffffffa
00000000
fffffffb
ffffffff
00000000
00000000
00000001
fffffffd
00000000
00000002
00000003
00000003
00000004
fffffff9
00000004
fffffffd
ffffffff
fffffffb
fffffff9
00000006
ffffffeb
00000002
00000011
fffffff6
00000004
0000000b
00000005
00000003
fffffff8
0000000b
00000001
fffffff4
00000005
fffffff8
fffffffd
fffffffc
ffffffff
ffffffff
fffffffe
00000000
ffffffff
fffffffc
00000000
00000001
fffffffc
ffffffff
00000002
fffffffe
00000000
00000002
ffffffff
00000000
00000003
