00000002
00000000
00000005
00000004
00000001
ffffffff
00000000
00000002
ffffffff
00000005
fffffffc
00000000
00000000
fffffffe
ffffffff
00000000
00000002
00000000
00000000
00000000
00000002
fffffffc
ffffffff
00000003
00000001
00000000
fffffffd
00000001
00000002
00000004
ffffffff
00000002
fffffffb
00000006
00000002
00000004
fffffffb
fffffffe
00000002
00000006
00000000
00000001
fffffffa
00000005
00000000
00000003
fffffffd
00000000
ffffffff
00000000
fffffffb
ffffffff
00000000
ffffffff
00000000
00000000
00000000
fffffffd
00000001
ffffffff
fffffffd
00000000
fffffffb
fffffffe
00000000
00000003
fffffffd
00000002
fffffffc
fffffffe
00000001
ffffffff
00000000
00000001
00000003
00000000
00000000
00000000
fffffffd
fffffffe
fffffffe
00000001
00000004
00000005
00000001
00000000
00000001
00000000
00000006
00000000
00000000
fffffffb
00000001
ffffffff
ffffffff
00000000
00000004
00000002
fffffffa
ffffffff
00000000
00000002
fffffff8
ffffffff
00000001
00000002
fffffffd
00000004
ffffffff
00000000
fffffffe
00000003
00000001
00000000
00000003
00000000
fffffffe
00000000
00000004
fffffffd
00000000
00000001
00000001
fffffffe
00000001
00000000
00000001
00000003
00000000
ffffffff
00000001
fffffffe
00000001
fffffffe
00000006
00000001
00000000
fffffffa
fffffffd
00000001
00000000
00000000
00000001
ffffffff
00000000
ffffffff
fffffffd
fffffffd
fffffffc
00000002
fffffffe
00000000
00000000
ffffffff
00000001
00000003
00000001
fffffffe
00000000
00000001
fffffffd
00000004
00000000
00000007
fffffffe
00000002
00000004
00000000
ffffffff
00000002
ffffffff
00000001
fffffffe
00000000
00000000
fffffffd
00000001
00000000
00000000
00000002
00000000
00000001
ffffffff
00000006
fffffffc
00000000
00000002
fffffffe
00000001
00000000
00000003
00000002
ffffffff
00000006
00000002
00000002
00000000
ffffffff
fffffffa
00000003
00000000
00000000
ffffffff
fffffffa
fffffffd
00000003
fffffffa
fffffffc
00000000
00000002
00000002
00000005
fffffffe
fffffffe
fffffffd
00000007
00000001
ffffffff
00000000
00000004
fffffffe
ffffffff
00000001
00000002
00000001
00000001
ffffffff
00000000
00000000
fffffffd
00000000
fffffffe
00000000
00000000
00000000
00000002
00000007
fffffffe
00000002
00000001
00000005
00000000
00000001
00000002
00000004
fffffffe
00000000
00000001
00000001
00000001
00000000
00000002
00000000
00000000
ffffffff
ffffffff
fffffffb
fffffffe
fffffffd
00000001
00000002
00000008
ffffffff
ffffffff
fffffffe
00000002
00000001
00000000
fffffffe
00000000
00000001
fffffffe
fffffffe
00000001
fffffffa
fffffffb
00000003
fffffffd
00000001
00000001
fffffffc
00000000
00000000
fffffff9
ffffffff
ffffffff
00000001
fffffffc
00000000
00000000
ffffffff
00000000
00000003
fffffffc
00000003
ffffffff
00000000
ffffffff
00000000
00000004
fffffffc
00000000
00000001
00000000
ffffffff
00000003
ffffffff
00000003
00000003
ffffffff
00000002
00000000
00000000
ffffffff
00000000
fffffffb
00000006
00000000
00000000
fffffffc
00000005
00000002
00000000
fffffffe
00000002
00000000
00000003
fffffffd
ffffffff
00000000
00000004
00000000
ffffffff
00000001
00000002
00000009
00000004
00000000
00000000
00000002
fffffffe
fffffffe
00000000
00000001
fffffffd
00000002
00000003
00000000
00000001
00000003
00000003
fffffffd
00000001
00000002
fffffffe
00000003
00000004
fffffffd
fffffffe
00000000
fffffffc
00000006
fffffffe
00000002
00000000
00000001
00000008
00000000
00000000
00000000
00000000
00000001
fffffffd
ffffffff
00000005
00000006
fffffffb
00000000
00000001
00000001
ffffffff
00000002
00000000
ffffffff
ffffffff
fffffffa
00000000
fffffffe
ffffffff
00000001
ffffffff
00000000
fffffffd
fffffffe
fffffffd
00000002
ffffffff
00000002
ffffffff
00000000
fffffffa
00000001
00000001
00000001
ffffffff
00000001
fffffffd
ffffffff
fffffffc
fffffffc
00000002
00000000
fffffffe
fffffffd
ffffffff
ffffffff
ffffffff
00000000
00000000
fffffffd
fffffffe
00000006
ffffffff
00000000
00000001
00000001
00000000
00000001
ffffffff
00000004
00000000
00000000
00000006
00000001
00000000
00000000
00000000
fffffffe
00000001
ffffffff
00000004
00000001
00000002
fffffffb
ffffffff
00000001
00000001
fffffffc
ffffffff
00000002
00000000
00000004
fffffffe
00000000
fffffffd
fffffffd
00000003
00000003
00000000
fffffffe
ffffffff
00000002
fffffffe
00000001
ffffffff
00000000
00000000
ffffffff
fffffffc
00000000
00000000
00000000
ffffffff
ffffffff
fffffffd
ffffffff
fffffffc
00000003
00000000
ffffffff
00000000
00000000
fffffffe
00000009
fffffffc
00000002
fffffffe
fffffffe
00000000
00000001
00000000
00000001
ffffffff
00000000
fffffffe
00000005
00000002
fffffffc
fffffffd
00000001
00000003
ffffffff
00000000
00000004
00000001
00000000
fffffffb
00000000
fffffffd
00000005
00000000
00000003
fffffffe
00000000
ffffffff
00000001
ffffffff
00000000
00000001
00000000
fffffffd
ffffffff
fffffffe
00000006
00000004
00000000
00000003
00000003
00000003
fffffffe
00000001
fffffffe
00000002
00000000
ffffffff
fffffffe
fffffffd
00000000
00000003
00000001
00000000
00000001
00000001
00000004
00000000
fffffffe
ffffffff
fffffffd
fffffffe
00000001
fffffffd
00000000
fffffffc
00000001
00000002
fffffffd
fffffffd
fffffffe
00000000
00000000
00000003
ffffffff
fffffffd
00000001
ffffffff
00000000
00000002
00000000
00000000
00000002
00000001
00000002
00000002
00000000
00000000
00000001
00000001
00000000
00000000
ffffffff
fffffffd
00000003
00000000
fffffffd
00000001
ffffffff
ffffffff
00000000
fffffffd
00000005
00000000
ffffffff
00000001
00000000
00000001
00000000
fffffffd
00000000
ffffffff
00000000
00000001
ffffffff
00000005
ffffffff
00000000
00000000
00000001
00000002
00000002
00000001
ffffffff
00000000
00000002
ffffffff
00000000
00000000
ffffffff
00000001
00000000
fffffffd
00000002
00000002
00000000
fffffff4
ffffffff
00000000
00000000
ffffffff
00000001
00000000
ffffffff
00000002
00000000
00000000
00000001
00000002
00000000
fffffffe
00000001
00000000
fffffffd
00000005
fffffffd
00000000
00000000
fffffffe
00000004
00000000
fffffffe
ffffffff
fffffffb
fffffffb
00000001
fffffffe
00000000
fffffffe
00000001
00000001
ffffffff
00000004
ffffffff
ffffffff
00000001
fffffffb
00000004
00000005
00000000
00000004
fffffffe
00000004
00000001
00000000
00000001
00000005
ffffffff
00000002
00000003
00000000
fffffffe
00000000
ffffffff
00000000
00000002
ffffffff
00000001
00000002
00000000
00000001
00000002
00000000
00000004
00000001
ffffffff
00000002
00000000
fffffffd
fffffffe
00000004
00000001
00000001
00000002
ffffffff
00000001
fffffffe
ffffffff
fffffffe
00000000
00000000
00000000
00000001
00000001
fffffffe
ffffffff
00000000
00000000
00000002
00000002
00000006
00000001
ffffffff
ffffffff
00000000
00000002
ffffffff
00000001
00000000
00000002
ffffffff
00000001
fffffffd
fffffffe
00000000
fffffffe
00000001
fffffffc
00000002
fffffffe
00000000
00000000
fffffffd
00000002
00000000
00000002
00000000
fffffffd
00000000
fffffffc
ffffffff
00000003
00000000
00000000
00000000
00000001
00000000
fffffffe
ffffffff
00000000
00000000
ffffffff
ffffffff
fffffffb
00000000
fffffffe
ffffffff
00000004
00000000
fffffffe
fffffffe
00000000
00000000
00000000
fffffffe
fffffffd
00000001
00000000
00000000
00000001
ffffffff
00000000
00000000
ffffffff
ffffffff
ffffffff
ffffffff
00000003
00000004
00000000
00000000
ffffffff
fffffffe
fffffffe
fffffffd
00000000
00000000
00000000
fffffffd
00000000
00000000
fffffffd
fffffffd
ffffffff
ffffffff
fffffffe
fffffffd
00000000
fffffffb
00000002
00000003
00000000
fffffffd
00000000
00000000
00000002
fffffffe
00000002
00000000
00000002
00000002
00000000
00000002
00000000
ffffffff
00000001
00000001
00000000
00000001
ffffffff
00000000
00000002
00000002
00000003
00000002
ffffffff
ffffffff
00000000
00000000
00000000
ffffffff
00000000
00000000
00000000
fffffffc
00000002
ffffffff
00000000
fffffffe
00000000
fffffffe
00000000
00000000
00000000
00000002
00000001
00000001
00000000
ffffffff
fffffffe
00000004
00000000
00000000
fffffffd
00000000
00000000
00000004
fffffffe
00000000
00000004
00000000
00000000
ffffffff
ffffffff
00000001
00000004
fffffffd
00000000
00000000
00000000
fffffffe
00000000
00000000
00000003
00000004
ffffffff
00000001
00000000
fffffffe
fffffffd
fffffffd
ffffffff
00000001
00000002
fffffffa
00000003
00000003
00000002
00000000
fffffffd
00000001
00000000
00000003
00000000
fffffffe
00000002
00000002
00000007
00000001
fffffffd
00000000
00000002
00000000
00000000
00000000
00000004
ffffffff
00000000
00000001
fffffffd
fffffffe
fffffffe
00000001
fffffffe
fffffffe
00000002
00000000
00000000
00000000
00000000
00000001
fffffffd
00000000
00000000
00000003
00000005
00000000
00000001
ffffffff
00000003
ffffffff
00000000
00000000
00000004
00000000
fffffffd
ffffffff
fffffffe
ffffffff
00000000
00000002
00000001
fffffffa
00000001
ffffffff
fffffffe
00000006
00000001
00000000
ffffffff
00000000
00000001
ffffffff
00000001
00000004
00000003
00000000
ffffffff
00000004
00000001
fffffffd
00000000
00000002
fffffffd
00000003
00000000
fffffffe
00000004
ffffffff
00000002
ffffffff
00000000
fffffffe
00000002
fffffffd
00000000
ffffffff
ffffffff
00000000
00000000
00000000
00000001
ffffffff
00000000
00000001
00000002
ffffffff
00000000
00000000
fffffffd
00000000
00000002
fffffffe
ffffffff
fffffffe
00000000
00000000
00000000
fffffffe
fffffffd
00000000
ffffffff
00000001
00000003
fffffffe
00000001
ffffffff
fffffffd
00000002
ffffffff
00000000
00000000
00000000
00000003
00000000
00000002
00000000
ffffffff
00000000
00000003
ffffffff
fffffffc
00000001
00000005
00000000
fffffffd
00000000
00000000
00000004
fffffffd
00000001
fffffffa
00000000
00000003
00000001
fffffffb
00000002
00000002
00000000
00000000
ffffffff
00000000
ffffffff
00000000
00000000
00000000
ffffffff
fffffffd
ffffffff
00000000
00000000
00000004
ffffffff
fffffffd
00000004
ffffffff
fffffffc
00000000
00000000
00000004
fffffffe
fffffffe
ffffffff
00000000
00000000
00000000
fffffffc
fffffffe
00000002
00000003
fffffff9
fffffffe
fffffffe
00000000
fffffffe
ffffffff
00000000
fffffffd
fffffff8
ffffffff
fffffffd
00000006
fffffffd
fffffffd
00000000
fffffffd
fffffffd
fffffffc
00000002
fffffffe
fffffffc
00000000
00000000
00000000
fffffffb
ffffffff
fffffffa
00000000
00000000
00000000
00000001
fffffffc
00000003
fffffffa
00000002
00000003
fffffffc
00000005
fffffffa
00000004
00000000
00000000
00000004
00000005
00000001
00000000
00000002
00000001
00000000
00000000
fffffffd
00000000
00000003
fffffffa
00000003
00000002
ffffffff
fffffffd
00000004
fffffffc
00000003
fffffffe
fffffffd
fffffffe
ffffffff
00000000
ffffffff
ffffffff
ffffffff
00000001
00000001
00000004
ffffffff
fffffffe
ffffffff
00000000
fffffffd
fffffffd
fffffffd
00000000
00000000
00000003
00000000
ffffffff
fffffffc
fffffffe
00000001
00000004
00000001
00000000
00000003
fffffffe
fffffffd
fffffffb
00000000
00000003
00000000
00000000
00000001
fffffffe
00000000
ffffffff
00000005
00000008
00000002
00000000
00000000
00000001
ffffffff
00000001
00000000
00000001
00000004
00000000
00000002
00000001
00000001
00000002
fffffffd
00000004
00000001
fffffffd
00000004
00000001
00000000
fffffffd
ffffffff
00000000
00000000
fffffff8
fffffffc
fffffffb
00000000
fffffffd
fffffffc
00000001
00000000
fffffffd
00000001
00000000
fffffffc
00000004
ffffffff
ffffffff
00000000
00000000
ffffffff
ffffffff
00000000
fffffffe
00000003
ffffffff
00000003
00000001
fffffffb
00000002
fffffffe
ffffffff
fffffffe
fffffffd
00000001
00000000
00000000
00000002
ffffffff
00000000
fffffffe
fffffffd
fffffff9
00000005
fffffffe
00000000
00000003
ffffffff
00000003
00000002
00000000
ffffffff
fffffffa
fffffffc
00000000
00000003
fffffffa
00000000
fffffffe
00000000
00000004
fffffffe
00000002
00000000
00000000
fffffffd
00000000
00000001
00000000
00000005
00000003
00000000
00000000
00000002
fffffffd
00000003
00000000
00000000
fffffffe
00000003
00000002
00000003
00000000
fffffffe
00000000
fffffffe
fffffffc
00000000
00000006
00000001
fffffffe
fffffffd
00000000
00000002
00000004
fffffffd
fffffffe
00000004
00000006
00000001
00000000
fffffffd
ffffffff
00000001
00000001
00000004
00000002
00000004
00000000
00000001
00000002
ffffffff
00000000
00000001
ffffffff
00000003
00000001
00000002
00000000
ffffffff
00000001
fffffffe
ffffffff
00000003
fffffffc
fffffffe
00000000
fffffffe
00000001
fffffffb
00000000
00000000
fffffffc
00000000
fffffffe
00000003
00000000
00000003
ffffffff
fffffffd
00000005
00000000
ffffffff
00000001
ffffffff
00000001
00000004
ffffffff
00000001
fffffffc
00000000
fffffffd
fffffffb
0000000a
ffffffff
fffffffc
00000000
00000000
fffffffe
fffffffb
00000000
00000000
fffffffd
fffffffe
00000002
ffffffff
ffffffff
00000007
fffffffe
fffffffb
fffffffe
00000005
00000000
00000002
ffffffff
00000000
00000002
00000000
fffffffd
00000000
00000000
00000001
00000006
ffffffff
00000000
00000002
fffffffe
00000000
00000000
00000000
00000000
ffffffff
00000003
00000005
ffffffff
ffffffff
00000007
00000002
ffffffff
fffffffc
fffffffd
00000002
fffffffb
00000000
fffffffd
00000000
00000001
00000003
fffffffb
00000001
00000002
fffffffe
fffffffc
00000000
ffffffff
ffffffff
fffffffd
00000000
00000000
fffffffe
fffffffd
00000002
00000004
00000003
00000001
fffffffe
00000006
00000008
ffffffff
00000000
00000000
00000002
fffffffe
00000000
00000001
fffffffc
fffffffe
00000001
00000003
00000000
00000002
00000002
00000001
fffffffe
00000003
00000003
fffffffd
00000002
00000000
00000000
00000000
fffffffc
00000001
fffffffe
00000001
00000000
fffffffe
00000002
00000002
fffffffa
00000005
00000002
fffffffd
00000000
fffffffd
ffffffff
fffffffe
fffffffd
00000002
00000000
00000004
fffffffc
fffffffe
fffffffe
00000001
fffffffb
00000000
ffffffff
00000000
00000000
00000002
00000001
00000001
00000003
00000000
ffffffff
00000006
00000002
00000002
00000001
fffffffc
00000000
00000000
fffffffa
00000000
00000002
00000001
00000003
00000005
00000001
00000001
00000000
00000000
fffffffb
00000005
fffffffd
00000004
00000000
00000002
00000002
fffffffe
fffffffe
00000004
00000000
fffffffe
fffffffe
00000002
00000006
00000002
00000000
ffffffff
00000000
00000005
00000000
00000003
fffffffd
fffffffd
00000000
fffffffe
ffffffff
00000000
00000001
fffffffc
00000000
00000000
00000000
00000000
00000001
fffffffe
fffffffc
ffffffff
fffffffc
fffffffe
00000003
00000000
ffffffff
00000000
fffffffc
00000003
00000000
ffffffff
ffffffff
00000000
00000000
00000000
00000000
00000001
00000002
00000000
ffffffff
00000006
00000000
00000003
00000000
fffffffc
00000005
00000000
00000001
00000000
00000000
00000000
00000004
00000002
00000003
00000000
fffffffb
fffffffe
fffffffd
00000000
fffffffd
00000003
00000001
00000000
ffffffff
00000000
00000000
fffffffb
00000001
00000002
fffffffd
00000000
ffffffff
00000002
00000000
00000000
00000003
fffffffe
00000000
fffffffe
00000000
00000000
fffffffe
00000000
00000000
00000001
ffffffff
00000001
00000001
fffffffe
00000001
00000001
00000000
ffffffff
fffffffe
00000001
00000000
00000003
00000000
fffffffb
00000000
00000002
fffffffc
00000001
00000001
00000000
00000000
00000000
00000000
ffffffff
00000001
fffffffe
00000002
00000001
00000000
00000003
00000001
00000000
ffffffff
fffffffd
fffffffe
fffffffe
ffffffff
fffffffa
00000000
fffffffb
00000002
fffffffe
00000001
fffffffb
fffffffe
00000002
ffffffff
fffffffc
00000004
00000001
00000002
00000000
fffffffe
00000000
00000001
00000005
00000003
00000001
00000000
00000001
00000002
ffffffff
ffffffff
00000001
fffffffe
fffffffd
00000001
00000000
00000006
00000002
fffffffa
fffffffa
00000000
00000000
00000004
00000000
00000000
00000000
fffffffe
00000001
ffffffff
fffffff9
00000000
fffffffe
00000000
00000000
00000000
00000001
00000006
fffffffb
00000000
ffffffff
00000000
00000000
ffffffff
00000000
fffffffb
00000003
00000000
ffffffff
00000000
00000000
00000001
fffffffb
00000000
00000001
00000001
00000002
ffffffff
00000000
00000000
00000000
00000000
00000003
00000000
00000000
00000000
ffffffff
00000000
fffffffd
00000001
ffffffff
fffffffe
00000007
fffffffe
00000000
00000002
00000000
00000002
fffffffe
00000002
00000000
fffffffa
00000000
00000000
ffffffff
fffffffe
00000002
00000001
fffffffe
00000000
fffffffe
00000000
00000002
00000000
ffffffff
00000001
00000001
00000004
00000001
ffffffff
00000000
fffffffe
fffffffd
00000000
00000000
00000000
00000002
fffffffe
ffffffff
00000000
fffffffd
00000000
00000000
00000000
fffffffe
fffffffc
00000000
fffffffe
00000009
00000000
00000003
fffffffb
00000000
fffffffe
00000001
00000000
00000001
ffffffff
00000001
fffffffd
00000004
00000000
fffffffc
fffffffd
00000000
00000001
00000000
00000000
fffffffc
00000002
00000000
00000000
00000000
fffffffa
00000002
ffffffff
00000000
00000001
ffffffff
00000004
00000004
fffffffd
fffffff8
00000000
00000001
00000002
00000002
00000000
ffffffff
fffffffd
00000000
00000002
fffffffc
fffffffe
fffffffe
00000000
00000000
ffffffff
ffffffff
00000000
fffffffd
00000003
00000000
fffffffb
00000005
00000002
00000001
00000000
00000000
fffffffd
00000000
fffffffc
00000004
fffffffe
ffffffff
00000000
00000001
00000003
00000002
fffffffe
00000000
00000002
00000000
00000002
fffffffe
fffffffd
ffffffff
ffffffff
00000002
ffffffff
00000000
fffffffe
00000001
00000003
00000000
00000000
fffffffb
fffffffd
ffffffff
00000001
00000004
00000000
fffffffe
fffffffe
fffffffe
00000000
00000002
fffffffe
fffffffd
fffffffc
00000003
fffffffe
00000000
fffffffa
00000002
ffffffff
00000002
fffffffe
ffffffff
fffffffe
00000000
00000004
00000002
00000000
00000000
fffffffe
00000002
00000000
00000001
00000000
00000000
fffffffc
00000004
00000001
00000000
00000001
fffffffc
00000000
ffffffff
00000000
fffffffe
00000002
00000000
00000000
00000001
00000001
ffffffff
00000001
fffffffc
ffffffff
00000001
00000000
00000003
00000000
fffffffa
fffffffe
fffffffd
fffffffc
00000000
ffffffff
ffffffff
fffffffd
00000000
00000001
00000000
ffffffff
ffffffff
00000000
fffffffd
00000006
ffffffff
fffffffe
00000004
00000000
00000004
fffffffe
fffffffd
00000001
fffffffe
00000000
00000004
00000002
00000000
00000000
00000004
00000002
00000001
00000000
00000004
00000000
fffffffe
00000001
00000000
00000000
ffffffff
00000000
00000000
ffffffff
00000000
00000003
fffffffe
00000001
00000000
00000003
fffffffd
00000001
ffffffff
00000003
00000000
00000002
fffffffe
fffffffc
00000003
00000002
00000003
fffffffe
00000000
00000001
fffffffb
fffffffb
fffffffd
fffffffe
00000000
00000000
00000007
ffffffff
fffffffb
00000002
00000002
fffffffd
fffffffd
00000000
fffffffd
00000000
00000001
00000001
00000004
00000000
00000002
00000005
00000003
00000000
00000001
00000003
00000000
00000000
00000004
fffffffd
00000004
00000000
ffffffff
00000002
fffffffa
00000000
00000000
00000000
00000002
00000003
00000001
00000000
00000000
ffffffff
fffffffd
fffffff9
ffffffff
00000001
ffffffff
fffffffc
00000002
00000005
00000004
00000004
00000001
00000000
00000001
00000003
fffffffc
fffffffe
00000000
ffffffff
00000002
ffffffff
fffffffe
00000001
00000000
00000003
fffffffc
00000000
00000001
fffffffa
00000003
00000001
00000000
00000000
00000003
fffffffc
00000002
00000000
00000000
ffffffff
00000000
00000000
00000000
fffffffc
00000002
fffffffa
fffffffc
00000000
ffffffff
fffffffe
fffffffe
fffffff9
fffffffe
00000002
00000000
ffffffff
fffffffb
ffffffff
00000003
00000002
00000003
00000001
fffffffc
fffffffd
00000003
00000001
00000000
00000000
00000005
fffffffe
fffffffc
fffffffb
00000007
fffffffd
00000000
00000003
ffffffff
00000000
fffffffb
fffffff6
00000002
00000001
00000002
00000005
00000006
00000000
00000001
00000000
00000000
fffffffd
00000000
00000002
fffffffd
fffffffd
fffffffe
00000000
00000002
fffffffd
ffffffff
00000004
00000000
00000002
fffffffd
00000004
00000000
fffffffe
00000001
fffffffd
00000001
00000000
00000000
00000000
fffffffe
00000005
fffffffb
fffffffd
00000003
00000002
fffffffb
00000003
00000005
fffffffd
00000007
fffffffd
00000002
00000000
ffffffff
ffffffff
00000003
00000000
fffffffc
00000001
00000001
fffffffe
00000006
ffffffff
ffffffff
fffffffe
00000000
00000000
00000000
00000000
ffffffff
fffffffd
fffffffa
00000001
00000000
00000002
00000000
00000000
fffffffa
fffffffc
fffffff8
fffffffc
00000004
00000000
fffffffc
00000003
00000002
00000000
fffffffb
00000002
fffffff7
ffffffff
fffffffc
00000000
00000000
00000000
00000000
fffffffa
fffffffe
00000002
fffffffb
fffffffe
fffffffe
fffffffa
ffffffff
00000001
00000002
fffffffd
fffffffd
00000005
00000002
fffffffa
fffffffa
fffffffd
ffffffff
00000002
fffffffb
00000001
00000001
fffffffb
fffffffb
00000002
fffffffd
00000000
fffffffb
00000001
00000003
fffffffe
00000001
00000000
00000004
00000000
ffffffff
00000000
fffffffa
00000003
fffffffe
00000001
00000000
00000000
fffffffe
00000000
00000003
fffffffc
00000001
00000000
00000001
00000007
ffffffff
00000000
fffffffd
00000002
00000000
fffffffe
00000002
fffffffe
00000001
00000001
00000000
ffffffff
fffffffc
fffffffa
fffffffe
ffffffff
fffffffc
00000000
00000001
00000000
00000003
fffffffb
fffffffc
00000005
00000000
fffffffd
fffffffe
00000000
00000000
00000005
fffffffd
00000000
00000004
00000000
00000002
00000006
ffffffff
00000000
00000000
00000004
00000000
00000002
00000001
fffffffe
fffffffe
fffffffe
00000001
ffffffff
fffffff9
0000000a
00000008
00000000
fffffffe
00000001
fffffffe
00000001
fffffffd
00000001
fffffff9
fffffffc
ffffffff
ffffffff
fffffffe
fffffffe
00000004
ffffffff
00000000
fffffffc
00000000
ffffffff
00000004
fffffffe
fffffffb
fffffffe
00000000
00000004
00000000
00000002
00000000
00000000
00000006
00000002
fffffffb
fffffffc
00000002
fffffffd
fffffffd
fffffffe
00000000
fffffffe
00000002
00000005
00000005
00000002
fffffffd
ffffffff
00000002
fffffffd
fffffffa
ffffffff
fffffffd
00000000
ffffffff
00000000
fffffffe
00000003
00000006
ffffffff
00000004
0000000c
fffffffe
00000003
00000002
00000000
00000002
00000003
ffffffff
ffffffff
fffffffd
00000000
fffffffe
fffffffc
fffffffa
00000002
00000003
ffffffff
00000002
fffffffb
fffffffe
00000000
00000003
fffffffd
00000004
00000001
00000009
fffffffd
fffffffd
00000002
ffffffff
fffffffc
00000002
00000004
fffffffc
fffffffd
00000000
00000000
00000000
00000008
00000000
00000000
fffffffe
00000000
fffffffd
fffffffd
fffffffd
00000000
fffffffe
fffffff8
00000000
ffffffff
00000004
fffffffe
00000002
00000000
00000000
fffffffd
fffffffc
00000001
fffffffc
00000001
00000002
00000004
00000000
00000001
fffffffe
fffffffb
00000000
00000002
00000001
fffffffd
ffffffff
fffffff6
ffffffff
00000000
ffffffff
fffffffe
00000000
00000002
00000000
00000004
00000000
00000005
ffffffff
00000000
fffffffc
fffffffd
00000004
fffffffd
fffffffc
ffffffff
fffffffe
fffffffe
fffffffe
00000001
fffffffd
00000003
00000000
00000000
fffffffd
00000007
fffffffb
fffffffe
00000000
00000000
00000001
fffffffd
00000001
fffffffa
fffffffb
fffffffc
00000002
fffffffd
ffffffff
fffffff9
00000001
fffffffe
fffffffc
00000000
fffffffc
ffffffff
fffffffd
00000000
00000000
fffffffe
fffffff8
fffffffc
fffffffd
00000000
fffffffe
00000000
ffffffff
00000004
00000000
fffffffd
00000005
00000000
ffffffff
00000002
ffffffff
00000000
00000002
fffffffc
ffffffff
fffffffc
fffffffc
fffffffd
00000003
00000000
fffffffc
00000004
fffffffb
fffffff9
fffffffa
ffffffff
00000000
00000001
00000002
fffffffc
ffffffff
00000000
fffffffe
fffffffd
fffffffe
00000001
00000000
00000001
ffffffff
fffffffe
fffffffd
00000001
ffffffff
ffffffff
00000001
00000004
fffffffa
fffffffc
00000004
00000000
00000000
00000000
fffffffc
00000001
00000005
fffffffe
ffffffff
00000001
fffffffd
fffffffd
00000000
0000000b
fffffffd
00000009
ffffffff
00000001
00000000
ffffffff
00000000
00000000
00000005
00000003
00000001
00000001
00000003
ffffffff
00000003
00000000
00000001
ffffffff
00000000
ffffffff
00000005
00000000
fffffffc
00000001
00000001
fffffffd
fffffffe
fffffffd
00000001
00000001
00000002
00000002
00000000
00000000
00000001
fffffffe
00000003
fffffffe
fffffffb
ffffffff
00000003
fffffffc
00000000
00000003
fffffffe
fffffffd
ffffffff
00000002
00000000
00000001
fffffffe
fffffffd
ffffffff
fffffffd
fffffffe
00000001
ffffffff
fffffffe
00000003
00000002
00000001
00000000
00000000
00000000
fffffffe
00000001
00000000
00000003
00000000
00000000
00000000
00000001
00000000
00000001
00000000
00000000
00000004
00000002
00000001
00000000
00000000
00000001
00000001
00000002
00000002
00000000
ffffffff
fffffffb
00000001
ffffffff
00000003
00000000
00000002
00000000
00000002
fffffffe
ffffffff
ffffffff
00000005
00000001
00000001
ffffffff
00000000
fffffffe
fffffffd
00000003
00000003
00000001
00000001
00000000
fffffffe
fffffffd
fffffffd
00000001
00000001
00000002
fffffffd
fffffffd
00000003
ffffffff
fffffffd
00000002
00000000
00000000
ffffffff
00000002
ffffffff
00000000
00000005
fffffffe
00000000
00000000
ffffffff
00000002
00000001
00000000
00000000
00000001
00000000
00000000
fffffffc
00000000
00000000
fffffffe
00000000
fffffffb
fffffffe
00000003
fffffffb
fffffffc
00000005
ffffffff
00000002
00000003
00000001
ffffffff
ffffffff
00000000
ffffffff
ffffffff
00000002
00000001
00000002
fffffffd
ffffffff
00000000
00000001
fffffffc
fffffffe
ffffffff
00000000
fffffffd
fffffffc
00000001
ffffffff
00000000
00000002
00000000
00000002
00000001
fffffffe
00000000
ffffffff
00000000
00000000
00000000
00000001
00000000
fffffffd
00000001
00000003
00000003
00000000
00000001
fffffffd
00000004
fffffffd
00000003
00000004
fffffffd
00000000
00000000
fffffffd
00000001
fffffffc
00000001
fffffffe
00000003
fffffffe
00000001
00000000
00000000
fffffffd
00000003
00000002
00000000
00000000
00000001
00000005
00000000
00000000
00000000
00000000
00000002
ffffffff
00000001
00000002
00000001
00000001
00000001
ffffffff
fffffffc
fffffffb
00000002
00000000
fffffffe
ffffffff
00000001
fffffffd
00000000
ffffffff
00000001
00000002
00000000
00000002
00000000
00000001
fffffffd
00000000
ffffffff
00000000
00000001
fffffffe
ffffffff
00000002
00000000
00000003
00000000
00000001
00000000
00000000
00000000
00000004
fffffffe
fffffffd
00000000
00000000
00000001
fffffffd
00000000
00000003
fffffffe
fffffffe
00000000
00000002
00000001
ffffffff
ffffffff
00000004
00000000
00000001
00000000
00000000
fffffffc
00000000
00000000
00000000
00000000
00000002
00000000
00000000
fffffffc
00000005
fffffffe
fffffffd
fffffffd
00000002
00000003
00000000
00000000
00000000
00000000
00000002
00000003
fffffffe
00000001
00000001
00000000
fffffffd
00000000
fffffffc
00000000
00000000
00000000
fffffffd
fffffffd
00000000
00000000
00000001
00000000
fffffffd
ffffffff
00000000
ffffffff
00000000
00000003
ffffffff
fffffffd
00000004
00000005
00000002
fffffffe
00000000
00000000
fffffffc
00000000
ffffffff
00000003
ffffffff
00000000
00000000
fffffffe
00000000
00000000
00000001
00000000
00000003
00000000
00000004
00000002
00000003
fffffffd
00000001
00000000
fffffffe
fffffffd
00000000
00000000
fffffffe
ffffffff
00000001
00000004
fffffffd
fffffffd
00000002
ffffffff
00000003
fffffffd
ffffffff
fffffffa
00000000
00000001
00000000
00000001
ffffffff
fffffffd
fffffffc
fffffffe
00000001
00000002
00000002
00000001
fffffffd
ffffffff
fffffffd
00000000
00000000
00000000
00000000
00000003
00000002
00000001
00000003
ffffffff
fffffffe
00000001
00000001
fffffffd
00000000
00000003
fffffffc
00000003
00000002
00000001
00000001
00000003
00000002
00000002
00000002
00000000
00000000
ffffffff
00000002
00000000
00000001
fffffffe
00000000
00000001
00000000
00000000
00000000
00000000
00000000
00000000
00000001
00000001
ffffffff
fffffffe
00000002
00000002
fffffffe
fffffffc
00000000
00000002
00000000
ffffffff
00000003
fffffffe
fffffffe
00000003
00000002
00000003
ffffffff
00000000
00000001
fffffffe
00000002
fffffffe
fffffffc
ffffffff
00000001
00000000
00000002
00000000
fffffffe
fffffffe
00000000
00000001
00000001
ffffffff
fffffffe
00000006
00000000
fffffffe
00000002
00000003
00000002
00000001
fffffffe
00000004
fffffffe
00000003
00000001
00000000
00000000
00000001
fffffffd
fffffffd
00000000
ffffffff
00000000
ffffffff
00000003
ffffffff
00000000
ffffffff
00000000
00000002
00000001
00000000
fffffffd
fffffffc
fffffffb
00000000
ffffffff
00000003
ffffffff
00000002
00000001
ffffffff
00000003
00000001
fffffffe
ffffffff
00000001
00000000
fffffffe
00000003
00000001
00000001
fffffffe
fffffffc
00000002
fffffffd
00000000
00000001
fffffffe
00000004
00000002
00000003
fffffffd
00000001
ffffffff
00000003
fffffffe
00000000
fffffffd
ffffffff
fffffffb
00000000
00000000
fffffffe
fffffffe
00000000
ffffffff
ffffffff
00000003
ffffffff
fffffffa
00000002
ffffffff
00000000
00000003
fffffffd
ffffffff
fffffffd
00000001
ffffffff
fffffffd
00000002
00000000
00000000
fffffffb
00000004
fffffffd
ffffffff
00000000
ffffffff
00000000
ffffffff
00000004
fffffffd
fffffffb
00000006
00000000
00000000
fffffffc
00000001
ffffffff
00000001
00000003
00000000
00000001
fffffffb
00000000
ffffffff
00000002
00000000
fffffffc
ffffffff
00000005
00000000
00000003
00000004
00000003
00000004
00000000
00000003
ffffffff
00000004
00000003
fffffffd
00000002
00000003
00000000
00000000
ffffffff
fffffffd
fffffffa
00000002
00000003
00000000
fffffffd
00000004
00000001
fffffffb
00000000
fffffffc
00000000
00000009
00000003
00000000
00000001
fffffffe
00000005
00000003
ffffffff
fffffffd
fffffffd
ffffffff
00000004
ffffffff
00000003
00000001
fffffffe
ffffffff
ffffffff
00000000
fffffffb
00000001
fffffffe
00000001
00000005
00000002
fffffffe
00000001
00000006
00000001
00000000
fffffff9
00000001
0000000e
00000000
fffffffe
00000000
00000003
fffffffd
00000000
00000000
ffffffff
ffffffff
00000002
00000000
00000000
fffffffc
fffffffd
00000000
fffffffb
ffffffff
00000000
00000001
00000001
fffffffc
00000000
00000004
00000001
00000001
fffffffe
ffffffff
00000000
ffffffff
00000004
ffffffff
ffffffff
fffffffe
00000000
00000000
00000000
fffffffa
ffffffff
fffffffc
ffffffff
00000001
fffffffe
fffffffa
00000003
00000000
00000000
00000000
00000002
ffffffff
00000000
00000000
00000000
00000000
00000002
00000004
00000004
00000000
fffffffb
00000000
fffffffa
00000003
00000002
00000000
00000000
00000000
00000000
00000002
00000000
00000000
ffffffff
00000000
fffffffe
00000000
00000001
00000000
00000000
ffffffff
00000000
00000000
00000000
00000004
fffffffe
ffffffff
00000001
ffffffff
00000002
00000002
fffffffb
fffffffd
ffffffff
00000004
fffffffc
00000000
fffffffe
00000003
fffffffb
fffffffe
fffffffd
00000003
fffffffe
fffffffd
fffffff9
00000007
fffffffd
00000002
00000004
00000000
fffffffe
00000000
fffffffe
00000000
00000003
fffffffe
00000001
00000004
00000003
00000000
fffffffb
00000003
ffffffff
ffffffff
00000000
fffffffb
00000005
00000004
fffffffb
00000006
fffffffd
fffffffd
00000006
ffffffff
00000000
00000000
fffffffb
00000000
00000003
fffffffe
fffffffc
00000000
00000000
00000001
00000004
00000002
ffffffff
ffffffff
fffffffe
fffffffb
00000000
00000001
ffffffff
00000001
fffffffb
00000003
fffffffe
00000000
00000000
00000000
fffffffb
fffffffb
00000004
00000001
00000004
00000005
00000001
00000002
ffffffff
00000002
00000003
00000007
00000001
00000003
00000000
00000003
00000002
00000000
00000000
00000002
00000005
00000001
00000001
00000004
00000002
00000003
00000001
00000003
00000006
fffffffe
00000000
00000000
00000000
00000004
00000000
fffffffd
fffffffe
00000001
00000000
00000002
00000001
00000006
00000001
00000002
00000000
fffffffb
00000004
fffffffd
00000003
00000003
00000005
00000000
ffffffff
fffffffd
00000004
00000000
fffffffe
00000006
00000000
00000001
00000004
00000004
fffffffe
fffffffe
fffffffb
fffffffe
00000001
00000000
00000003
00000000
fffffffc
fffffffd
00000000
fffffffc
00000000
fffffffe
00000000
00000001
fffffffe
ffffffff
00000001
fffffffd
00000002
fffffffc
fffffffe
fffffffc
00000001
00000003
fffffffc
00000000
00000001
00000004
fffffffe
00000002
00000003
fffffffe
00000000
ffffffff
fffffffd
00000001
ffffffff
fffffffe
ffffffff
00000000
00000000
00000000
fffffffe
ffffffff
fffffffc
fffffffc
fffffffd
00000001
00000001
ffffffff
00000004
ffffffff
fffffff9
ffffffff
00000000
00000000
00000000
00000000
fffffff9
00000005
00000004
00000002
fffffffe
00000000
00000006
fffffff7
00000000
fffffffe
ffffffff
fffffffd
fffffffd
00000001
00000003
fffffffd
00000002
00000000
00000002
fffffff8
00000000
00000000
fffffffe
fffffffd
00000003
00000002
ffffffff
00000007
fffffffc
00000003
ffffffff
00000001
ffffffff
fffffffe
ffffffff
ffffffff
ffffffff
00000000
00000006
fffffffb
fffffffe
fffffffd
00000004
00000007
00000001
00000002
fffffffa
00000003
00000001
00000004
00000003
00000000
00000001
00000008
00000001
00000000
00000002
ffffffff
fffffffc
fffffffd
fffffffe
0000000a
00000006
fffffffe
00000000
00000005
00000000
fffffffb
ffffffff
fffffffe
fffffffe
fffffffe
00000004
ffffffff
00000005
00000005
00000000
00000003
00000000
fffffffe
00000000
fffffffc
00000002
fffffffd
00000003
fffffffe
00000004
00000001
fffffffc
00000000
00000000
fffffffe
fffffffd
00000001
fffffffd
00000000
fffffffc
00000000
00000000
00000003
fffffffd
00000000
ffffffff
fffffffc
fffffffb
00000001
00000000
00000000
fffffffc
00000000
00000003
00000004
00000003
fffffffe
fffffffc
00000001
00000000
00000005
00000005
ffffffff
00000002
fffffffe
00000000
00000000
00000003
fffffffd
fffffffe
00000000
00000000
ffffffff
00000001
fffffffd
00000000
00000003
00000000
00000004
00000000
00000005
00000000
00000000
fffffffe
fffffffc
fffffffc
00000001
00000001
ffffffff
fffffffd
fffffffc
fffffffe
ffffffff
fffffffe
fffffffc
fffffffe
00000003
ffffffff
ffffffff
00000002
00000000
00000002
00000001
00000004
00000000
00000001
00000000
00000000
fffffffe
00000001
00000000
ffffffff
fffffffe
00000005
ffffffff
ffffffff
fffffffd
fffffffe
fffffffd
ffffffff
ffffffff
fffffffd
00000000
00000000
00000002
00000000
00000000
ffffffff
fffffffd
fffffffd
00000000
00000001
00000002
fffffffc
00000000
fffffffe
00000002
ffffffff
00000000
fffffffd
00000000
00000003
00000001
00000000
00000005
fffffffb
fffffffe
fffffffc
ffffffff
00000000
00000000
00000003
00000001
00000001
ffffffff
fffffffe
fffffffe
fffffffe
00000001
00000000
fffffffe
00000001
fffffffc
00000003
00000003
00000003
fffffffa
00000002
fffffffe
00000000
fffffffd
00000004
00000001
00000001
00000004
00000000
00000001
00000000
00000000
fffffffd
00000003
00000002
00000000
fffffffd
00000001
fffffffd
00000000
fffffffc
fffffffc
fffffffc
ffffffff
fffffffc
fffffffd
00000000
fffffffd
fffffffe
fffffffe
ffffffff
00000002
ffffffff
00000002
fffffffd
00000001
ffffffff
00000001
00000002
00000002
00000001
00000004
fffffffe
00000000
00000000
fffffffc
00000000
00000000
00000001
ffffffff
ffffffff
00000000
00000000
00000000
fffffffe
00000002
00000001
00000001
fffffffd
00000001
00000001
00000000
00000002
00000004
fffffffd
00000000
00000003
00000000
ffffffff
00000002
fffffffe
fffffffd
00000001
ffffffff
00000003
fffffffe
00000001
fffffffe
00000001
00000000
00000001
fffffffd
00000001
fffffffc
00000005
00000001
fffffffe
00000001
00000000
fffffffc
00000002
fffffffe
00000001
fffffffc
fffffffd
00000000
00000004
00000005
fffffffe
00000000
00000001
ffffffff
00000000
ffffffff
00000003
00000000
ffffffff
ffffffff
00000001
fffffffe
fffffffc
fffffffe
00000003
00000000
00000001
00000001
fffffffd
00000000
ffffffff
00000000
00000000
00000003
00000001
00000003
00000004
00000003
00000000
00000003
00000003
00000001
fffffffd
ffffffff
00000003
00000003
00000001
00000003
ffffffff
fffffffc
fffffffe
00000004
00000000
00000001
fffffffd
fffffffd
00000004
00000000
00000003
ffffffff
00000002
fffffffd
00000000
00000000
00000000
00000002
ffffffff
00000004
ffffffff
fffffffb
00000001
fffffffe
00000001
fffffffe
00000000
ffffffff
00000005
ffffffff
ffffffff
fffffffe
00000000
00000003
00000002
00000004
ffffffff
00000002
fffffffc
fffffffe
00000000
00000001
fffffffe
00000001
fffffffc
fffffffd
00000003
fffffffd
00000002
00000000
00000002
fffffffc
00000000
00000001
ffffffff
ffffffff
00000002
fffffffe
00000003
00000000
00000000
fffffffe
00000000
00000001
ffffffff
00000003
00000005
ffffffff
00000004
00000005
ffffffff
ffffffff
00000002
00000000
00000002
00000003
00000001
00000000
00000005
fffffffe
fffffffe
00000006
ffffffff
00000002
00000000
00000001
00000002
00000001
00000004
00000004
fffffffe
ffffffff
fffffffd
ffffffff
fffffffd
fffffffd
00000004
fffffffc
ffffffff
00000000
fffffffc
00000000
ffffffff
00000003
fffffffd
00000002
00000003
00000001
00000000
00000002
00000002
00000004
ffffffff
fffffffd
00000001
ffffffff
00000002
00000001
00000004
fffffffe
ffffffff
ffffffff
ffffffff
ffffffff
00000001
00000003
00000000
00000000
00000002
00000001
fffffffe
00000003
fffffffd
00000000
00000000
fffffffe
fffffffe
00000000
00000002
00000002
fffffffd
ffffffff
00000003
00000001
00000001
00000000
ffffffff
fffffffe
ffffffff
ffffffff
00000000
00000000
ffffffff
fffffffd
00000000
00000002
00000002
fffffffd
fffffffd
fffffffe
00000004
ffffffff
fffffffd
fffffffe
00000000
00000000
00000000
00000003
fffffffe
00000000
00000002
ffffffff
00000003
00000000
fffffffc
ffffffff
fffffffc
ffffffff
00000000
fffffffe
00000002
fffffffd
00000000
00000004
fffffffe
fffffffd
00000005
00000002
ffffffff
00000003
fffffffe
fffffffe
fffffffe
00000000
ffffffff
00000001
00000003
00000002
00000002
00000004
fffffffc
00000000
ffffffff
00000002
00000004
fffffffc
ffffffff
fffffffc
00000000
00000002
00000000
fffffffe
00000000
00000001
00000003
00000000
fffffffd
00000000
ffffffff
00000000
00000000
fffffffd
00000002
00000002
00000001
ffffffff
00000000
ffffffff
ffffffff
fffffffe
ffffffff
fffffffd
00000000
ffffffff
fffffffc
00000000
00000001
00000000
00000002
fffffffd
ffffffff
00000004
fffffffe
00000000
00000002
fffffffe
00000002
fffffffe
00000003
ffffffff
00000001
00000000
00000001
00000002
00000000
fffffffd
00000003
00000000
00000001
fffffffd
00000005
fffffffd
fffffffd
00000000
00000001
ffffffff
fffffffc
fffffffa
00000002
ffffffff
fffffffd
00000003
00000005
00000000
ffffffff
00000002
00000000
00000000
00000000
00000002
00000005
00000000
00000000
fffffffa
fffffffa
ffffffff
00000001
fffffffb
fffffffd
ffffffff
fffffffd
00000004
00000004
ffffffff
00000002
fffffffd
ffffffff
00000001
0000000a
fffffffc
00000000
00000002
fffffffd
fffffffe
fffffffd
00000000
00000000
00000000
00000005
00000000
00000000
fffffffd
00000000
fffffffe
00000000
ffffffff
00000002
fffffffe
00000000
ffffffff
fffffffb
00000000
fffffffe
00000000
00000002
fffffffd
fffffffe
00000000
00000004
00000002
fffffff9
00000000
00000001
fffffffc
00000001
ffffffff
fffffffe
00000000
fffffffa
fffffffe
ffffffff
00000005
ffffffff
00000000
00000003
fffffffe
0000000c
00000004
ffffffff
fffffffe
fffffffe
00000001
00000000
fffffffd
00000002
00000000
fffffffd
00000009
fffffffd
fffffffc
fffffffc
fffffffb
00000005
fffffffe
fffffffd
fffffffe
fffffffe
ffffffff
ffffffff
fffffffc
00000002
fffffffc
00000006
ffffffff
fffffff5
fffffffd
00000000
00000003
ffffffff
ffffffff
00000001
00000001
ffffffff
fffffffe
fffffffd
00000002
fffffffe
fffffffe
fffffffd
00000000
00000003
fffffffb
ffffffff
fffffffc
fffffffd
fffffff3
00000009
fffffffa
00000001
fffffffb
00000000
00000002
00000001
fffffffb
00000002
00000001
00000000
00000000
00000008
fffffffa
00000002
00000000
ffffffff
fffffffb
fffffffd
fffffffb
fffffff8
00000007
fffffffd
00000001
00000004
00000000
00000002
fffffffd
00000004
00000003
fffffffe
00000000
ffffffff
ffffffff
fffffffd
00000005
fffffffd
00000004
fffffffc
fffffffd
fffffff7
00000000
fffffffe
fffffffc
00000000
ffffffff
00000004
fffffffd
fffffffd
00000000
ffffffff
fffffffa
fffffffa
00000006
00000001
fffffffd
fffffff7
00000004
00000003
fffffffc
fffffffe
00000008
fffffffc
00000001
00000000
fffffffd
ffffffff
0000000a
00000001
fffffffe
ffffffff
00000000
00000000
00000003
00000000
fffffffe
00000000
00000000
00000001
fffffffe
00000000
00000001
00000000
ffffffff
fffffffe
ffffffff
ffffffff
fffffffd
fffffffd
fffffff9
ffffffff
fffffffd
00000000
00000002
fffffffd
00000004
ffffffff
fffffff8
00000004
00000009
00000000
fffffffa
00000003
00000000
00000000
00000000
fffffffd
00000004
fffffffd
00000000
00000000
00000003
fffffffd
00000001
00000003
fffffffc
00000000
fffffff8
fffffffa
ffffffff
ffffffff
ffffffff
fffffffb
fffffffb
00000002
00000000
00000000
00000000
00000001
00000001
00000001
00000004
00000000
00000001
00000004
00000000
fffffffd
00000006
00000000
fffffffd
ffffffff
fffffff8
00000005
fffffffe
fffffffb
00000000
00000002
00000002
fffffffe
00000002
00000001
fffffffe
00000007
00000004
fffffffd
00000000
ffffffff
00000000
00000008
00000000
00000002
00000005
00000003
fffffffd
00000000
00000000
00000001
fffffffd
00000002
00000003
00000002
fffffffe
ffffffff
fffffffc
ffffffff
00000000
00000002
00000008
00000000
00000005
00000001
00000000
00000003
00000000
00000002
00000000
00000002
00000004
00000001
00000000
00000001
00000004
00000000
00000000
fffffffc
fffffffc
00000005
00000005
00000007
fffffffe
00000001
fffffff9
fffffffe
ffffffff
00000000
00000000
fffffffd
00000001
fffffffd
00000000
fffffffe
00000005
00000007
fffffffe
00000000
00000001
00000000
00000000
fffffffd
fffffffe
00000006
00000000
00000003
00000000
fffffffb
00000006
fffffffe
00000001
00000004
00000000
fffffffe
00000002
00000000
00000002
00000007
00000000
ffffffff
ffffffff
00000001
00000002
ffffffff
00000000
00000000
00000003
00000002
00000000
fffffffb
00000001
00000001
ffffffff
ffffffff
00000004
00000005
00000006
00000001
00000001
fffffffd
00000002
fffffffe
00000000
00000000
00000009
00000000
fffffffd
fffffffc
00000005
00000006
00000000
00000004
fffffffb
fffffffd
00000002
fffffffd
00000000
00000005
00000001
00000006
00000002
00000002
ffffffff
ffffffff
0000000a
fffffff7
fffffff9
00000001
00000000
fffffffa
fffffffb
ffffffff
00000002
00000000
fffffffd
00000005
0000000c
fffffffe
00000003
ffffffff
00000002
ffffffff
00000000
00000005
00000001
00000002
fffffffd
00000000
00000002
fffffffd
ffffffff
fffffff5
fffffff7
00000001
fffffffd
00000002
00000000
fffffffe
00000001
00000000
fffffffd
00000000
ffffffff
fffffff4
00000001
fffffffd
00000002
00000000
fffffffd
00000000
fffffffb
00000002
fffffffc
00000004
fffffffd
fffffffb
ffffffff
00000001
ffffffff
00000002
00000001
00000000
00000002
00000004
00000000
fffffffe
fffffffc
00000001
00000000
fffffffe
fffffffe
fffffff5
00000001
00000000
ffffffff
ffffffff
00000001
fffffff8
fffffffe
00000002
ffffffff
00000000
00000000
00000007
fffffffd
00000004
00000001
00000003
00000000
00000001
fffffffe
fffffffd
00000001
00000000
00000004
fffffffc
00000001
00000000
00000004
ffffffff
00000000
ffffffff
00000002
fffffffc
00000003
00000000
00000002
00000000
00000005
00000001
fffffffd
00000000
fffffffe
00000002
00000000
00000001
00000002
00000000
fffffffd
00000001
00000002
ffffffff
00000000
00000000
00000000
00000000
00000000
00000000
ffffffff
ffffffff
00000000
00000001
fffffffe
00000002
00000000
ffffffff
00000000
00000000
ffffffff
00000001
00000003
fffffffe
fffffffb
00000001
00000002
00000001
00000000
00000000
fffffffe
00000000
00000001
ffffffff
fffffffe
00000001
ffffffff
ffffffff
00000001
00000001
00000000
00000001
00000001
00000000
00000002
00000007
00000001
fffffffd
00000001
ffffffff
ffffffff
00000000
00000001
00000000
fffffffe
00000001
ffffffff
ffffffff
00000001
00000002
ffffffff
00000001
00000001
fffffffd
00000002
ffffffff
00000004
fffffffb
00000001
00000002
00000003
00000000
00000000
00000001
ffffffff
fffffffc
00000000
00000001
ffffffff
00000005
ffffffff
ffffffff
00000000
00000003
ffffffff
00000002
00000000
00000004
ffffffff
00000000
ffffffff
00000000
00000003
00000001
00000000
00000000
ffffffff
fffffffd
00000003
ffffffff
ffffffff
00000000
fffffffe
00000002
ffffffff
00000001
00000000
fffffffe
00000001
ffffffff
ffffffff
00000001
ffffffff
00000000
fffffffe
00000000
00000002
00000000
00000001
fffffffe
00000000
00000003
ffffffff
ffffffff
00000001
00000001
00000001
00000000
fffffffb
00000000
ffffffff
00000001
00000002
00000002
ffffffff
00000000
fffffffd
fffffffe
fffffffe
00000002
00000000
ffffffff
00000000
fffffffe
00000003
00000000
00000000
00000003
00000001
00000000
00000000
00000003
00000000
fffffffc
ffffffff
fffffffd
00000003
00000000
fffffffe
fffffffe
ffffffff
00000000
00000003
ffffffff
fffffffb
00000000
00000001
fffffffd
00000002
ffffffff
00000001
00000000
ffffffff
00000004
fffffffe
00000000
00000000
00000005
00000001
00000002
00000000
00000000
00000002
ffffffff
ffffffff
00000004
00000000
fffffffc
00000000
fffffffe
00000002
ffffffff
fffffffc
00000002
00000002
fffffffb
00000000
00000000
00000000
ffffffff
00000000
ffffffff
fffffffd
00000000
00000000
ffffffff
00000000
00000000
00000000
00000001
fffffffe
00000000
00000002
00000000
00000000
00000002
00000003
00000002
fffffffe
00000004
00000000
fffffffc
00000001
ffffffff
ffffffff
fffffffe
00000000
00000004
00000000
fffffffe
ffffffff
00000001
fffffffd
00000001
fffffffd
00000003
00000000
fffffffe
fffffffb
00000000
00000005
00000000
ffffffff
00000000
00000000
00000002
00000002
00000000
00000001
00000002
00000000
00000001
00000000
00000001
ffffffff
00000003
00000002
00000000
ffffffff
00000001
00000000
00000000
00000001
ffffffff
00000000
ffffffff
ffffffff
00000001
fffffffc
00000000
00000000
00000000
ffffffff
fffffffe
00000003
fffffffb
ffffffff
00000001
fffffffc
ffffffff
00000004
00000001
fffffffd
fffffffe
00000000
00000000
00000000
00000000
fffffffe
00000000
fffffffd
00000000
00000000
00000002
00000002
ffffffff
00000003
00000000
00000004
ffffffff
ffffffff
00000000
00000000
00000000
00000001
00000001
00000000
00000000
00000000
00000000
00000003
fffffffb
00000000
00000004
00000000
fffffffe
00000000
fffffffc
fffffffe
00000002
00000003
00000001
00000000
00000000
00000000
00000003
00000000
00000000
00000000
00000001
00000000
00000002
ffffffff
fffffffe
fffffffe
00000000
00000004
fffffffd
00000000
00000000
00000000
ffffffff
ffffffff
00000002
00000000
00000000
00000003
00000001
00000001
fffffffa
00000000
00000001
00000001
fffffffe
fffffffd
00000000
fffffffb
ffffffff
00000002
00000000
ffffffff
00000000
00000000
ffffffff
ffffffff
fffffffd
00000001
00000001
ffffffff
00000002
00000001
00000000
00000000
ffffffff
00000002
00000002
00000001
fffffffe
00000002
00000000
00000000
00000000
00000000
00000001
00000004
00000000
ffffffff
fffffffc
fffffffe
00000000
00000000
00000002
00000003
fffffffe
00000002
00000000
ffffffff
00000000
00000000
00000000
fffffffe
ffffffff
00000001
00000000
00000001
fffffffe
00000000
00000000
00000001
00000003
ffffffff
00000003
ffffffff
00000002
00000001
00000000
fffffffa
00000002
00000005
00000003
00000000
fffffffd
fffffffd
fffffffe
00000000
fffffffe
ffffffff
ffffffff
00000003
00000000
00000000
fffffffb
ffffffff
00000000
00000001
fffffffe
00000001
00000000
00000000
00000002
00000001
ffffffff
ffffffff
ffffffff
00000001
fffffffe
00000004
00000005
00000000
00000001
fffffffe
00000002
00000000
00000002
00000000
00000002
ffffffff
00000001
00000000
00000000
00000002
00000001
00000000
00000000
fffffffd
ffffffff
00000004
ffffffff
ffffffff
00000001
00000002
ffffffff
00000003
fffffffe
fffffffd
00000002
00000001
00000000
00000000
00000000
ffffffff
00000001
fffffffe
fffffffd
fffffffc
00000001
00000001
00000000
00000002
00000001
00000001
00000000
00000000
00000000
00000000
00000004
00000000
fffffffe
00000002
fffffffa
00000004
ffffffff
00000002
00000002
00000003
00000007
00000001
00000000
00000000
00000000
00000000
00000000
00000001
fffffff8
00000000
00000000
fffffffe
00000003
ffffffff
00000004
00000002
fffffffe
fffffffc
00000000
fffffffd
00000000
fffffffc
00000001
00000003
fffffffe
00000001
fffffffd
00000000
00000002
00000000
fffffffa
00000001
00000000
00000000
00000000
fffffffd
00000000
00000000
00000000
fffffffe
fffffffc
fffffffc
00000000
00000000
fffffff7
00000004
00000000
00000007
00000001
00000003
00000001
00000000
00000000
00000000
fffffffe
00000000
00000001
00000001
fffffffe
00000003
00000000
00000000
fffffffb
00000001
00000002
00000000
fffffff8
fffffff9
00000004
00000000
00000000
fffffffd
fffffffd
fffffffc
fffffff9
fffffffd
00000002
00000002
00000004
00000001
00000000
00000000
fffffffe
fffffffe
00000001
00000001
fffffffb
00000000
00000001
fffffffb
00000004
fffffffe
00000000
00000001
00000002
fffffffe
00000002
ffffffff
00000001
00000001
00000000
00000001
fffffffc
ffffffff
00000001
ffffffff
00000002
fffffffe
00000001
00000000
00000000
00000003
00000002
00000000
00000000
00000004
00000000
fffffffe
fffffffe
fffffffd
00000000
00000003
00000000
00000004
00000000
fffffffc
00000001
fffffffb
00000001
00000000
00000000
fffffffe
ffffffff
00000001
fffffffc
fffffffd
fffffffe
00000000
00000002
00000004
00000001
00000000
00000002
fffffffe
00000000
fffffffe
00000001
00000002
00000000
00000005
00000003
00000006
00000000
ffffffff
fffffffe
00000000
fffffffe
ffffffff
00000001
00000003
00000003
00000002
fffffffe
00000003
00000000
00000000
00000002
fffffffc
ffffffff
00000004
00000000
fffffffc
00000000
00000000
00000001
00000000
00000000
fffffffe
fffffffe
fffffffe
fffffffe
fffffffa
fffffffe
00000000
ffffffff
00000002
fffffffd
00000001
00000002
ffffffff
00000002
ffffffff
00000000
fffffffe
ffffffff
00000000
00000001
fffffffd
00000001
fffffffd
00000000
ffffffff
00000003
00000001
00000001
00000002
00000000
fffffffb
00000003
00000002
00000000
fffffffd
00000000
fffffffc
fffffffe
00000001
00000000
00000000
fffffffe
00000003
00000000
ffffffff
00000003
fffffffe
00000000
fffffffd
fffffffd
00000002
00000000
ffffffff
00000002
fffffffe
00000002
fffffffd
00000000
00000004
00000002
00000002
0000000d
00000002
00000003
00000001
fffffffa
00000001
fffffffd
00000000
00000001
ffffffff
00000002
fffffffc
fffffffd
00000001
00000001
00000001
00000003
00000000
ffffffff
fffffffe
ffffffff
ffffffff
fffffffe
ffffffff
fffffffc
fffffffd
fffffffd
fffffffe
00000000
00000000
ffffffff
00000003
00000004
fffffffb
fffffffb
fffffffd
00000000
00000000
00000001
00000001
00000005
00000002
00000000
ffffffff
fffffffe
00000002
00000000
fffffffe
ffffffff
fffffffd
00000001
00000002
00000005
00000002
00000000
00000000
fffffffc
fffffffe
fffffffc
00000002
00000003
00000007
00000000
00000004
fffffffe
00000001
fffffffe
ffffffff
fffffffe
00000002
00000001
fffffffe
00000000
00000001
00000000
fffffffe
ffffffff
ffffffff
ffffffff
00000003
ffffffff
00000001
00000003
00000000
00000001
00000003
00000004
ffffffff
00000000
fffffffe
fffffffc
00000002
00000000
fffffffd
00000000
00000005
fffffffa
00000001
00000000
ffffffff
00000000
00000000
fffffffd
fffffffe
00000001
ffffffff
00000003
00000000
00000001
fffffffd
00000000
fffffffe
00000003
ffffffff
00000002
fffffffc
00000006
00000000
00000003
fffffffd
00000004
fffffff9
ffffffff
00000002
00000001
00000000
00000003
00000001
00000000
ffffffff
00000002
00000000
00000004
00000000
00000003
00000000
00000002
ffffffff
fffffffe
fffffffb
fffffffb
00000002
fffffff8
fffffffb
00000000
00000000
ffffffff
00000000
ffffffff
00000000
fffffffd
fffffffb
fffffffb
ffffffff
fffffffc
00000001
00000000
fffffffe
00000002
fffffffd
00000003
00000002
fffffffb
00000000
00000003
00000004
fffffffe
00000003
00000003
00000002
ffffffff
00000000
00000002
fffffffc
00000000
00000001
fffffffd
00000000
00000000
00000000
00000000
00000004
00000003
00000000
00000003
00000002
00000000
ffffffff
00000003
00000002
fffffffa
fffffffc
00000000
00000001
00000000
fffffffd
fffffffe
00000002
00000002
00000000
fffffffa
00000000
00000002
00000003
00000006
00000000
fffffffb
ffffffff
00000000
fffffffe
00000001
00000001
00000003
00000000
00000002
00000003
00000000
ffffffff
ffffffff
fffffffc
00000006
00000002
fffffffd
00000005
00000000
00000001
ffffffff
fffffffc
00000002
00000004
fffffffb
fffffff8
00000003
fffffffc
00000003
00000004
00000004
00000000
fffffffe
00000004
00000000
ffffffff
00000000
00000005
00000000
00000003
00000002
00000000
ffffffff
00000004
fffffffe
00000000
00000003
00000001
00000005
fffffffe
ffffffff
00000002
fffffffd
fffffffd
00000002
fffffff9
fffffffd
00000001
00000002
00000000
ffffffff
fffffff7
00000000
00000000
00000004
00000000
00000000
fffffffb
00000000
00000002
fffffffc
fffffff9
00000003
fffffffd
fffffffa
fffffffc
fffffffa
ffffffff
00000004
00000001
fffffffc
ffffffff
00000000
00000000
00000003
00000004
00000000
00000000
fffffffe
fffffffe
fffffffd
fffffffe
00000002
fffffffb
fffffffd
00000000
00000007
00000000
fffffffe
fffffffc
00000000
00000000
00000000
00000005
fffffffc
00000000
00000001
fffffffb
ffffffff
00000006
fffffffd
00000003
00000000
fffffffe
fffffff8
00000002
0000000d
fffffffd
00000000
00000000
fffffffe
00000001
fffffff6
fffffffe
fffffff9
ffffffff
fffffffc
fffffffe
00000000
fffffffd
00000002
00000001
ffffffff
0000000a
00000000
0000000a
00000000
ffffffff
00000002
00000000
fffffffd
fffffffa
fffffffb
fffffffc
00000000
00000003
00000006
fffffffe
fffffffe
fffffffa
00000000
00000007
00000004
00000000
fffffffe
00000001
fffffff7
00000000
fffffffb
ffffffff
00000005
fffffffe
00000002
00000006
fffffffe
00000006
00000007
fffffffe
00000000
fffffffd
00000003
00000000
fffffffb
00000003
00000000
00000002
00000000
00000001
ffffffff
fffffff9
00000003
fffffffb
00000001
ffffffff
00000000
fffffffb
fffffff4
00000004
fffffff7
00000006
ffffffff
00000003
fffffffa
00000003
00000000
0000000a
00000004
00000000
fffffffd
fffffffc
fffffffe
00000003
00000006
fffffffa
00000007
fffffffd
00000003
00000001
00000000
00000002
fffffffd
ffffffff
fffffffd
fffffffa
00000002
fffffffc
00000003
fffffffc
fffffffc
ffffffff
00000000
00000002
00000004
ffffffff
00000001
fffffffb
00000000
00000001
fffffffe
00000000
fffffffb
fffffffa
00000000
00000000
00000000
00000000
fffffff9
fffffffe
ffffffff
fffffffe
00000003
00000002
00000000
00000000
00000000
00000001
fffffffc
fffffff5
00000005
00000000
00000000
fffffffe
ffffffff
00000000
ffffffff
00000001
00000003
00000000
00000002
00000001
00000001
fffffffe
00000001
fffffffd
00000001
ffffffff
00000000
00000000
fffffffc
00000002
ffffffff
fffffffa
00000002
00000006
00000002
fffffffc
00000002
00000000
00000008
00000003
fffffffe
ffffffff
00000000
fffffffd
fffffffe
00000002
fffffffd
00000000
00000002
fffffffe
fffffffd
fffffffb
fffffffa
fffffffe
0000000a
fffffff9
ffffffff
00000000
fffffffe
00000004
00000003
00000008
fffffff8
00000004
fffffffd
00000001
00000002
00000000
fffffffd
00000000
00000000
fffffffe
fffffffe
fffffffa
fffffffb
00000002
fffffff7
00000004
fffffffc
ffffffff
0000000c
fffffffb
00000001
fffffffe
fffffff9
fffffffe
fffffffd
00000001
fffffffc
00000002
00000000
fffffffe
00000011
fffffffa
00000005
00000004
00000003
00000000
00000006
00000000
00000004
ffffffff
00000002
00000000
00000000
00000000
00000002
fffffff8
00000000
00000000
00000001
fffffff8
00000002
00000000
00000007
00000007
00000002
fffffffe
00000001
00000002
00000001
fffffffe
00000000
ffffffff
00000002
00000000
00000000
00000000
00000002
00000000
fffffffc
00000002
00000000
00000007
fffffffe
00000000
00000005
fffffffe
00000001
00000001
00000002
00000005
00000000
00000000
00000003
fffffffb
fffffffd
00000003
fffffffe
fffffffa
00000008
fffffffa
fffffffe
fffffffc
00000000
0000000e
fffffffe
00000003
0000000a
00000006
00000000
00000000
00000006
ffffffff
fffffffd
fffffff5
00000000
00000006
00000004
fffffffa
ffffffff
00000005
00000000
00000001
ffffffff
00000005
00000002
00000000
fffffffd
ffffffff
ffffffff
00000000
00000002
00000001
fffffffc
fffffffa
00000002
00000002
00000001
00000000
ffffffff
fffffffe
00000000
fffffffb
ffffffff
00000004
00000001
0000000b
ffffffff
00000003
ffffffff
ffffffff
fffffffe
00000002
00000003
00000004
00000000
00000003
00000005
00000002
00000001
00000000
fffffffc
fffffffe
00000000
0000000b
00000004
00000002
00000000
fffffffc
fffffffc
00000004
00000006
ffffffff
fffffff8
fffffffd
00000000
00000002
fffffffe
fffffffc
ffffffff
00000006
ffffffff
fffffffd
00000001
fffffffd
fffffff9
00000000
00000000
00000007
fffffffc
fffffffa
00000004
fffffffc
fffffffc
00000000
fffffffc
00000000
fffffffe
ffffffff
00000000
fffffffe
00000000
00000000
ffffffff
00000000
fffffffe
00000008
00000000
00000000
00000003
00000008
00000006
ffffffff
00000001
00000006
fffffffe
ffffffff
00000005
00000005
00000000
ffffffff
fffffffd
ffffffff
00000003
00000000
fffffff9
00000000
00000001
00000004
fffffffa
fffffffb
00000003
00000001
ffffffff
fffffffb
fffffffd
00000001
00000008
ffffffff
00000004
fffffffe
00000004
00000003
00000009
fffffffa
00000007
00000000
fffffffe
ffffffff
00000005
00000006
00000000
00000007
ffffffff
ffffffff
fffffffc
00000000
fffffffe
00000003
00000004
00000000
fffffff6
00000000
00000000
0000000c
00000001
fffffff9
00000002
fffffffb
00000000
fffffffb
00000000
fffffffc
00000006
fffffffe
00000001
00000002
00000005
fffffffe
00000004
00000000
00000009
fffffffa
fffffffa
00000001
00000001
fffffffd
00000003
00000002
00000004
00000004
00000000
00000004
fffffffe
00000000
fffffffc
ffffffff
00000000
00000003
fffffffe
00000001
00000003
00000000
00000000
00000001
00000005
00000002
00000000
00000000
00000002
fffffffd
fffffffc
00000001
fffffffe
fffffffd
fffffff9
00000002
ffffffff
ffffffff
ffffffff
fffffffc
ffffffff
00000000
fffffffb
00000001
fffffffb
00000000
00000001
00000000
fffffffd
00000000
00000003
00000001
ffffffff
00000004
ffffffff
00000001
00000001
00000003
00000003
00000000
ffffffff
ffffffff
fffffffc
ffffffff
fffffffd
00000000
fffffffa
ffffffff
fffffffd
00000000
fffffffe
00000000
ffffffff
ffffffff
ffffffff
fffffffe
fffffffe
00000001
00000000
fffffffe
fffffffe
fffffffe
fffffff6
00000002
00000002
00000002
00000002
00000002
fffffff9
00000001
ffffffff
fffffffb
ffffffff
fffffffc
fffffffc
00000001
00000008
fffffffd
00000005
fffffffc
00000000
fffffffe
00000001
ffffffff
ffffffff
ffffffff
fffffffd
00000006
00000001
00000000
ffffffff
00000000
00000000
00000000
00000000
00000000
00000001
00000000
00000000
fffffffd
fffffffd
fffffffa
ffffffff
00000004
00000001
00000003
fffffffe
ffffffff
ffffffff
00000000
ffffffff
00000002
00000000
00000000
fffffffc
fffffffe
00000004
00000000
00000000
ffffffff
ffffffff
ffffffff
00000000
00000001
00000001
00000001
00000002
ffffffff
fffffffc
fffffffd
ffffffff
ffffffff
00000000
00000004
00000001
00000000
00000002
00000000
ffffffff
fffffffe
00000000
00000001
00000000
ffffffff
fffffffd
00000002
fffffffe
00000000
00000000
00000000
fffffffd
00000000
00000002
00000002
fffffffd
00000000
fffffffd
ffffffff
00000001
00000002
00000000
00000002
00000000
fffffffe
00000003
fffffffa
00000002
00000001
00000002
fffffffb
00000000
fffffffe
00000000
ffffffff
00000002
00000000
00000004
ffffffff
00000002
fffffffe
00000001
00000004
fffffffd
ffffffff
fffffffb
fffffffe
00000000
00000002
00000005
00000001
ffffffff
00000001
00000000
00000001
fffffffd
00000001
00000000
00000002
fffffffc
00000000
00000001
fffffffc
00000000
00000002
00000006
00000000
fffffffd
00000002
00000002
00000002
00000002
00000002
fffffffe
ffffffff
00000001
00000000
fffffffc
00000002
00000000
00000002
00000002
00000000
00000002
00000002
ffffffff
00000001
00000000
00000000
00000000
ffffffff
fffffffc
00000000
fffffffd
00000001
fffffffa
fffffffe
00000001
00000000
fffffffa
00000001
ffffffff
00000003
00000000
00000005
00000000
fffffffe
00000004
00000001
fffffffa
fffffffe
fffffffd
00000001
00000000
fffffffd
ffffffff
fffffffc
00000000
00000002
00000004
00000004
ffffffff
00000001
00000000
fffffffe
ffffffff
00000001
ffffffff
00000003
00000003
00000000
fffffffe
fffffffd
ffffffff
fffffffe
00000002
00000000
00000004
00000000
00000007
fffffffd
fffffffe
fffffffe
ffffffff
00000001
00000003
00000001
fffffffe
00000000
00000003
ffffffff
fffffffd
00000000
00000000
00000000
00000002
fffffffe
00000001
fffffffd
00000000
fffffffd
00000000
fffffffe
00000000
00000000
fffffffe
ffffffff
fffffffb
00000000
00000000
00000001
00000001
fffffffb
00000001
fffffffb
00000002
00000001
00000000
00000004
fffffffe
ffffffff
fffffff9
00000001
00000000
00000006
ffffffff
fffffffe
fffffffd
fffffffd
00000000
00000003
00000003
00000001
00000002
fffffffc
fffffffd
ffffffff
00000001
fffffffe
00000000
fffffffc
fffffffe
00000001
fffffff9
fffffffe
00000000
ffffffff
00000008
fffffffe
00000000
00000000
00000000
00000003
00000007
fffffffe
00000003
00000000
00000005
00000002
fffffffe
00000000
00000000
00000000
00000000
fffffffd
00000003
00000000
00000001
fffffffe
00000000
00000003
ffffffff
ffffffff
fffffffe
00000003
fffffffd
00000000
00000000
fffffffb
fffffff9
ffffffff
00000001
fffffffe
fffffffd
00000000
00000000
fffffffe
00000000
fffffffe
00000004
00000000
fffffffd
00000002
00000003
fffffffc
00000003
fffffffc
00000002
00000003
00000000
ffffffff
00000003
00000000
00000001
00000002
00000000
ffffffff
00000009
00000003
00000001
ffffffff
00000000
00000001
00000004
00000006
00000000
00000000
00000000
00000000
00000001
ffffffff
fffffffe
00000000
ffffffff
00000001
00000002
00000000
00000005
00000004
00000003
fffffffd
00000002
ffffffff
fffffffe
ffffffff
00000001
00000004
ffffffff
fffffffb
00000006
00000000
00000001
ffffffff
ffffffff
00000001
fffffffe
ffffffff
00000000
fffffffd
fffffffe
fffffffc
fffffffd
00000001
ffffffff
00000000
fffffffd
fffffffb
fffffffe
fffffffe
00000005
00000000
00000001
00000000
fffffffe
00000002
00000000
00000004
fffffffc
00000000
fffffffe
00000000
ffffffff
00000005
00000001
00000006
ffffffff
fffffffc
00000000
00000000
00000000
ffffffff
00000000
fffffffd
ffffffff
fffffffe
00000000
00000002
00000002
00000000
fffffffe
00000000
ffffffff
ffffffff
fffffffe
00000003
ffffffff
ffffffff
00000000
00000000
00000002
00000000
fffffffe
00000001
00000001
00000007
00000000
fffffffb
00000000
fffffffd
ffffffff
00000004
fffffffb
00000002
00000002
00000003
00000004
fffffffe
00000000
00000001
00000004
00000000
fffffffd
fffffffb
fffffff9
00000004
fffffffc
00000004
ffffffff
fffffffd
00000000
00000005
00000005
fffffffe
00000001
00000003
ffffffff
00000002
00000007
ffffffff
00000001
00000001
00000000
00000002
fffffffd
00000000
00000002
fffffffc
00000001
fffffffc
fffffffe
fffffffe
00000005
00000000
fffffffd
ffffffff
fffffff7
ffffffff
00000000
00000001
fffffffd
00000002
ffffffff
ffffffff
fffffff9
00000002
00000000
fffffffd
00000003
00000002
fffffffc
00000000
00000000
fffffffe
00000004
fffffffe
fffffffd
fffffffb
00000003
ffffffff
00000001
00000000
00000000
ffffffff
00000005
fffffff9
fffffffb
ffffffff
fffffffd
fffffffd
00000001
00000001
00000000
fffffffe
fffffffb
00000005
00000002
00000000
00000000
00000000
00000006
00000001
fffffffe
00000003
00000003
ffffffff
fffffffe
ffffffff
00000003
00000000
00000001
00000007
00000000
fffffffe
fffffffc
fffffffc
fffffff9
00000000
00000008
00000002
00000003
00000003
00000003
00000001
fffffffd
ffffffff
00000006
00000007
00000000
fffffffd
ffffffff
00000008
fffffffd
00000000
00000004
00000005
00000001
fffffffb
00000002
fffffffb
00000003
fffffffc
ffffffff
ffffffff
00000000
00000002
ffffffff
00000005
fffffffe
00000000
00000000
ffffffff
00000005
00000002
ffffffff
ffffffff
00000000
ffffffff
fffffffd
00000001
00000000
00000001
00000002
00000000
00000001
00000004
00000001
00000000
00000004
00000002
00000000
00000000
00000002
fffffffd
fffffffb
ffffffff
00000007
fffffffe
ffffffff
00000007
00000000
00000000
fffffffe
00000001
00000004
0000000a
00000003
00000000
fffffffb
ffffffff
00000007
fffffffe
fffffffd
00000003
fffffffe
fffffffe
00000005
fffffffd
00000003
00000001
fffffffe
ffffffff
00000001
00000001
fffffffc
ffffffff
fffffffe
00000002
00000002
00000000
fffffffe
00000004
00000000
00000005
00000001
00000003
fffffffd
00000003
00000001
fffffffe
fffffffd
00000000
00000000
00000007
00000000
00000000
fffffffe
fffffffe
ffffffff
00000000
00000000
fffffffe
00000002
fffffffb
00000006
00000002
ffffffff
fffffffd
00000000
fffffffd
ffffffff
0000000b
00000003
00000001
00000004
fffffff7
00000003
00000000
00000005
fffffffb
ffffffff
fffffffa
00000004
ffffffff
00000003
00000000
fffffff7
00000001
fffffffe
00000002
fffffffb
ffffffff
00000005
fffffff7
fffffffc
ffffffff
00000003
fffffffb
fffffffa
fffffffe
00000002
fffffffd
00000000
00000001
fffffffd
00000002
fffffffc
ffffffff
ffffffff
00000002
00000002
00000002
00000005
fffffffe
00000000
00000000
fffffffe
00000000
00000002
fffffffd
00000000
00000000
00000004
ffffffff
00000000
fffffffb
00000001
00000003
ffffffff
00000000
00000001
00000002
00000005
00000003
00000000
00000000
fffffffc
00000000
ffffffff
00000000
00000003
fffffffd
00000001
00000000
fffffffa
fffffffc
fffffffe
00000005
fffffffc
fffffffc
ffffffff
00000001
00000004
fffffffc
fffffffe
00000003
00000003
00000000
00000000
fffffffe
fffffffc
00000000
fffffffb
00000004
00000002
00000000
00000000
fffffffa
00000003
ffffffff
fffffff6
fffffffe
00000000
00000000
00000002
00000008
00000004
ffffffff
00000000
00000000
00000000
00000003
ffffffff
fffffff9
fffffffe
fffffffd
00000000
00000003
00000006
00000002
00000003
fffffffc
00000001
00000000
00000002
ffffffff
00000001
fffffffd
00000000
ffffffff
00000000
00000000
fffffffe
fffffffc
fffffffe
00000001
00000000
00000004
fffffff8
ffffffff
00000003
fffffffe
00000002
fffffffe
fffffffd
ffffffff
00000000
00000000
ffffffff
00000000
00000002
fffffff7
00000009
00000001
00000003
00000000
ffffffff
fffffffd
00000002
fffffffc
00000000
00000000
00000001
00000002
fffffffd
00000000
00000009
00000000
fffffffb
00000000
fffffffa
fffffffb
fffffffe
fffffffc
ffffffff
00000000
fffffff9
00000000
fffffffd
fffffff7
fffffffb
fffffffc
00000006
fffffffa
00000003
ffffffff
00000000
00000003
00000002
00000004
00000000
fffffff8
00000004
00000002
00000001
00000001
ffffffff
00000004
fffffffb
00000001
fffffffb
00000005
fffffffa
fffffffd
00000004
00000003
ffffffff
00000000
fffffffe
00000000
00000001
ffffffff
fffffffe
fffffffa
fffffffa
fffffffe
ffffffff
00000000
fffffffe
00000000
fffffffc
00000000
fffffffe
00000000
00000004
fffffffc
fffffff8
fffffffc
fffffffa
fffffffd
ffffffff
00000003
00000004
fffffffc
00000003
fffffffb
00000000
00000002
fffffffb
0000000a
00000007
00000000
00000000
00000001
fffffffc
00000003
fffffffb
fffffffe
00000001
00000002
fffffff9
00000000
00000000
fffffffe
00000001
00000000
fffffffe
00000005
fffffffb
fffffffe
00000001
ffffffff
fffffffd
fffffffc
fffffff6
ffffffff
00000000
00000007
fffffffe
00000002
00000002
ffffffff
00000001
00000001
ffffffff
00000000
00000002
ffffffff
fffffffe
ffffffff
00000000
fffffffe
00000005
00000000
fffffff8
00000000
00000005
fffffffe
fffffffb
00000000
fffffffc
00000006
00000006
00000001
ffffffff
fffffffc
fffffffe
fffffff8
00000001
00000001
ffffffff
00000000
ffffffff
00000000
00000003
00000002
fffffffc
00000000
fffffff7
00000001
00000004
00000000
00000002
fffffffe
ffffffff
fffffffc
00000001
00000002
00000004
00000004
fffffffc
00000000
00000000
fffffffc
00000001
00000000
00000002
00000000
fffffff8
00000002
ffffffff
00000008
fffffffd
00000002
00000002
fffffffc
00000001
fffffffd
00000002
fffffffc
00000003
0000000a
00000002
ffffffff
00000002
fffffffe
00000000
00000000
00000003
fffffffe
00000001
00000001
ffffffff
fffffffc
ffffffff
ffffffff
00000004
fffffffd
fffffffa
00000001
fffffffc
ffffffff
fffffffd
fffffffe
00000001
fffffffd
00000000
00000000
fffffffb
fffffffb
fffffffc
00000004
00000003
00000004
00000001
00000001
fffffffd
00000003
00000000
00000001
00000004
00000002
00000000
ffffffff
00000001
fffffffe
fffffffe
fffffffc
00000003
00000000
ffffffff
00000000
fffffffa
00000000
00000000
00000001
00000000
fffffffe
fffffffa
00000000
00000001
00000000
00000000
fffffffd
00000003
fffffffb
00000000
00000004
00000000
fffffffe
00000008
ffffffff
ffffffff
00000002
00000002
00000000
fffffffe
00000003
fffffffe
ffffffff
fffffffe
00000004
00000005
fffffffe
fffffff4
00000000
00000002
00000000
00000001
00000003
00000001
0000000a
fffffffe
ffffffff
fffffffc
ffffffff
00000001
fffffffd
00000000
fffffffe
00000005
fffffffe
fffffffd
00000003
00000002
00000000
00000001
00000000
fffffffe
00000006
ffffffff
fffffffe
00000000
fffffffa
00000004
00000006
ffffffff
00000007
00000002
00000000
ffffffff
00000006
fffffffe
00000000
fffffffe
00000002
00000002
fffffffd
fffffffe
ffffffff
00000002
00000003
00000000
00000002
00000000
0000000a
00000002
ffffffff
ffffffff
00000000
00000006
00000001
00000001
fffffffd
fffffff8
00000000
00000000
00000001
fffffffa
00000000
ffffffff
00000007
fffffffd
00000002
ffffffff
00000000
ffffffff
fffffffe
fffffffc
00000001
ffffffff
00000000
fffffffd
00000000
fffffffb
00000003
00000007
00000000
00000000
ffffffff
00000001
00000001
fffffffe
00000002
00000001
fffffffe
ffffffff
00000000
fffffffe
fffffffd
ffffffff
fffffffe
fffffffb
00000002
00000003
00000000
ffffffff
00000000
fffffff1
00000003
00000000
fffffffc
ffffffff
fffffffe
fffffffd
ffffffff
00000004
fffffffe
00000000
fffffff8
00000000
fffffffd
fffffffd
00000000
00000000
00000000
00000000
00000005
00000003
fffffffc
fffffffc
00000003
fffffffd
fffffffd
00000003
00000000
00000003
ffffffff
fffffffa
00000000
00000001
00000000
00000002
ffffffff
ffffffff
00000000
00000000
00000002
00000000
fffffffd
fffffffd
fffffffe
fffffffd
fffffffc
ffffffff
00000000
00000001
00000002
00000000
00000000
00000002
00000000
fffffffd
00000000
fffffffc
00000002
00000000
00000003
fffffffe
00000003
00000000
00000000
00000000
fffffffc
00000000
fffffffb
ffffffff
fffffffd
ffffffff
fffffffc
00000002
00000000
ffffffff
00000001
00000002
00000001
00000003
00000000
00000002
00000000
ffffffff
fffffffc
ffffffff
00000002
ffffffff
00000003
ffffffff
00000000
ffffffff
fffffffe
fffffffd
00000000
00000006
00000003
00000000
00000000
ffffffff
00000002
00000001
00000001
ffffffff
00000000
00000007
ffffffff
00000000
00000000
fffffffc
00000000
00000000
00000000
fffffffe
00000005
00000002
fffffffd
fffffffc
00000000
00000001
fffffffe
fffffffc
00000004
00000001
00000005
00000000
00000004
00000002
fffffffd
00000000
fffffff9
fffffffc
00000003
fffffffd
00000001
00000002
00000000
00000001
fffffffc
00000000
fffffffe
00000000
00000000
00000000
fffffffc
00000007
00000002
fffffffd
ffffffff
00000002
00000007
00000000
00000002
00000001
ffffffff
00000000
fffffffc
fffffffd
ffffffff
00000002
ffffffff
00000002
ffffffff
00000004
fffffff8
fffffffc
00000007
00000002
00000002
fffffffd
00000001
00000007
00000000
00000003
fffffffc
00000000
00000000
00000000
fffffff9
00000004
00000000
ffffffff
00000002
00000002
fffffffe
00000003
00000000
00000003
00000006
00000002
00000006
00000000
00000000
00000003
00000006
fffffffc
fffffff8
00000002
00000000
fffffffc
fffffffc
fffffffd
00000000
ffffffff
00000001
fffffffc
fffffffd
00000000
00000004
fffffffa
00000001
fffffffc
00000000
00000002
fffffffc
00000003
fffffffe
fffffffd
fffffffd
00000002
00000002
fffffffa
00000003
00000002
00000001
00000004
fffffffd
00000000
fffffffb
00000003
00000008
fffffffb
00000001
00000002
00000003
fffffffb
ffffffff
fffffffe
00000000
00000001
00000002
fffffffd
00000000
00000004
fffffffd
00000003
00000005
00000000
fffffffb
ffffffff
00000003
fffffffe
00000000
fffffffe
00000001
fffffffe
fffffffc
fffffffd
00000002
00000000
00000001
fffffff8
ffffffff
fffffffe
00000000
00000000
ffffffff
fffffffe
00000000
00000005
fffffffe
fffffffa
ffffffff
00000003
ffffffff
00000000
fffffffd
00000004
fffffffe
00000003
00000000
00000000
00000003
00000008
fffffffa
fffffffd
00000001
00000004
00000001
fffffffe
00000001
00000001
00000000
00000001
ffffffff
00000000
00000001
fffffffc
00000000
fffffffe
fffffffa
00000002
00000000
ffffffff
ffffffff
00000000
00000000
00000002
ffffffff
00000002
00000001
fffffffe
00000001
00000000
00000001
00000001
ffffffff
fffffffc
fffffffd
00000002
ffffffff
fffffffd
00000002
00000001
00000000
fffffff6
ffffffff
fffffffd
00000003
00000000
00000004
00000000
00000000
fffffffa
00000003
00000005
00000001
00000001
00000000
ffffffff
fffffffe
fffffffd
00000000
00000006
00000003
fffffffd
00000000
00000005
fffffffe
00000006
fffffffe
00000002
ffffffff
fffffffe
ffffffff
fffffffe
fffffffe
00000001
fffffffd
00000001
00000000
fffffff7
fffffffd
00000000
00000002
00000002
00000000
00000000
fffffffc
00000001
00000000
fffffffe
fffffffd
fffffffa
00000000
fffffffe
00000002
00000004
00000000
ffffffff
00000001
fffffffe
00000004
00000000
00000000
00000003
00000002
00000001
00000000
00000000
00000000
ffffffff
00000000
fffffffd
ffffffff
00000001
00000000
00000005
00000001
00000000
fffffffd
fffffffb
ffffffff
00000000
00000000
ffffffff
00000000
00000000
00000004
00000000
ffffffff
00000004
00000000
fffffffe
00000000
00000003
00000001
00000000
00000001
00000000
fffffffd
00000000
00000001
00000000
ffffffff
00000001
00000000
00000001
00000000
ffffffff
fffffffd
fffffffc
fffffffe
fffffffd
00000001
00000000
00000003
00000000
fffffffe
fffffffc
ffffffff
00000003
00000002
00000000
00000000
fffffffc
00000004
ffffffff
00000003
00000003
00000003
00000000
fffffffe
00000003
00000001
00000002
00000000
00000000
00000003
ffffffff
00000005
ffffffff
ffffffff
fffffffe
fffffffe
00000004
00000004
00000000
00000000
fffffffe
fffffffe
00000000
00000000
fffffffe
00000000
fffffffe
fffffffd
00000000
00000000
ffffffff
fffffffc
00000000
00000002
00000000
00000000
00000000
fffffffe
00000002
fffffffe
00000001
ffffffff
ffffffff
00000000
fffffffe
00000001
00000002
00000000
00000003
fffffffe
00000000
00000004
fffffffd
fffffffd
fffffffd
00000000
00000003
00000001
fffffffe
fffffffe
00000003
00000000
00000006
00000000
00000002
00000001
00000001
fffffffd
ffffffff
00000000
00000000
00000004
00000000
ffffffff
ffffffff
fffffffe
00000000
00000003
ffffffff
fffffffe
00000003
ffffffff
00000001
00000002
ffffffff
00000000
fffffffb
00000002
00000004
00000001
fffffffd
00000001
00000003
00000003
ffffffff
00000004
fffffffe
00000001
00000000
00000000
00000005
00000002
00000002
00000001
00000001
00000000
00000002
fffffffe
00000000
00000006
fffffffc
00000000
fffffffb
00000000
00000003
00000000
00000001
ffffffff
00000001
ffffffff
00000001
fffffffb
00000000
00000000
00000003
fffffffd
fffffffb
00000001
00000000
00000000
00000000
00000000
00000000
ffffffff
00000001
00000000
00000000
00000000
ffffffff
00000003
ffffffff
00000000
fffffffe
00000000
ffffffff
00000001
fffffffb
fffffffc
fffffffe
00000000
00000000
00000000
00000000
00000000
00000002
fffffff9
fffffffa
fffffffe
fffffffd
fffffffe
00000002
00000000
00000005
fffffffc
fffffffc
fffffffd
00000001
ffffffff
00000007
fffffffd
00000001
ffffffff
00000001
00000000
00000000
ffffffff
00000000
00000000
00000007
00000003
00000000
fffffffb
00000000
ffffffff
00000000
00000003
00000001
00000000
ffffffff
fffffffd
fffffffb
fffffffe
00000000
fffffffc
fffffffe
00000004
00000000
ffffffff
00000001
fffffffd
00000000
00000000
ffffffff
00000000
fffffffb
fffffffd
fffffffe
ffffffff
00000002
00000002
00000005
00000001
00000000
00000004
00000000
00000000
fffffffd
fffffffe
ffffffff
00000000
fffffffe
ffffffff
00000002
00000000
00000003
fffffffd
00000002
00000000
00000004
00000001
00000000
00000002
00000002
00000000
00000008
00000001
00000000
ffffffff
fffffffa
fffffffe
00000000
00000000
fffffffb
00000001
00000001
00000000
00000001
00000001
00000001
00000000
00000003
00000000
ffffffff
fffffffd
fffffffb
00000006
00000000
00000003
ffffffff
00000001
00000003
00000000
ffffffff
00000000
00000001
00000000
00000001
fffffffb
00000004
fffffffe
fffffffc
00000005
00000000
00000005
ffffffff
fffffff9
fffffffd
00000000
00000000
fffffffb
00000002
00000000
00000001
00000003
00000000
00000000
fffffff9
00000000
00000000
00000000
00000003
00000001
00000001
00000004
00000001
ffffffff
00000004
fffffffe
00000000
ffffffff
00000001
fffffffd
00000000
ffffffff
00000004
ffffffff
ffffffff
00000002
00000000
fffffffc
ffffffff
ffffffff
fffffffe
00000001
fffffffe
00000000
ffffffff
00000002
00000000
fffffffc
00000000
00000004
00000000
fffffffd
00000000
00000000
00000001
00000001
00000000
00000000
00000000
00000003
00000000
ffffffff
00000001
fffffffc
fffffffe
fffffffe
00000001
00000000
00000000
fffffffe
00000003
00000001
fffffffd
00000000
00000003
00000003
00000005
ffffffff
00000003
00000000
00000000
fffffffe
fffffffd
ffffffff
fffffffb
00000000
00000002
ffffffff
ffffffff
ffffffff
fffffffe
00000000
fffffffd
00000002
fffffffa
00000000
00000002
fffffffc
00000000
00000000
00000002
00000005
00000004
00000000
00000006
00000000
ffffffff
00000003
00000000
fffffffe
00000001
fffffffe
fffffffd
00000001
00000000
00000001
ffffffff
00000000
fffffffc
ffffffff
ffffffff
00000000
00000000
fffffffd
00000004
00000002
00000002
00000005
ffffffff
00000000
00000002
00000001
fffffffe
00000002
fffffffe
00000000
00000000
00000000
00000007
00000004
00000004
ffffffff
00000001
00000002
00000004
fffffffd
fffffffc
00000002
00000008
00000002
00000000
fffffffc
00000003
fffffffa
00000000
fffffffc
fffffffa
fffffffc
fffffffe
ffffffff
00000002
00000003
00000003
ffffffff
fffffffd
fffffffd
00000004
fffffffd
00000000
fffffffe
00000003
00000001
fffffffe
00000002
00000001
fffffffc
fffffffc
00000005
fffffffd
00000003
00000003
ffffffff
ffffffff
fffffffe
fffffffe
fffffffe
00000000
fffffffe
fffffffc
00000000
fffffffa
fffffffc
fffffffc
00000000
00000004
ffffffff
00000000
fffffffe
00000000
00000000
00000000
fffffffe
00000000
00000004
00000000
00000001
00000000
00000000
00000000
fffffffc
fffffffe
00000000
00000000
ffffffff
fffffffd
00000000
00000000
fffffffe
00000002
00000002
00000005
00000001
fffffffe
00000002
00000000
fffffffe
00000000
00000006
ffffffff
00000000
00000000
00000002
fffffffe
00000001
00000000
00000006
fffffffe
fffffffb
00000003
ffffffff
00000001
00000000
fffffffe
00000003
fffffffb
fffffffe
00000004
00000002
00000000
00000004
ffffffff
00000002
00000000
00000006
00000003
fffffffe
00000000
00000001
fffffffe
00000002
00000000
ffffffff
00000002
00000000
00000000
00000000
fffffffb
ffffffff
ffffffff
00000002
00000000
00000005
00000000
fffffffd
00000000
00000003
00000000
fffffffe
00000001
fffffffc
fffffffe
00000000
00000002
00000005
ffffffff
00000001
00000000
00000001
fffffffd
fffffffe
fffffff9
00000000
fffffff8
00000001
00000000
00000000
fffffffd
00000001
fffffffe
00000000
fffffff9
ffffffff
fffffffc
fffffffb
00000000
ffffffff
00000000
00000001
00000001
00000000
00000002
fffffffd
fffffffc
fffffffe
fffffffe
00000000
00000005
00000000
fffffffd
fffffffb
00000000
ffffffff
00000000
00000000
ffffffff
ffffffff
00000003
00000002
00000004
ffffffff
00000000
fffffffd
fffffffc
ffffffff
ffffffff
00000000
00000000
00000003
fffffffa
00000000
00000000
ffffffff
fffffffc
00000005
fffffffe
fffffffd
fffffffd
00000000
00000000
fffffffd
fffffffe
ffffffff
00000000
00000005
00000001
fffffffb
fffffffd
00000000
00000000
00000002
fffffffe
ffffffff
00000003
00000000
fffffffe
00000001
00000002
00000002
fffffffc
00000000
fffffffe
fffffffe
00000000
ffffffff
ffffffff
00000000
fffffffe
00000001
00000002
fffffffe
00000003
00000002
fffffffb
ffffffff
ffffffff
00000000
00000000
00000000
ffffffff
00000003
fffffffe
00000008
fffffffd
00000002
ffffffff
fffffffc
00000000
00000004
fffffffe
ffffffff
fffffffe
fffffffd
00000000
fffffffa
fffffff6
fffffffe
00000000
00000002
00000003
00000002
ffffffff
00000001
fffffffd
00000000
fffffffe
00000001
00000003
00000000
fffffffe
00000001
00000000
00000001
00000002
fffffffc
fffffffe
00000002
00000000
fffffffc
00000002
00000000
fffffffc
ffffffff
00000001
fffffffc
00000002
fffffffc
00000005
fffffffe
00000001
00000000
00000000
00000000
fffffffe
fffffffe
fffffffe
00000002
00000007
fffffffc
00000001
00000000
00000001
ffffffff
ffffffff
00000001
fffffffe
00000001
fffffffe
fffffffd
00000001
00000000
ffffffff
00000000
fffffffe
fffffffc
00000000
00000003
fffffffc
ffffffff
00000002
ffffffff
00000002
00000000
00000004
fffffffe
00000001
00000000
fffffffd
ffffffff
00000006
00000003
00000005
00000000
00000001
00000004
00000002
00000001
fffffffd
00000000
00000000
fffffffd
00000000
00000001
fffffffe
00000004
00000002
00000000
00000001
00000000
00000000
fffffffd
00000001
fffffffe
fffffffe
00000000
00000001
fffffffc
ffffffff
fffffffe
ffffffff
fffffffd
ffffffff
00000001
00000002
fffffffc
ffffffff
00000002
00000000
ffffffff
00000000
00000000
00000000
fffffff9
00000004
00000001
ffffffff
00000000
00000000
00000003
00000000
ffffffff
00000001
ffffffff
00000005
00000000
ffffffff
00000004
00000000
fffffffe
fffffffc
00000000
00000002
fffffffd
fffffffd
fffffffe
ffffffff
00000003
fffffffd
fffffffc
00000000
00000000
fffffffc
00000001
ffffffff
00000000
00000001
fffffffc
00000000
00000000
00000007
00000001
ffffffff
00000002
00000000
00000000
00000000
00000000
fffffffc
ffffffff
fffffffe
ffffffff
00000000
00000000
fffffffe
ffffffff
00000001
00000002
ffffffff
fffffffd
fffffffe
00000000
00000002
00000000
00000001
fffffffe
fffffffd
00000000
fffffffe
fffffffe
00000003
ffffffff
00000002
00000001
00000000
fffffffc
ffffffff
fffffffd
fffffffa
00000000
00000000
fffffffd
00000000
00000002
00000000
00000000
ffffffff
ffffffff
fffffffc
ffffffff
fffffffc
00000000
00000001
00000002
00000000
00000000
00000001
fffffffe
fffffffd
00000001
ffffffff
00000000
fffffffb
00000002
00000000
00000005
00000000
00000000
00000000
00000001
00000000
fffffffd
00000000
00000003
fffffffd
00000000
ffffffff
ffffffff
00000002
00000000
00000000
00000000
00000000
fffffffb
00000001
00000000
fffffffe
00000000
fffffffe
00000000
00000000
00000001
00000000
00000000
00000000
00000000
00000001
fffffffd
00000003
ffffffff
00000000
00000001
fffffff9
00000002
ffffffff
fffffffe
00000001
fffffffe
00000002
00000000
00000003
fffffffd
00000002
fffffffd
00000003
00000000
00000005
ffffffff
00000001
fffffffe
ffffffff
fffffffe
00000000
00000000
00000000
00000000
00000000
00000000
00000000
00000001
fffffffe
00000000
fffffffe
00000004
00000004
00000000
00000000
00000000
fffffffd
ffffffff
00000001
fffffffe
00000001
00000001
00000000
ffffffff
00000002
00000002
fffffffe
ffffffff
00000000
00000000
00000000
00000000
00000001
00000000
00000000
00000000
fffffffc
00000001
00000002
ffffffff
00000000
fffffffb
fffffffe
00000002
00000004
00000001
00000001
ffffffff
00000000
00000000
fffffffe
00000000
00000001
00000000
ffffffff
00000001
00000000
00000005
00000000
00000000
00000003
00000000
00000002
fffffffe
00000001
fffffffe
00000001
00000000
ffffffff
ffffffff
ffffffff
00000001
00000001
00000000
00000003
00000000
ffffffff
00000000
00000000
00000000
fffffffb
fffffffe
00000000
fffffffd
ffffffff
00000001
00000000
00000003
ffffffff
00000000
00000001
00000001
ffffffff
00000000
ffffffff
00000000
00000001
00000000
00000002
00000001
00000003
00000000
00000000
00000004
00000000
00000000
fffffffe
00000001
00000001
00000003
ffffffff
00000002
00000001
fffffffd
00000003
00000005
fffffffc
fffffffc
00000000
00000000
00000000
00000000
ffffffff
fffffffc
00000002
00000002
00000000
00000003
00000000
00000000
fffffffe
00000000
00000001
ffffffff
00000000
fffffffe
fffffffc
00000001
00000000
00000002
00000000
00000001
fffffffc
ffffffff
fffffffc
fffffffe
ffffffff
00000002
ffffffff
00000000
00000001
fffffffa
00000000
00000001
00000001
00000000
fffffffb
fffffffc
ffffffff
ffffffff
fffffffd
ffffffff
00000001
00000002
ffffffff
fffffffe
ffffffff
00000000
00000002
00000000
00000000
00000000
ffffffff
00000001
00000004
00000002
00000000
00000000
00000005
00000000
00000002
00000000
00000000
fffffffe
fffffffd
00000000
00000005
00000000
00000000
00000000
00000000
00000001
fffffffe
00000001
ffffffff
fffffffe
00000003
ffffffff
ffffffff
fffffffe
00000001
00000002
00000001
00000003
00000000
fffffffd
00000000
fffffffe
00000002
00000001
00000002
00000005
fffffffd
fffffffe
00000000
00000000
fffffffe
00000000
00000000
fffffff8
fffffffc
00000002
fffffffe
00000000
00000001
00000003
00000003
00000001
fffffffe
00000000
00000001
00000000
00000001
fffffffc
00000000
fffffffd
00000000
fffffffe
ffffffff
00000002
00000000
ffffffff
00000001
00000000
ffffffff
fffffffc
00000000
00000000
00000000
00000002
00000000
00000002
00000002
00000005
fffffffd
00000004
fffffffe
00000001
00000000
fffffffe
00000001
00000000
ffffffff
fffffffe
00000001
ffffffff
00000000
00000000
00000000
00000001
ffffffff
fffffffc
fffffffe
00000004
fffffffd
00000000
00000000
fffffffe
00000003
fffffffe
ffffffff
ffffffff
fffffffc
00000000
fffffffd
ffffffff
00000002
00000001
00000002
ffffffff
fffffffe
00000000
00000002
00000002
00000001
00000000
00000000
ffffffff
fffffffc
00000002
00000000
00000002
00000003
00000001
fffffffc
ffffffff
fffffffd
00000003
00000006
00000003
00000000
fffffffa
00000001
fffffffe
00000000
00000000
ffffffff
fffffffd
00000002
00000000
00000001
fffffffd
ffffffff
ffffffff
00000000
00000002
fffffffd
00000000
00000000
00000000
00000002
00000002
00000000
00000002
fffffffe
ffffffff
fffffffe
00000001
fffffffc
fffffffc
00000000
fffffffe
ffffffff
fffffffe
fffffffd
00000000
fffffffc
00000000
00000000
fffffffc
00000002
00000000
ffffffff
00000003
00000000
00000004
00000000
ffffffff
ffffffff
00000000
00000002
fffffffd
ffffffff
00000002
00000003
00000001
fffffffe
ffffffff
ffffffff
00000001
00000000
00000000
00000000
fffffffe
00000001
fffffffe
00000000
fffffffd
00000003
00000002
00000003
00000003
fffffffe
fffffffe
00000001
00000000
00000002
fffffffd
00000000
00000000
00000003
00000008
00000002
00000001
00000002
00000000
ffffffff
00000004
00000000
ffffffff
ffffffff
fffffffd
00000002
fffffff9
00000003
00000005
fffffffc
ffffffff
00000000
00000004
00000000
ffffffff
ffffffff
00000000
00000002
fffffff9
ffffffff
fffffffc
ffffffff
00000000
00000000
ffffffff
00000003
fffffffe
fffffffa
00000000
ffffffff
ffffffff
00000001
fffffffa
fffffffe
fffffffd
00000005
00000004
00000001
00000005
00000000
00000002
00000000
00000004
00000003
fffffffd
00000000
00000000
00000001
ffffffff
00000001
00000000
ffffffff
00000000
00000000
fffffffe
fffffffe
00000000
fffffffe
00000002
00000003
fffffffb
00000000
00000001
00000003
fffffffd
fffffffd
00000002
00000002
00000000
fffffffd
fffffffd
ffffffff
00000001
fffffffa
fffffff9
fffffffe
00000006
00000000
00000002
fffffffd
00000001
fffffffd
ffffffff
00000000
00000000
00000000
ffffffff
00000000
00000000
fffffffb
fffffffe
00000002
fffffffd
00000001
00000000
00000000
00000004
00000001
00000007
00000001
00000003
fffffffc
00000001
00000001
00000006
00000000
00000004
fffffffa
fffffffe
00000003
00000000
fffffffb
00000000
fffffffd
fffffffd
00000003
00000000
ffffffff
00000003
fffffffe
00000000
fffffffc
fffffffc
00000001
00000003
00000001
ffffffff
00000000
00000002
ffffffff
00000004
fffffffc
fffffffe
00000004
00000000
ffffffff
00000000
00000002
00000004
fffffffe
fffffffc
ffffffff
fffffffe
fffffffd
ffffffff
00000000
00000004
00000003
00000000
00000000
00000001
00000003
00000003
00000000
00000002
00000003
00000004
00000003
ffffffff
ffffffff
fffffffe
fffffffc
00000000
00000000
00000006
fffffffd
00000002
fffffffd
fffffffd
fffffffe
00000000
00000000
fffffffe
fffffffe
00000000
fffffffc
ffffffff
00000000
fffffff8
fffffffc
00000001
00000000
00000003
00000000
fffffffb
ffffffff
00000000
fffffffe
00000000
00000002
00000000
00000000
00000003
00000004
00000002
00000003
00000000
00000001
00000004
00000002
00000001
fffffffd
ffffffff
fffffffc
00000001
00000001
00000000
00000004
fffffffe
00000000
fffffffe
00000000
fffffffe
00000002
fffffffb
00000001
00000002
ffffffff
00000001
00000005
ffffffff
00000000
00000002
00000008
fffffffd
00000003
00000001
00000001
00000001
00000000
fffffffd
00000006
00000004
00000002
00000000
00000000
fffffffe
00000000
fffffffc
00000003
00000001
00000000
00000001
00000001
fffffffd
00000002
00000002
00000000
00000003
00000002
fffffffe
ffffffff
00000000
ffffffff
fffffffe
00000001
00000000
00000000
00000003
00000000
ffffffff
fffffffe
fffffffa
fffffffb
00000001
ffffffff
00000000
fffffffe
ffffffff
00000001
00000003
ffffffff
00000001
00000000
fffffff9
00000003
00000001
00000003
fffffffd
00000000
ffffffff
00000004
00000000
ffffffff
00000008
00000000
ffffffff
00000003
fffffffe
00000000
fffffffc
fffffffe
00000000
00000002
ffffffff
00000002
fffffffd
fffffffd
00000002
fffffff9
fffffffe
ffffffff
00000000
00000005
ffffffff
00000003
00000001
00000006
00000001
fffffffc
00000001
00000005
fffffffe
00000000
fffffffe
00000001
00000001
00000001
00000002
00000002
00000007
00000000
00000000
00000008
00000000
ffffffff
00000003
00000008
ffffffff
00000000
00000002
00000001
00000002
fffffffe
00000005
00000000
00000003
00000000
ffffffff
fffffffc
00000000
00000002
ffffffff
ffffffff
00000001
00000004
00000001
00000003
fffffffc
fffffffe
fffffffd
00000002
00000000
00000000
fffffffe
ffffffff
00000006
00000003
ffffffff
fffffffe
00000001
00000000
ffffffff
00000001
00000002
fffffffe
fffffffe
fffffffc
ffffffff
00000000
00000005
fffffffe
fffffffd
00000002
00000002
ffffffff
00000000
fffffffc
00000000
fffffffe
00000000
fffffffe
fffffffc
00000000
00000000
fffffffd
00000001
00000003
fffffffd
00000001
fffffffc
00000001
00000002
fffffffd
fffffffa
00000001
00000000
00000000
00000000
fffffffe
00000002
fffffffd
00000000
00000001
ffffffff
ffffffff
fffffffc
ffffffff
00000001
00000000
fffffffb
00000002
00000000
fffffffe
fffffffd
00000000
fffffffe
00000005
00000003
00000000
ffffffff
00000004
00000000
00000001
fffffffc
fffffffe
fffffffb
ffffffff
00000002
fffffffd
00000001
ffffffff
ffffffff
00000000
ffffffff
fffffffc
00000000
00000004
fffffffa
ffffffff
00000001
fffffffd
00000001
fffffffe
00000009
00000000
00000002
ffffffff
fffffffd
00000001
fffffffb
ffffffff
00000004
fffffffd
00000000
fffffffe
ffffffff
00000000
00000001
00000000
fffffffd
00000001
00000000
fffffffe
00000004
00000004
fffffffe
fffffff9
00000000
00000007
00000002
00000003
ffffffff
00000002
00000000
ffffffff
00000000
fffffffe
00000005
00000002
00000000
fffffffe
ffffffff
fffffffd
00000001
ffffffff
00000000
00000000
00000001
00000000
00000002
ffffffff
00000005
00000001
fffffffd
00000000
00000000
00000000
00000000
00000000
00000002
00000004
fffffffd
ffffffff
00000002
fffffffe
00000000
ffffffff
00000006
00000001
ffffffff
ffffffff
fffffffd
00000004
00000001
fffffffc
00000000
00000000
00000000
00000002
00000002
00000001
00000001
00000003
ffffffff
ffffffff
fffffffe
fffffffd
00000000
00000000
fffffffe
fffffff9
fffffffe
00000001
00000001
fffffffe
00000000
00000000
fffffffc
00000001
00000003
fffffffc
00000000
fffffffe
fffffffd
00000001
ffffffff
00000000
00000000
00000003
ffffffff
ffffffff
00000000
00000000
00000001
00000003
00000000
00000001
00000001
00000000
00000005
fffffffd
00000002
00000000
fffffffd
00000000
ffffffff
fffffffe
00000000
00000000
00000000
ffffffff
00000001
00000000
00000005
ffffffff
00000005
00000005
00000004
ffffffff
ffffffff
fffffffe
fffffffc
fffffffb
00000000
fffffff6
00000000
ffffffff
00000007
00000000
ffffffff
00000003
ffffffff
00000000
00000000
fffffffb
ffffffff
00000000
00000000
00000000
00000000
fffffffa
00000001
00000003
00000000
fffffffe
fffffffe
00000003
fffffffe
ffffffff
00000000
00000000
00000001
00000000
fffffff9
fffffffe
fffffffb
fffffffe
00000007
fffffffa
00000002
fffffffd
00000000
ffffffff
00000003
00000000
00000000
fffffffe
fffffff8
00000003
ffffffff
fffffffd
00000002
00000002
00000001
00000002
ffffffff
00000003
00000002
fffffffc
fffffffc
fffffffe
00000003
00000000
00000001
00000001
00000000
00000000
00000002
fffffffe
ffffffff
ffffffff
00000000
00000000
fffffffe
00000003
00000001
00000005
00000000
00000000
00000000
fffffffe
00000002
fffffffa
00000002
ffffffff
00000001
00000002
00000005
00000007
ffffffff
fffffffb
00000004
fffffffc
00000000
00000000
fffffffd
fffffffe
00000005
00000000
fffffffe
00000002
fffffffb
00000001
ffffffff
00000000
fffffffb
ffffffff
00000001
00000000
00000000
ffffffff
00000000
fffffff9
fffffffb
00000001
00000000
00000000
00000000
ffffffff
00000001
fffffffa
00000002
fffffffb
00000003
ffffffff
fffffffc
00000006
00000008
0000000b
00000000
00000001
fffffffe
00000001
00000004
00000000
00000000
00000000
00000001
00000000
00000000
00000000
ffffffff
00000001
00000002
00000008
fffffffb
fffffffe
fffffffd
00000000
fffffffc
fffffffc
fffffffc
00000001
fffffffc
00000000
00000000
00000001
fffffffe
00000005
00000005
00000005
00000004
00000000
fffffffc
00000002
00000001
fffffffc
fffffffe
00000000
00000000
fffffffd
00000000
fffffffd
ffffffff
ffffffff
fffffff4
00000000
00000006
fffffffe
ffffffff
fffffffc
fffffffc
00000000
00000004
ffffffff
fffffffb
00000005
fffffffe
fffffffd
00000005
00000000
00000003
ffffffff
fffffff7
ffffffff
00000001
00000001
00000004
00000001
00000000
00000001
00000001
00000000
00000003
00000002
00000000
00000004
ffffffff
00000002
00000000
fffffffe
fffffffe
00000002
00000001
fffffffe
fffffffd
00000000
00000000
00000003
00000001
00000006
00000000
00000004
00000002
00000001
00000003
ffffffff
fffffffb
fffffffd
00000001
ffffffff
ffffffff
fffffffc
fffffffd
00000002
ffffffff
ffffffff
00000000
00000001
00000000
00000000
fffffffc
00000002
00000000
ffffffff
ffffffff
fffffffc
00000000
00000000
fffffffd
00000002
ffffffff
00000001
fffffffc
fffffffd
fffffffe
00000000
ffffffff
00000008
00000000
fffffffb
ffffffff
fffffffc
00000009
fffffffe
fffffffd
00000001
00000002
00000003
fffffffd
fffffffd
fffffffe
00000001
ffffffff
fffffffc
00000000
00000001
00000003
00000002
00000004
00000000
00000001
fffffffe
fffffffe
00000002
00000000
00000000
00000002
00000002
fffffffd
fffffffe
00000007
00000000
00000003
00000000
ffffffff
00000004
00000000
00000001
00000001
00000000
ffffffff
00000003
00000000
00000003
00000002
00000003
fffffffe
fffffffc
00000004
00000000
ffffffff
00000001
ffffffff
00000000
00000001
00000000
00000000
fffffffe
fffffffc
00000002
00000003
00000000
00000006
ffffffff
fffffffe
fffffffd
00000002
00000005
00000000
fffffffd
00000001
00000000
00000000
fffffff9
fffffffe
00000000
00000007
ffffffff
fffffffe
00000000
fffffffb
00000004
fffffffa
ffffffff
fffffffd
00000002
00000003
fffffffe
00000000
00000001
00000002
00000005
00000006
00000002
00000000
00000006
ffffffff
00000000
fffffffc
00000000
00000002
00000008
fffffff9
00000002
ffffffff
00000000
00000000
00000002
00000000
ffffffff
00000000
00000003
00000003
00000000
00000006
fffffffd
fffffffe
00000001
fffffffe
00000000
ffffffff
00000005
00000000
fffffffd
fffffffe
00000006
00000001
00000001
fffffffe
fffffffd
fffffffe
00000000
fffffffc
fffffffd
ffffffff
ffffffff
00000003
00000000
00000000
00000000
00000000
00000000
00000002
00000000
00000001
00000000
00000000
00000003
00000000
fffffffd
fffffffe
00000000
00000008
00000001
fffffffe
00000000
fffffffd
fffffffe
00000004
ffffffff
00000000
00000000
00000001
00000000
00000008
00000001
00000005
ffffffff
fffffffe
ffffffff
00000000
00000000
00000000
fffffffe
00000003
00000002
00000006
00000005
00000006
fffffffa
fffffff9
00000004
00000000
fffffff8
fffffff7
fffffffd
fffffffc
00000000
0000000d
fffffffd
ffffffff
fffffffd
00000007
ffffffff
00000000
00000000
00000005
fffffffc
fffffffb
00000002
fffffffe
00000001
00000001
00000000
00000005
00000002
00000008
fffffff8
fffffff7
ffffffff
fffffff8
ffffffff
00000000
fffffffa
ffffffff
fffffff3
ffffffff
00000002
00000003
0000000d
00000005
fffffffe
00000004
00000007
fffffffd
ffffffeb
00000001
fffffffe
fffffffe
00000009
00000001
fffffffe
fffffff7
fffffffe
fffffffd
00000005
ffffffff
fffffffb
fffffffd
fffffffa
00000001
00000001
fffffffe
00000002
00000000
00000001
fffffffe
00000000
ffffffff
fffffffd
00000000
00000005
ffffffff
ffffffff
fffffff9
00000001
fffffff6
00000002
00000005
ffffffee
fffffffd
fffffffc
00000005
fffffff5
fffffffd
ffffffff
0000000a
00000000
fffffff8
fffffff0
00000001
fffffffb
00000000
00000003
00000003
00000002
00000000
fffffffa
00000005
00000000
00000000
fffffffb
fffffffc
fffffffe
ffffffe3
00000003
fffffffa
00000005
0000000b
ffffffff
ffffffff
fffffffc
fffffffe
fffffff8
00000003
00000001
00000005
fffffff9
fffffff7
00000002
fffffffb
00000002
00000000
00000000
fffffffb
fffffff2
00000001
ffffffe7
ffffffff
00000004
ffffffff
00000008
00000000
00000000
00000006
00000006
ffffffff
00000000
fffffff1
00000004
ffffffff
00000001
00000000
fffffffe
ffffffff
fffffff9
fffffffd
00000000
fffffff4
00000003
00000000
fffffffc
ffffffff
fffffffc
fffffffd
fffffff4
00000001
fffffff5
00000004
00000000
fffffffb
ffffffff
00000000
00000001
00000001
fffffffe
fffffffe
00000000
fffffff7
fffffffd
00000000
fffffffc
fffffff9
00000000
00000001
00000003
ffffffff
00000000
ffffffff
fffffffb
fffffffb
fffffff8
fffffff5
00000002
ffffffef
00000008
fffffff8
00000004
fffffffa
00000005
00000000
ffffffff
fffffff9
00000008
00000001
00000013
00000000
fffffffd
fffffffc
00000002
00000006
00000007
ffffffef
00000004
fffffff9
00000009
fffffffe
00000000
00000006
ffffffff
00000000
0000000b
00000000
fffffffe
fffffffd
fffffffc
fffffffe
0000000f
ffffffec
fffffffe
00000001
00000005
00000000
fffffff6
00000000
fffffffd
00000000
00000001
fffffffc
fffffff9
00000000
00000009
00000001
00000004
fffffffc
fffffffd
00000004
fffffffe
0000000e
ffffffe6
00000001
fffffffd
00000004
fffffffe
00000004
00000001
00000000
0000000a
00000008
fffffffd
fffffffa
00000000
fffffff7
fffffffd
00000000
fffffffb
00000006
fffffffc
00000002
fffffffe
00000004
fffffffa
ffffffff
fffffffd
fffffff8
00000006
00000002
fffffffe
00000002
00000003
00000001
fffffff8
00000004
fffffffb
00000001
fffffffe
00000002
00000003
fffffffb
00000001
ffffffff
fffffffc
00000005
00000001
00000005
00000000
fffffffc
fffffffe
00000000
00000000
fffffffb
00000004
fffffffe
00000000
00000000
ffffffff
fffffffc
00000001
fffffffd
00000007
00000005
00000002
00000000
fffffff9
00000000
00000006
00000003
00000007
00000003
fffffffd
00000001
fffffff9
00000003
fffffff9
00000000
fffffff8
00000002
00000001
00000000
00000002
00000004
00000001
0000000e
fffffffc
00000005
00000000
ffffffff
00000001
fffffff8
00000006
fffffffd
fffffffa
0000000a
00000004
fffffffa
fffffffd
00000000
00000009
fffffffb
ffffffff
00000003
00000003
fffffff9
00000004
00000000
00000000
fffffffe
00000001
00000001
00000003
00000009
fffffff9
0000000a
fffffff8
fffffff6
00000001
fffffff7
0000000b
fffffffd
fffffff8
00000006
fffffffd
fffffffe
ffffffff
fffffffd
0000000b
00000002
fffffffd
fffffffd
00000000
00000002
fffffffb
00000000
fffffff9
ffffffff
ffffffef
fffffffd
fffffff7
00000002
fffffff2
00000000
ffffffff
00000000
00000000
00000000
0000000c
fffffffa
ffffffff
00000000
00000003
00000001
00000003
00000000
fffffffa
00000004
00000001
fffffffb
00000004
ffffffff
0000000a
fffffffd
00000005
00000006
00000007
fffffffe
00000000
fffffffe
00000002
00000004
00000006
fffffffe
fffffffa
00000000
00000001
fffffffb
00000001
00000007
ffffffee
fffffffe
fffffffd
00000006
fffffff9
00000006
fffffffa
fffffff7
00000005
00000003
00000000
00000004
fffffffb
fffffffd
00000002
00000001
00000007
00000001
00000005
0000000a
00000009
00000013
00000004
00000006
00000000
00000003
00000003
fffffffa
fffffff7
00000008
00000000
fffffffb
00000000
fffffffb
00000003
ffffffff
fffffffe
00000005
fffffffe
00000002
ffffffff
fffffffd
00000003
00000004
fffffffb
00000001
00000001
fffffffe
ffffffff
fffffffc
fffffffc
ffffffff
00000005
00000007
00000000
fffffffd
00000001
ffffffff
00000001
ffffffff
fffffffd
fffffff7
00000009
fffffffd
00000009
fffffffc
00000006
fffffff2
00000000
00000002
fffffffe
00000009
00000001
00000005
0000000c
00000004
ffffffff
00000004
fffffff7
fffffff4
00000008
fffffffb
00000000
00000000
ffffffff
00000004
00000001
fffffffc
fffffff9
ffffffff
ffffffff
ffffffff
00000002
fffffffe
fffffffd
00000002
00000002
00000000
00000002
00000001
00000002
00000000
00000003
00000000
00000004
fffffffe
fffffffe
00000001
00000000
ffffffff
00000000
00000000
ffffffff
00000004
00000000
00000000
00000002
ffffffff
ffffffff
00000000
00000004
ffffffff
00000000
00000001
fffffffe
fffffffc
fffffffd
00000003
00000000
00000000
00000001
00000000
fffffffd
00000006
00000000
00000005
00000000
00000000
00000000
ffffffff
00000000
ffffffff
ffffffff
00000002
00000000
00000002
00000003
00000000
00000000
00000000
00000000
fffffffd
fffffff8
00000000
00000001
fffffffe
00000000
fffffffc
00000000
00000003
ffffffff
fffffffd
00000000
00000004
00000002
00000005
00000000
fffffff7
00000002
00000001
00000003
00000000
00000002
fffffffe
00000000
fffffffe
00000000
00000002
00000004
00000003
00000001
fffffffe
00000000
00000001
00000000
00000002
00000000
00000000
fffffffd
fffffffc
00000008
fffffff9
00000001
fffffffe
00000005
00000006
00000002
00000000
00000002
fffffffe
00000003
fffffffd
00000003
fffffffc
fffffffd
00000000
fffffffb
00000000
ffffffff
fffffffd
00000001
fffffffe
00000002
00000001
00000000
fffffffa
00000001
00000000
00000007
fffffffb
00000001
fffffffd
fffffffe
00000000
ffffffff
fffffffa
00000002
ffffffff
00000000
00000002
ffffffff
fffffffd
00000003
00000000
00000001
fffffffe
fffffffc
00000000
fffffffe
00000004
ffffffff
fffffffa
00000000
fffffffd
fffffffb
ffffffff
00000000
fffffffc
00000002
fffffffe
00000000
00000003
00000001
fffffffc
ffffffff
fffffffc
00000001
fffffffd
fffffffe
fffffffe
00000000
00000002
fffffffa
fffffffe
00000002
00000000
00000002
00000000
00000000
fffffff4
fffffffe
ffffffff
00000002
fffffffe
00000001
fffffffd
00000000
00000000
fffffffc
00000000
00000001
fffffffe
fffffffe
00000002
00000001
fffffffe
00000002
00000003
00000003
00000003
00000000
00000000
00000000
fffffffd
ffffffff
00000002
00000000
00000001
00000000
fffffffd
fffffffc
00000000
00000002
00000000
00000003
00000000
00000002
fffffffb
00000000
ffffffff
fffffffe
00000003
fffffffe
00000000
00000003
fffffffc
00000001
00000002
fffffffe
00000000
fffffffe
fffffffe
00000002
fffffffe
fffffffd
00000005
00000001
fffffffc
00000004
00000004
fffffffe
00000000
00000000
00000000
00000001
00000004
00000000
fffffffe
fffffffd
fffffffe
00000000
ffffffff
00000000
00000000
00000000
ffffffff
00000003
00000001
00000000
00000001
00000000
fffffffe
00000001
00000001
00000000
ffffffff
fffffffc
00000000
00000003
00000002
00000000
00000000
00000000
00000002
00000002
00000001
fffffffb
00000000
fffffffe
00000000
00000006
00000001
00000002
00000001
ffffffff
00000000
00000004
00000001
00000000
00000000
fffffffc
fffffffd
ffffffff
00000004
fffffffc
fffffff9
ffffffff
00000001
00000000
fffffffc
fffffffe
fffffffe
00000000
00000000
00000004
fffffffd
00000000
ffffffff
00000001
00000000
00000002
00000001
00000000
00000002
00000003
fffffffd
fffffffb
fffffffd
00000000
00000003
fffffffd
00000000
fffffffd
00000000
00000000
00000000
00000003
fffffffe
fffffffe
fffffffe
00000000
ffffffff
ffffffff
fffffffc
fffffffe
00000000
00000005
00000002
fffffffe
00000003
0000000e
00000002
fffffffc
ffffffff
fffffff7
00000001
00000000
00000001
00000005
fffffffe
00000002
00000000
00000001
00000000
fffffffe
00000003
00000005
