00000000
fffffffc
00000001
00000011
fffffff8
fffffff8
00000002
fffffff9
ffffffed
00000004
fffffffd
fffffff9
00000008
00000008
00000003
0000000a
00000005
fffffffd
fffffff6
fffffffe
00000000
fffffff6
fffffff7
fffffffb
fffffff7
0000000b
fffffff6
ffffffff
00000004
00000001
00000005
00000007
fffffffd
00000006
fffffff2
00000008
0000000c
00000006
fffffff0
fffffff4
00000011
0000000a
00000004
00000001
00000018
00000001
0000000e
fffffff1
ffffffff
00000010
fffffffa
00000005
00000021
ffffffef
fffffff9
fffffff6
00000000
00000003
fffffffc
00000006
00000019
00000000
fffffff2
00000016
fffffff7
fffffff2
00000003
00000003
00000001
0000000b
fffffff5
00000007
0000000b
fffffffb
fffffffc
00000004
00000000
00000001
fffffff9
00000007
fffffff4
fffffff7
fffffffc
0000000a
fffffffc
0000000e
00000000
0000000a
00000005
fffffff8
00000007
fffffffe
00000019
ffffffee
fffffff5
00000010
fffffff8
00000006
00000009
00000000
00000004
fffffff8
00000016
00000000
ffffffdf
ffffffec
fffffffd
00000007
fffffffd
ffffffe1
fffffff5
00000000
00000003
ffffffed
00000009
00000000
fffffff9
00000005
ffffffff
0000000a
fffffff7
ffffffed
fffffffa
fffffffb
0000000d
fffffff3
fffffffc
fffffffd
0000002d
00000004
fffffff5
fffffff4
fffffffe
fffffffa
00000008
fffffff2
fffffffc
00000001
fffffffe
ffffffeb
00000016
fffffffb
ffffffef
00000002
fffffff9
00000014
00000008
fffffffc
0000001d
0000001e
fffffffa
ffffffe8
fffffffc
fffffffa
00000009
fffffff4
0000000c
00000004
00000009
fffffff9
fffffffb
00000007
fffffffb
00000003
fffffffb
00000005
0000000c
ffffffed
00000000
fffffff7
00000009
00000003
fffffffa
fffffff6
fffffff7
0000000e
00000016
00000002
00000002
00000003
fffffff9
00000014
fffffff9
fffffff9
ffffffe9
00000003
00000009
fffffffa
ffffffed
ffffffed
ffffffe8
fffffffd
00000002
00000003
fffffff2
fffffff6
fffffffa
00000018
fffffff3
ffffffff
00000004
ffffffee
00000011
0000000a
ffffffff
00000007
fffffffe
00000003
00000018
fffffff5
fffffff9
00000003
fffffffc
fffffff9
00000020
00000005
0000000e
00000001
fffffff5
fffffff8
fffffff9
fffffffc
fffffff1
fffffff7
00000002
fffffffc
fffffff3
fffffffc
ffffffed
00000002
fffffffb
ffffffff
00000003
fffffff9
00000005
00000014
0000000a
fffffffb
fffffffd
fffffffd
ffffffef
00000009
00000002
00000002
fffffffd
0000000a
00000010
fffffff0
00000000
00000003
ffffffff
ffffffeb
00000004
0000000f
00000002
00000010
fffffffa
00000000
fffffff8
00000000
0000000b
fffffffe
00000003
00000001
00000002
fffffffe
00000000
ffffffff
fffffffd
00000005
00000002
fffffffb
fffffffc
fffffffd
fffffffa
fffffffa
fffffffb
fffffffe
fffffffe
ffffffff
fffffffb
fffffffa
0000000d
fffffffb
fffffffb
fffffff8
00000000
00000000
00000001
00000003
00000000
fffffffc
ffffffff
fffffff5
fffffff7
00000003
00000001
00000002
00000000
00000000
00000000
ffffffff
00000008
00000011
fffffffa
fffffff7
00000000
00000000
fffffffa
fffffffa
00000000
fffffffe
ffffffff
00000001
00000009
00000001
fffffffb
ffffffff
00000001
fffffff7
ffffffff
ffffffff
00000000
0000001f
fffffffe
00000001
00000000
fffffff8
fffffff6
00000002
00000007
00000004
00000000
00000002
fffffffd
fffffffe
00000004
00000004
00000000
fffffffd
fffffff9
00000003
fffffffe
fffffff5
00000008
fffffffc
fffffff6
fffffff8
fffffffe
00000000
fffffff5
0000000c
0000000a
fffffffc
fffffffb
00000003
fffffff4
00000003
fffffffd
fffffff7
fffffff9
00000000
00000000
fffffffc
00000004
fffffff5
00000009
fffffffd
00000000
00000000
00000003
fffffffd
fffffffb
00000001
ffffffff
fffffffb
00000001
fffffffe
fffffff9
fffffffd
fffffffe
00000001
0000001d
00000003
00000002
fffffff4
00000001
fffffffd
00000001
ffffffff
fffffffc
fffffffd
ffffffff
00000000
00000000
00000001
00000000
fffffffa
fffffffd
ffffffff
ffffffff
fffffffa
00000000
ffffffff
00000003
00000002
00000000
00000001
00000000
00000000
fffffffa
fffffff8
00000002
00000002
fffffffe
00000000
00000000
fffffffe
fffffffe
fffffff8
00000004
0000000b
00000000
00000005
00000001
fffffff4
fffffff9
00000006
00000000
00000013
fffffffb
0000000b
00000000
fffffff6
00000000
00000009
00000007
ffffffec
00000000
fffffffa
00000004
fffffffb
00000000
00000004
ffffffff
00000001
fffffffe
00000001
fffffffb
00000002
fffffffc
fffffffd
00000000
00000000
fffffffc
00000001
fffffffb
fffffffd
fffffffe
00000002
00000001
00000000
00000002
00000004
00000001
fffffffe
00000007
fffffffe
fffffff7
fffffffe
ffffffff
00000000
00000000
fffffffa
0000000d
fffffffd
fffffffe
fffffffc
fffffffe
fffffffe
00000000
fffffffe
fffffffc
00000010
00000000
fffffffe
fffffffe
fffffff0
00000000
fffffffe
fffffffa
fffffff9
ffffffec
fffffff0
00000004
00000004
fffffffd
00000000
00000002
00000003
fffffffe
fffffffb
fffffffd
fffffffb
00000003
00000004
fffffffd
fffffffa
00000003
fffffff9
fffffff9
00000003
00000002
fffffff7
00000000
00000000
00000006
00000002
00000003
00000007
fffffff9
ffffffeb
00000002
fffffffa
fffffffb
00000006
fffffff9
fffffffe
00000002
0000000a
fffffffc
fffffff9
fffffffb
fffffffd
fffffffd
00000008
fffffffd
fffffffc
fffffffb
fffffffe
00000002
fffffffc
00000002
fffffffc
fffffffe
00000007
fffffff9
ffffffff
00000002
fffffff8
fffffffb
00000001
fffffff9
fffffffd
00000003
00000003
00000003
00000000
ffffffff
00000002
00000006
00000007
00000005
00000006
fffffffb
00000002
00000005
ffffffff
00000003
fffffff5
fffffffd
fffffffc
fffffffc
fffffffa
00000005
0000000a
fffffffb
fffffff5
fffffff9
ffffffff
fffffff8
00000000
fffffffc
fffffffb
00000004
00000001
fffffffc
00000000
00000002
00000007
fffffffa
00000000
00000008
00000004
ffffffff
fffffffc
00000002
00000000
fffffffe
fffffffd
00000000
00000006
00000002
00000001
00000003
00000001
fffffffb
00000007
00000003
fffffffb
fffffff9
00000005
fffffffb
fffffffe
00000000
00000008
fffffffd
fffffffa
fffffff6
00000000
fffffffe
fffffff9
00000008
00000003
00000005
ffffffff
00000000
fffffffa
00000001
fffffffb
00000001
00000000
00000001
00000002
fffffffb
00000000
fffffff9
fffffffc
fffffffa
00000005
00000000
fffffffe
00000000
00000003
00000004
fffffffd
fffffff6
ffffffff
00000005
fffffffd
00000000
ffffffff
00000000
00000000
00000002
00000003
00000004
00000005
fffffffc
fffffffe
fffffffb
fffffffb
00000006
00000001
00000001
00000002
ffffffff
00000003
00000004
00000000
00000001
fffffffa
fffffffb
fffffffd
00000002
00000007
00000000
fffffff6
00000004
ffffffff
00000001
fffffff7
ffffffff
fffffffa
00000001
fffffff8
00000001
00000000
00000006
00000004
fffffffe
fffffffc
00000002
fffffff8
00000004
00000003
fffffffb
fffffff5
fffffff9
ffffffff
00000002
00000004
fffffffe
00000005
fffffffb
ffffffff
ffffffff
00000004
fffffffd
00000000
fffffffb
ffffffff
00000008
00000002
fffffffd
fffffffd
ffffffff
fffffffe
00000003
fffffffd
fffffff8
ffffffff
fffffffe
fffffffb
fffffffe
00000001
00000005
00000006
00000004
fffffffd
fffffff8
00000002
fffffff8
fffffff9
00000000
fffffffb
ffffffff
ffffffff
fffffffb
fffffff8
00000003
fffffffc
00000000
00000000
00000005
00000001
fffffffe
00000001
00000008
fffffffc
fffffffb
fffffffe
00000003
00000000
00000000
ffffffff
fffffff7
fffffffe
00000005
00000002
00000002
ffffffff
fffffff9
00000000
00000006
00000006
00000008
fffffffc
0000000c
fffffff9
fffffffe
ffffffff
00000006
00000000
00000000
00000004
00000005
fffffff0
0000000a
00000001
00000006
00000005
00000006
fffffffe
ffffffff
00000003
fffffffd
00000010
00000006
00000000
fffffffd
ffffffff
ffffffff
00000003
00000005
0000000b
00000000
fffffffd
fffffff5
00000001
0000000d
fffffffc
00000005
fffffff7
00000005
ffffffec
fffffff0
fffffffe
fffffffc
00000003
fffffffb
00000003
00000002
00000002
00000000
fffffffa
00000005
00000000
00000002
ffffffff
fffffffe
00000018
fffffffb
00000004
fffffffe
00000002
fffffffc
fffffffd
fffffffe
fffffffb
00000000
00000000
00000000
00000004
ffffffff
00000019
00000001
00000000
fffffff3
ffffffff
fffffff9
fffffff6
fffffff7
fffffffd
fffffffc
00000000
ffffffff
00000003
fffffffc
fffffffd
00000000
fffffff2
fffffff9
fffffffc
00000007
00000001
00000006
ffffffff
fffffffd
ffffffee
00000005
fffffff6
fffffffa
00000013
00000009
00000000
fffffffe
00000003
00000003
00000010
fffffff4
00000001
fffffff8
fffffffa
fffffffe
fffffffa
00000001
fffffffa
00000016
fffffffb
00000003
00000002
fffffffc
00000004
fffffffc
fffffffb
fffffffc
fffffffb
fffffffe
00000005
fffffffa
00000001
00000000
00000004
0000001c
0000000a
00000000
ffffffe9
fffffffa
fffffff7
00000001
fffffff9
fffffffe
fffffffe
00000003
00000004
00000000
00000005
00000000
00000000
00000001
00000003
fffffffc
fffffffd
fffffffc
00000003
fffffff3
00000003
00000004
00000000
fffffffb
fffffffa
fffffff5
fffffffc
00000001
fffffffd
fffffffe
fffffffd
00000003
00000001
00000005
00000000
fffffff3
ffffffff
ffffffff
fffffffe
fffffffc
00000002
00000001
00000015
fffffffd
ffffffff
0000000c
00000001
fffffffe
00000002
fffffff9
00000002
fffffffd
ffffffff
00000002
fffffff4
fffffff8
00000009
00000001
00000006
00000008
00000000
fffffff9
00000002
fffffff8
fffffffd
00000000
fffffff5
00000001
00000001
fffffffb
fffffffc
00000005
00000001
fffffffe
fffffffd
00000000
00000000
fffffffc
fffffff8
00000002
00000004
00000001
fffffffd
00000004
fffffff7
fffffffe
fffffff6
00000000
00000002
00000007
fffffff9
fffffffc
fffffffe
00000003
fffffff7
fffffffe
00000000
ffffffff
fffffffe
00000002
fffffffb
fffffffa
ffffffec
00000003
00000000
00000004
00000003
fffffffe
fffffff9
00000000
00000000
fffffff9
00000000
00000007
00000003
00000000
00000002
fffffffa
00000005
00000002
00000003
fffffffe
00000001
00000003
fffffff9
00000005
fffffffc
fffffff7
fffffff9
fffffff5
00000016
fffffff8
fffffffc
fffffff9
fffffffd
ffffffe6
0000000f
fffffffa
00000008
fffffffc
fffffff9
fffffff7
fffffff7
ffffffff
fffffffb
00000002
00000010
fffffffb
0000000d
00000002
fffffffd
fffffffa
0000000d
fffffffb
00000006
fffffffd
fffffff6
fffffffc
fffffff6
fffffff7
fffffff5
fffffff6
fffffffb
00000016
fffffff8
fffffffd
00000005
0000000d
ffffffea
fffffff7
fffffffa
00000013
00000009
00000002
fffffff5
0000000d
fffffff3
00000000
fffffff7
ffffffe6
00000004
0000000f
00000012
00000005
0000000e
fffffffe
00000000
00000018
00000005
ffffffff
00000008
fffffffd
00000000
fffffff8
fffffff9
fffffff0
00000007
fffffff0
00000012
ffffffee
fffffff6
fffffff1
fffffffb
fffffff5
00000004
fffffff8
ffffffe9
fffffff5
fffffff2
fffffff4
0000000d
00000006
0000000f
0000000b
ffffffef
00000000
fffffff5
fffffffc
00000007
00000016
fffffff5
ffffffe5
00000007
fffffff3
00000013
fffffff5
fffffff2
00000010
0000000a
00000017
fffffffc
fffffffa
00000001
fffffffc
fffffff4
fffffff4
fffffff9
00000000
fffffff5
fffffff8
0000001d
00000002
fffffffc
00000000
00000009
00000017
fffffffd
00000014
00000000
fffffff5
00000008
ffffffee
fffffff6
fffffffa
00000003
00000006
00000010
fffffff2
fffffff6
fffffffd
ffffffe7
ffffffef
00000007
fffffff5
fffffffb
00000010
00000013
0000000c
00000006
fffffffa
fffffffe
fffffff6
00000001
fffffff8
fffffffd
fffffffc
ffffffea
fffffff3
fffffffd
fffffffb
00000007
00000008
00000001
00000003
00000018
fffffffe
00000003
00000004
00000001
0000000e
00000000
fffffff2
00000004
00000003
fffffff5
fffffffe
fffffff5
fffffff5
fffffff7
fffffff8
fffffff7
00000010
00000007
00000004
00000006
fffffffa
00000008
00000023
00000017
00000007
00000007
fffffff9
fffffffb
00000012
ffffffff
0000001e
fffffffd
fffffffb
fffffffe
fffffffd
00000024
fffffffe
fffffffa
00000007
00000010
fffffff5
00000007
fffffff7
fffffff4
ffffffec
ffffffef
fffffffb
fffffffe
fffffff4
fffffffa
0000001a
00000004
00000005
fffffff1
0000000f
ffffffe9
fffffff9
00000000
fffffffb
00000003
fffffff9
0000000d
fffffffa
00000004
00000000
00000004
fffffff8
fffffffe
00000004
fffffff0
00000009
0000001a
00000001
00000001
fffffff9
fffffffe
00000005
fffffffd
0000000b
00000004
fffffffd
ffffffeb
ffffffdb
00000004
fffffff7
00000007
ffffffff
fffffff4
fffffffb
00000006
fffffff5
00000003
0000000c
ffffffde
fffffffc
fffffffa
fffffff4
00000000
00000000
fffffffc
00000002
fffffff4
fffffff8
00000000
fffffff2
fffffffd
fffffff4
ffffffea
00000000
fffffff4
00000005
ffffffff
fffffffd
00000001
fffffff7
00000006
fffffffc
ffffffff
fffffffe
fffffffc
00000000
ffffffff
fffffff6
fffffff9
00000005
ffffffff
00000007
fffffffe
00000000
fffffffc
00000001
00000002
00000001
ffffffff
fffffffd
fffffffd
00000008
00000001
00000008
00000005
fffffffa
00000002
00000005
fffffffe
fffffff6
fffffffe
00000000
00000000
00000000
00000003
00000004
00000003
00000000
fffffff5
fffffffb
fffffff8
fffffffd
ffffffff
00000000
00000000
fffffffd
00000000
00000001
00000001
fffffff9
00000008
fffffffd
00000008
ffffffff
fffffffb
00000007
fffffffe
fffffff8
ffffffff
fffffffb
00000000
00000008
00000002
00000003
fffffffe
00000000
fffffff5
fffffff9
00000000
00000003
00000000
00000006
00000000
ffffffff
00000007
00000007
00000006
ffffffff
fffffffc
00000006
00000002
fffffff5
ffffffff
00000000
00000005
fffffffc
fffffffa
fffffffc
fffffffd
fffffffc
00000003
fffffffc
fffffff7
00000007
fffffff6
ffffffff
fffffff8
fffffffe
fffffffc
00000000
fffffffa
ffffffff
fffffffb
00000000
fffffffd
fffffff7
00000005
00000001
00000000
00000003
00000008
00000001
ffffffff
00000000
fffffff7
fffffffa
fffffff8
fffffffa
fffffff7
fffffffc
fffffff8
fffffff3
ffffffff
fffffffb
00000000
00000007
00000004
fffffffc
fffffff9
00000000
00000006
fffffffe
00000001
fffffffb
00000004
fffffffb
fffffffa
00000000
00000001
fffffffd
00000002
00000000
fffffff7
00000000
00000005
00000000
fffffff8
fffffffe
fffffffb
00000000
00000003
fffffffc
fffffff4
fffffffb
00000000
fffffffa
fffffffb
fffffffc
00000003
fffffffd
fffffffa
00000006
00000006
fffffffa
fffffffe
0000000f
fffffffc
00000000
00000000
fffffff4
00000005
00000001
00000009
00000002
00000000
fffffffb
fffffffd
ffffffff
fffffff9
0000000a
fffffff6
00000006
00000003
00000003
00000007
00000000
fffffff8
fffffff7
fffffffc
fffffffa
00000000
fffffff7
fffffffe
00000003
00000000
00000001
fffffff0
00000006
ffffffff
00000003
00000008
fffffffa
ffffffff
00000002
fffffff5
fffffff8
00000000
fffffffa
00000000
fffffffd
fffffffb
fffffffe
ffffffff
fffffffa
fffffffb
0000000c
00000000
fffffffe
fffffff6
00000000
fffffffb
00000003
fffffff1
ffffffff
fffffff9
00000001
fffffffd
fffffffa
fffffffe
fffffffc
fffffffd
00000000
fffffffd
00000002
fffffff7
00000005
00000007
00000007
00000004
fffffffd
ffffffff
fffffffc
fffffff9
fffffffa
00000004
fffffffd
fffffffc
fffffff2
fffffff8
fffffffa
fffffff7
00000000
fffffff9
fffffff7
fffffffb
fffffff5
fffffffd
00000001
00000001
00000000
fffffffa
fffffffe
fffffffb
fffffff6
fffffffb
fffffff9
fffffffc
fffffffb
ffffffff
00000002
00000000
00000005
fffffffc
00000008
00000000
fffffff5
fffffff7
fffffffb
00000002
00000004
fffffff3
fffffff5
fffffffb
fffffff6
00000000
ffffffff
ffffffff
00000000
fffffff6
fffffffd
00000002
ffffffff
00000002
00000006
fffffffc
fffffff9
fffffffe
fffffff5
ffffffff
00000000
00000002
00000001
fffffff9
00000004
00000005
00000000
00000009
00000000
fffffffe
00000003
00000009
00000000
00000004
fffffffc
00000001
fffffffd
fffffffd
00000002
ffffffff
fffffffa
fffffffc
00000000
fffffff7
00000005
00000008
00000000
fffffff5
00000005
fffffffe
ffffffff
00000004
00000006
fffffffe
00000001
fffffff5
fffffff9
fffffffb
fffffffa
fffffffa
fffffff6
00000000
00000005
00000000
fffffffe
00000005
00000002
fffffffc
00000007
00000000
00000005
fffffffe
00000001
fffffff5
00000001
fffffff7
00000003
fffffffc
0000000a
ffffffff
fffffffb
fffffff5
fffffff8
00000001
fffffffe
00000000
fffffffb
ffffffff
fffffff9
fffffffe
fffffffd
ffffffff
00000001
fffffff6
00000000
fffffffc
00000001
00000001
00000000
fffffff8
fffffff8
ffffffff
fffffff8
fffffff8
00000000
fffffffb
00000001
00000000
fffffffa
00000003
fffffffe
00000001
00000002
fffffffc
fffffffd
fffffffd
fffffff9
00000002
00000006
fffffffa
fffffff1
00000000
00000003
fffffff6
fffffffc
00000003
00000001
fffffffa
fffffffc
fffffffa
00000004
fffffffb
00000001
00000001
ffffffff
ffffffff
fffffffe
fffffffa
00000001
00000006
00000001
fffffff6
00000001
00000001
00000000
00000003
fffffffd
00000004
fffffffa
00000000
00000004
ffffffff
00000002
ffffffff
00000000
fffffff6
00000008
fffffffc
00000003
0000000c
00000005
ffffffff
00000000
fffffffe
fffffff5
00000003
fffffff9
00000003
fffffffe
ffffffec
00000009
fffffffd
fffffffd
fffffff7
fffffff6
00000008
00000003
00000000
fffffffd
00000008
00000005
fffffffd
fffffff8
00000003
00000004
00000001
fffffff9
00000009
00000000
00000000
ffffffff
fffffff9
00000006
fffffffa
fffffffb
00000001
fffffffe
fffffffc
ffffffff
00000002
fffffffd
fffffff7
00000003
00000003
00000001
00000001
fffffffb
fffffffe
fffffffd
00000000
00000003
fffffff6
00000007
00000000
00000005
00000002
ffffffff
00000003
00000002
00000001
ffffffff
fffffffe
00000004
fffffffd
00000000
fffffffd
00000001
fffffffd
ffffffff
fffffffd
00000000
00000003
ffffffff
ffffffff
00000000
00000003
00000000
00000002
00000000
00000002
00000006
fffffffe
00000000
00000003
00000000
00000000
00000002
00000002
00000002
00000002
00000002
ffffffff
00000001
00000002
00000006
00000000
00000000
00000000
00000002
00000001
00000000
00000003
00000001
00000001
00000001
ffffffff
00000000
00000000
00000002
00000005
00000002
00000002
ffffffff
00000000
00000004
00000003
00000000
ffffffff
fffffffe
fffffffd
fffffffe
00000000
00000000
00000005
00000000
00000002
00000006
00000000
00000006
ffffffff
fffffffe
ffffffff
00000001
ffffffff
00000004
00000005
00000002
00000000
00000002
00000003
00000000
00000001
00000000
00000000
00000004
00000000
00000003
00000007
00000000
ffffffff
00000000
00000001
00000000
fffffffc
fffffff7
fffffffe
00000004
ffffffff
00000002
00000001
00000003
00000006
00000003
00000000
ffffffff
fffffffe
00000003
00000001
00000004
00000001
fffffffe
00000004
00000002
00000003
00000003
00000001
00000004
00000000
00000002
00000004
00000003
00000000
fffffffd
fffffffe
00000000
fffffffc
00000005
00000004
00000002
ffffffff
00000001
00000000
00000001
00000000
00000001
00000000
ffffffff
00000003
00000000
00000000
00000000
00000003
fffffffe
00000000
00000000
00000000
00000000
00000004
00000002
00000000
00000004
ffffffff
00000000
00000003
fffffffe
fffffffd
00000002
ffffffff
fffffffe
00000002
00000001
00000001
00000000
00000000
ffffffff
fffffffe
00000000
fffffffc
fffffffe
ffffffff
fffffffc
00000003
00000007
ffffffff
fffffffa
ffffffff
fffffffd
fffffffb
00000007
fffffffd
fffffffe
00000000
00000001
00000000
fffffffd
00000003
00000004
00000000
ffffffff
ffffffff
00000000
fffffffc
00000000
ffffffff
00000003
00000003
00000000
00000004
00000000
fffffffe
00000006
00000002
00000004
00000001
00000001
00000000
00000000
00000008
00000001
00000009
00000001
00000001
00000000
00000000
00000002
00000003
00000004
00000002
00000000
fffffffe
fffffffe
00000000
fffffffd
00000002
00000000
00000001
00000001
00000008
00000000
fffffffe
ffffffff
00000006
00000002
ffffffff
00000000
00000003
00000005
00000002
00000000
00000001
fffffffb
ffffffff
ffffffff
fffffffe
00000000
ffffffff
00000001
00000003
00000000
00000000
00000000
00000001
00000000
00000000
ffffffff
fffffff5
00000001
fffffff8
fffffff5
fffffffc
00000002
00000000
ffffffff
fffffffa
00000007
fffffff9
00000000
fffffffa
fffffffd
00000008
00000000
fffffffd
00000002
fffffffd
fffffffb
00000003
00000001
00000003
0000000b
00000000
fffffff8
fffffffa
00000001
ffffffff
00000009
00000001
00000003
00000004
00000005
fffffff1
fffffff1
fffffffc
00000000
fffffffa
00000000
00000005
ffffffff
00000002
00000007
00000003
ffffffff
00000000
fffffff7
00000004
00000007
fffffffd
fffffff8
00000002
fffffffc
fffffffb
fffffffb
fffffff8
fffffffe
ffffffff
fffffff9
00000000
fffffffb
fffffffa
00000002
0000001e
fffffffe
00000005
fffffffc
fffffffc
fffffffd
fffffffd
00000006
fffffffd
ffffffff
fffffffe
00000000
00000002
00000003
fffffff9
00000004
00000009
fffffffb
fffffffe
00000000
fffffffe
fffffffc
fffffffd
00000000
fffffff9
00000000
00000005
fffffffb
00000000
00000004
fffffff9
fffffffd
fffffff9
fffffff9
00000001
fffffff9
00000001
00000002
fffffffe
00000004
fffffff8
00000005
00000003
00000006
00000005
00000007
ffffffff
fffffffc
fffffffa
00000000
00000000
fffffffe
fffffffe
00000001
fffffffe
00000007
fffffffb
fffffffe
ffffffff
00000004
00000003
fffffffd
00000005
fffffff9
00000000
fffffffd
fffffffa
00000002
00000003
fffffffd
00000002
00000009
00000004
fffffffe
ffffffff
fffffffd
fffffffa
00000000
fffffffd
fffffffb
00000006
00000000
00000001
fffffffd
ffffffff
00000001
00000000
ffffffff
fffffffb
00000001
00000001
00000001
00000003
00000001
fffffff9
00000001
00000001
00000005
00000008
00000000
00000004
00000003
fffffffe
00000000
00000003
00000005
00000000
fffffff3
00000005
00000001
fffffffe
fffffffe
00000006
fffffffc
fffffff9
00000000
00000002
fffffff9
fffffffb
fffffff8
00000004
00000006
00000008
fffffffe
00000000
00000002
00000006
00000000
fffffff7
00000001
fffffff8
fffffffc
fffffff9
00000000
00000008
fffffff9
fffffffd
00000009
fffffff7
fffffff8
fffffffd
00000000
00000003
ffffffff
fffffffa
fffffffb
fffffffe
fffffffc
00000003
fffffffe
00000003
00000011
fffffffa
fffffffe
fffffff6
00000001
fffffff8
fffffff8
00000000
fffffffd
00000000
fffffffc
ffffffff
00000004
fffffff5
00000004
00000000
fffffffd
fffffffc
fffffffc
fffffff3
00000001
00000000
fffffffe
00000007
fffffffa
00000000
00000006
00000002
fffffffd
fffffffe
fffffffa
fffffff7
fffffffa
fffffff9
00000000
fffffffd
fffffffd
00000000
00000006
00000004
00000001
00000001
fffffff8
fffffff3
00000007
00000004
00000031
fffffff9
fffffff5
fffffff6
00000002
00000006
00000004
fffffff8
fffffff3
00000003
00000008
fffffff1
fffffffd
ffffffe0
fffffffe
fffffffc
fffffff3
0000000c
fffffff2
00000004
00000001
00000002
00000003
00000002
fffffffc
00000010
fffffffd
0000000c
00000009
00000021
fffffffa
00000004
ffffffff
00000002
fffffff0
00000008
fffffff4
ffffffea
fffffff3
0000000b
00000005
ffffffed
fffffff8
fffffffd
fffffffe
ffffffe1
ffffffc8
fffffff0
fffffff6
00000012
fffffff5
0000000a
fffffff8
00000015
fffffffd
ffffffe7
00000002
0000001c
00000000
fffffffe
fffffff7
0000000f
fffffff1
fffffff6
fffffff2
fffffff5
00000002
00000002
fffffffb
0000000a
fffffff4
fffffff6
fffffffe
00000000
fffffff6
ffffffeb
00000007
ffffffef
00000002
fffffff8
ffffffff
ffffffec
00000007
00000005
00000004
ffffffee
0000002e
fffffffe
fffffff2
fffffffb
fffffff5
fffffff3
00000002
ffffffff
fffffff1
fffffff9
0000000a
fffffff6
00000011
fffffff3
0000000e
ffffffdf
fffffff8
fffffff4
00000000
00000001
00000002
fffffff6
00000008
fffffff2
fffffff2
0000000b
fffffff3
00000005
fffffff2
00000005
00000011
0000000b
0000000c
00000003
ffffffdf
00000008
00000024
00000000
fffffffc
0000000f
fffffff0
00000000
fffffff5
fffffff8
fffffff6
fffffff7
fffffffb
ffffffef
ffffffd2
fffffffc
00000003
00000031
fffffff6
00000008
fffffff5
00000001
00000004
00000007
fffffffb
fffffff9
00000000
fffffffa
00000003
00000004
00000001
00000000
fffffffe
fffffff4
00000008
0000000c
00000006
00000009
00000009
fffffffe
00000009
ffffffea
00000001
00000013
00000000
00000019
fffffff3
00000019
00000015
fffffffa
00000012
fffffff2
ffffffd5
0000000e
fffffffa
fffffff2
ffffffe4
00000011
fffffff0
fffffff5
ffffffed
ffffffff
00000009
00000006
00000007
ffffffe7
fffffff4
00000003
fffffffe
fffffff7
0000001e
fffffff3
fffffffa
0000001b
0000000c
fffffff6
fffffff9
00000002
00000002
fffffff5
00000000
ffffffe2
fffffff0
0000000a
0000000f
fffffff3
0000000b
00000000
00000010
00000002
fffffffe
ffffffea
fffffff7
fffffffb
ffffffdf
fffffff3
fffffff5
00000002
fffffff5
00000000
ffffffff
00000008
fffffff6
ffffffd5
fffffffe
fffffff7
fffffff8
0000000a
ffffffff
00000009
fffffffd
ffffffeb
00000009
00000007
00000003
00000001
fffffff3
00000004
00000004
00000004
fffffffb
00000002
fffffff1
00000015
00000001
fffffffa
00000004
00000019
00000005
fffffffc
00000007
00000000
00000005
fffffff1
00000007
fffffff9
fffffff4
ffffffe0
00000000
0000000b
0000000f
00000016
00000001
00000005
00000003
00000004
ffffffff
fffffff1
fffffffe
fffffffb
00000000
00000006
fffffff5
fffffff3
00000002
ffffffec
ffffffff
0000000c
fffffff8
fffffffc
0000000b
ffffffeb
00000008
fffffff6
00000004
0000001a
fffffff9
00000002
00000009
fffffff3
fffffff3
00000003
00000015
fffffffa
fffffff5
00000003
00000002
fffffff5
ffffffe5
ffffffec
00000004
00000007
00000017
00000011
fffffff5
fffffff1
fffffff7
00000006
fffffffe
00000014
00000005
fffffffd
00000003
00000012
0000000f
fffffffb
ffffffdd
fffffff8
00000011
ffffffff
00000003
fffffff8
fffffff3
0000000b
fffffffb
fffffffb
00000003
fffffff6
00000011
fffffff9
fffffffc
fffffffc
00000002
0000001a
00000006
fffffff3
00000025
00000001
fffffff2
fffffff5
fffffffc
00000001
ffffffe1
ffffffff
fffffffc
00000000
00000012
fffffff2
fffffffe
fffffff3
0000000a
00000005
ffffffe9
00000001
0000000a
fffffff3
ffffffff
00000007
00000006
ffffffff
0000000f
ffffffea
00000022
0000000e
00000008
fffffff0
fffffffa
00000005
00000003
fffffffe
fffffff4
fffffffb
00000009
00000011
00000007
00000003
00000013
fffffff5
00000008
00000004
ffffffee
00000018
ffffffe5
fffffffb
00000005
fffffffc
0000000c
00000003
0000000a
00000001
00000004
00000005
00000003
fffffffe
fffffff8
00000000
fffffffb
fffffff5
fffffff9
00000008
fffffff2
fffffff2
fffffffb
00000005
ffffffe6
00000000
fffffff7
00000002
00000001
fffffffd
0000001c
fffffffc
00000002
fffffffd
fffffff4
0000000e
00000004
00000012
00000000
00000008
0000000d
00000021
fffffffe
00000005
fffffff4
fffffffb
00000009
fffffff4
ffffffcb
ffffffea
fffffff4
fffffffa
fffffff4
00000005
ffffffe9
fffffffe
fffffff8
fffffffb
ffffffee
0000000c
fffffffe
00000003
fffffffc
0000001c
00000000
0000000b
0000000a
00000000
00000002
0000001f
0000000f
00000006
ffffffee
0000000e
00000015
0000000b
00000022
0000000a
fffffff9
0000000d
0000001c
00000003
fffffff0
00000007
00000019
fffffffc
00000003
0000000c
fffffff0
fffffffa
00000009
00000006
fffffffd
fffffff9
fffffffc
00000001
fffffffe
ffffffd6
fffffffb
ffffffd0
fffffff5
00000002
00000000
ffffffe2
fffffff4
00000000
fffffffa
fffffffd
00000029
00000002
00000000
00000001
00000002
0000000a
fffffff6
fffffff5
00000009
fffffff1
ffffffe6
00000025
ffffffef
0000000e
fffffff7
fffffff6
00000015
00000000
00000011
ffffffe6
00000012
ffffffff
ffffffed
00000003
0000000e
fffffffb
00000006
fffffffb
00000002
0000000c
fffffff0
00000001
fffffff8
00000005
00000002
00000000
ffffffff
fffffffb
00000007
fffffff9
00000008
0000000e
ffffffff
00000006
00000000
00000002
fffffff8
fffffffd
fffffffe
00000011
fffffffa
00000019
00000000
ffffffee
fffffff7
fffffffb
ffffffe8
fffffffd
00000000
00000015
ffffffee
ffffffef
ffffffed
0000000f
fffffff6
fffffff7
00000000
00000007
fffffffc
fffffff5
fffffff1
ffffffef
00000006
0000001a
00000015
00000005
00000021
00000008
00000002
fffffffe
00000001
00000008
fffffffd
fffffff8
fffffff6
00000000
00000005
00000014
00000003
00000000
fffffffa
00000013
fffffff2
fffffff9
00000007
0000000a
fffffff2
fffffff6
fffffff1
00000021
ffffffee
ffffffe9
fffffffa
00000009
fffffffd
ffffffff
fffffff9
00000004
fffffff9
00000000
fffffffe
0000001a
fffffffa
fffffff5
fffffff5
00000005
0000000f
fffffff8
fffffff3
fffffff3
ffffffee
00000011
ffffffe0
fffffff5
fffffff9
fffffffd
00000000
00000009
00000003
fffffff6
fffffffd
0000001e
00000003
fffffff8
00000001
00000004
fffffff3
00000011
00000003
0000000d
fffffffe
fffffffd
fffffffa
ffffffe2
fffffffc
00000002
ffffffd5
0000000f
00000007
ffffffe0
ffffffe0
00000008
fffffff1
fffffff5
fffffffe
ffffffdf
00000002
fffffffc
fffffffe
00000000
ffffffff
fffffff8
00000000
fffffff6
00000023
00000003
fffffff1
ffffffe7
00000007
0000000a
fffffffc
fffffffd
00000004
fffffffc
00000002
00000005
fffffff8
00000006
0000000b
00000013
00000005
00000002
ffffffef
fffffffc
fffffffd
fffffff2
fffffffb
fffffffb
fffffffa
00000000
00000002
fffffffd
00000012
00000006
0000001e
00000005
0000000d
00000009
fffffffb
fffffff6
00000012
00000000
0000000a
fffffff1
ffffffeb
00000006
ffffffe8
ffffffef
fffffff7
ffffffff
00000009
ffffffea
fffffff5
0000000e
00000000
0000000d
fffffffd
ffffffe4
00000000
ffffffee
fffffff9
ffffffff
00000006
ffffffee
ffffffea
00000000
fffffffa
fffffff8
fffffffa
ffffffe6
fffffff6
fffffffd
00000002
00000010
fffffffc
00000007
fffffff6
00000002
00000006
00000005
00000002
fffffff6
00000006
fffffff8
fffffff9
fffffff3
00000001
00000007
fffffff3
fffffff7
00000000
fffffffd
ffffffe8
ffffffe4
fffffffd
fffffff0
00000005
fffffffe
00000003
00000000
00000006
fffffff9
00000030
fffffff3
fffffff7
00000001
0000000d
ffffffe7
fffffffe
0000000e
fffffffe
ffffffe7
ffffffff
00000006
ffffffdd
00000010
fffffffd
fffffff5
fffffff8
fffffff8
ffffffe4
fffffffe
fffffff3
00000011
fffffffe
fffffffa
00000022
00000003
fffffffd
0000000d
fffffff9
fffffff5
fffffffd
ffffffd9
0000000b
fffffffd
fffffff5
fffffff7
0000000f
00000008
fffffffe
00000000
00000007
fffffffa
fffffff7
fffffff0
fffffffc
fffffffc
ffffffeb
0000000d
fffffff5
fffffffd
fffffff2
00000018
fffffff8
fffffff7
0000001b
00000000
00000003
00000018
00000005
fffffffc
fffffff1
00000008
fffffff0
0000000d
fffffff6
0000001e
00000000
00000012
fffffffe
0000000d
fffffffe
00000004
0000000a
fffffff6
fffffffb
00000009
00000005
ffffffff
00000004
fffffffa
fffffffe
00000009
ffffffe3
ffffffe1
00000004
fffffff6
fffffff4
00000005
fffffffe
00000009
fffffff5
fffffffe
0000000f
fffffff3
00000006
ffffffe7
0000000d
ffffffec
ffffffea
fffffff6
ffffffe6
fffffffe
0000000a
00000005
fffffff7
fffffff3
fffffffc
00000002
fffffff4
fffffff8
ffffffe7
fffffff9
00000009
0000000d
0000000c
fffffff3
fffffff9
00000007
fffffffb
fffffffa
fffffffc
fffffffd
ffffffff
00000015
fffffff2
00000007
00000001
fffffff2
00000009
fffffff3
00000001
00000004
0000000b
ffffffff
0000001d
fffffffb
fffffffc
00000009
fffffffb
0000000f
00000021
fffffffd
fffffff0
ffffffff
00000019
0000001c
00000007
fffffff1
ffffffe0
ffffffe3
fffffff7
fffffffa
00000009
fffffffb
fffffff2
0000001d
0000000a
00000004
00000017
0000002a
fffffff5
00000000
ffffffff
00000019
fffffffc
fffffffd
ffffffef
00000004
fffffff4
00000000
00000001
fffffffd
00000014
ffffffe9
fffffffa
00000011
fffffff8
fffffffa
0000000e
00000002
00000008
fffffff9
00000000
00000003
00000020
00000000
0000001d
0000000f
00000003
00000007
fffffffe
00000021
00000015
fffffffa
fffffff6
fffffff7
fffffffb
fffffffe
00000009
0000000e
ffffffe3
0000001b
fffffffd
0000000f
ffffffe8
ffffffca
00000006
fffffffd
00000009
00000001
00000005
fffffff7
0000000c
fffffffb
00000005
fffffffe
fffffff2
fffffffd
ffffffeb
0000000f
00000001
fffffffc
0000001a
fffffffc
00000003
00000000
ffffffea
00000003
fffffffc
fffffff1
00000002
fffffff4
fffffff5
0000000c
00000000
fffffffa
00000000
ffffffff
00000003
00000010
fffffff4
00000003
fffffffb
00000002
00000008
ffffffe2
00000020
00000003
00000001
00000009
ffffffe9
00000002
fffffffd
fffffff9
fffffffa
ffffffef
ffffffe8
00000015
fffffffe
00000012
00000006
fffffff7
0000000b
00000002
fffffff3
ffffffff
fffffffb
00000006
00000004
fffffff4
00000003
fffffff5
fffffffe
fffffffa
00000013
00000004
fffffffe
00000008
fffffffd
fffffff4
fffffff6
fffffff8
0000000b
fffffffe
fffffffd
fffffff8
fffffffd
00000020
00000001
fffffff8
00000000
fffffffb
00000000
00000000
fffffffb
00000005
00000002
ffffffff
fffffff9
0000000b
fffffffb
ffffffff
00000017
00000001
ffffffe9
ffffffff
fffffff9
fffffff4
fffffffd
00000005
fffffffd
00000001
0000000b
00000005
00000002
0000000e
00000014
fffffff8
0000000c
00000006
00000011
00000009
fffffff7
fffffffe
00000009
fffffff0
ffffffef
00000004
fffffff3
ffffffff
fffffffa
00000010
0000000d
fffffff7
ffffffff
0000000e
00000013
0000000f
00000000
fffffffb
00000000
fffffff6
00000004
ffffffff
00000003
fffffff7
fffffffd
fffffffc
00000000
00000009
fffffffb
ffffffdb
00000000
ffffffe6
00000002
00000006
fffffff1
fffffffa
00000003
fffffffa
ffffffeb
fffffffd
00000002
fffffff8
00000003
00000002
00000000
fffffff7
ffffffe2
fffffffc
fffffff0
00000000
00000007
ffffffec
00000009
ffffffe7
fffffffe
00000001
0000000c
ffffffef
00000005
00000018
00000001
fffffff9
fffffff0
00000008
00000005
fffffff4
fffffff0
0000000f
fffffff5
00000000
00000014
ffffffef
fffffff8
00000004
ffffffe8
fffffff9
00000000
fffffffd
ffffffd6
fffffffc
fffffffe
fffffff1
0000000a
ffffffe2
00000001
0000000b
00000000
fffffff5
00000004
fffffff0
0000000b
fffffff6
00000025
fffffffc
00000004
ffffffe5
fffffff3
fffffffe
00000000
0000000c
fffffffb
00000016
0000000d
fffffffb
00000009
00000000
fffffff7
fffffff7
00000002
00000003
fffffffa
00000009
00000000
00000001
00000002
fffffffb
fffffffb
fffffffa
fffffffb
ffffffff
fffffffb
00000005
0000000a
00000010
ffffffef
0000000e
00000003
fffffffb
ffffffef
00000002
00000000
fffffff3
00000002
00000007
00000004
fffffffa
0000000d
ffffffe4
00000009
0000000c
fffffff6
00000003
00000002
0000000a
00000005
00000000
00000009
00000009
fffffff0
fffffffb
00000000
fffffff5
fffffffa
00000000
ffffffff
0000000d
0000000a
fffffff8
ffffffe9
fffffffd
00000007
00000002
fffffffc
fffffffb
fffffffa
fffffffa
fffffff5
00000016
fffffffe
fffffff9
00000004
fffffff8
00000000
00000032
fffffff2
fffffffa
fffffffd
00000000
00000011
ffffffff
0000001a
00000000
00000003
0000000d
0000000c
00000007
fffffff6
00000002
0000000b
00000003
00000026
00000001
fffffff9
fffffffb
fffffff5
00000003
fffffffe
fffffff0
fffffff7
00000006
fffffffa
00000002
fffffffe
00000008
00000008
fffffffd
fffffffb
fffffffc
00000005
fffffffe
fffffffc
00000000
fffffffe
fffffff9
00000000
00000001
fffffffe
0000000a
00000004
00000001
fffffffe
fffffffa
00000000
00000007
00000000
fffffffe
fffffff9
fffffffe
00000002
fffffffc
0000000f
ffffffff
fffffffe
00000009
00000006
fffffff9
00000002
fffffff3
fffffffa
00000008
00000006
fffffff8
00000008
00000001
fffffff7
0000000a
00000001
00000000
00000001
fffffffc
00000006
fffffffa
fffffffc
00000005
0000000c
00000000
fffffff7
00000001
00000002
fffffffa
00000000
fffffffd
fffffffd
fffffffd
fffffffa
fffffffe
00000001
00000002
00000002
00000005
fffffff7
00000005
fffffffc
ffffffff
00000000
00000002
fffffffb
00000000
00000006
00000000
fffffffc
00000001
00000003
00000002
00000005
00000008
00000002
fffffffe
fffffffd
00000005
00000007
00000002
fffffffc
fffffffe
00000000
fffffffc
ffffffff
fffffffd
fffffffc
fffffffa
fffffffe
00000000
00000003
00000002
00000007
00000006
00000006
fffffff7
fffffffc
00000000
00000000
ffffffff
00000000
00000000
00000000
fffffffc
ffffffff
fffffff6
00000002
fffffffa
00000008
00000000
fffffffe
fffffffa
00000000
fffffffc
00000003
00000000
00000000
fffffffd
fffffff8
00000001
00000000
00000001
fffffff9
fffffffc
00000000
00000003
fffffffc
fffffffc
fffffffd
fffffffd
00000008
00000004
00000006
00000000
00000004
fffffffb
ffffffff
00000005
00000000
00000002
00000010
00000000
fffffffc
00000005
ffffffff
fffffffa
00000005
fffffffa
0000000b
fffffffc
00000004
fffffffc
fffffff8
0000000a
00000005
00000001
00000005
fffffff5
00000000
fffffff9
fffffffb
fffffffc
fffffffd
00000004
00000005
fffffffd
ffffffef
00000002
00000007
fffffff2
ffffffff
00000002
fffffffd
00000000
fffffffd
fffffffe
fffffffe
fffffff8
fffffffd
00000000
fffffffe
fffffffb
00000003
fffffff7
fffffffe
fffffffc
fffffff6
00000000
fffffffc
00000001
00000000
fffffffd
00000004
ffffffff
00000000
00000004
ffffffff
fffffff7
00000008
00000003
00000001
fffffff6
fffffffb
00000004
ffffffff
00000000
00000007
0000000e
00000006
00000007
fffffffc
fffffff4
00000000
0000000a
00000002
00000008
00000005
00000000
00000006
fffffff4
ffffffff
00000000
fffffffc
fffffff5
00000000
ffffffff
00000005
00000003
fffffffa
00000009
ffffffff
ffffffff
fffffffa
00000000
fffffffa
00000000
fffffffb
fffffff9
00000007
fffffffc
00000000
00000001
fffffff8
ffffffff
fffffffb
00000008
fffffffa
fffffffb
00000005
00000003
00000000
fffffff9
fffffffd
00000004
00000001
00000000
fffffffc
fffffff7
fffffffa
00000001
fffffff8
fffffffb
fffffffc
fffffffb
00000000
fffffff5
00000004
00000000
fffffffd
fffffffa
00000003
00000001
00000003
0000000a
fffffff9
fffffff6
00000004
fffffffb
fffffffd
00000003
00000000
00000005
fffffff7
ffffffff
fffffffa
fffffff9
00000002
00000002
00000007
00000005
00000004
00000000
00000000
fffffff7
fffffffd
fffffffc
ffffffff
fffffffa
00000001
00000001
fffffff4
fffffffd
00000000
00000003
fffffffe
00000000
ffffffff
00000000
00000001
00000001
fffffffd
00000012
00000001
fffffffc
fffffffd
00000007
00000009
00000012
fffffffe
fffffffd
fffffffc
fffffff8
0000000c
fffffffd
fffffffc
fffffffe
ffffffff
fffffff7
00000001
00000002
00000004
fffffff8
fffffffb
fffffffe
0000000c
00000007
00000000
00000004
00000000
fffffffa
00000000
00000003
ffffffff
fffffffc
ffffffff
00000000
00000001
ffffffff
fffffffe
0000000b
00000003
fffffffd
00000004
fffffffc
00000007
ffffffff
fffffffd
fffffffa
fffffffd
fffffffd
fffffffe
fffffff9
00000003
00000001
fffffffc
fffffff9
fffffff1
fffffffd
00000005
00000005
00000000
00000000
00000005
ffffffff
ffffffff
00000005
00000001
00000000
00000000
fffffffc
ffffffff
ffffffff
fffffffd
00000003
00000001
00000000
00000002
fffffffc
ffffffff
fffffffa
fffffffd
fffffffa
00000001
00000001
00000004
00000002
fffffffc
fffffff9
00000004
fffffff8
00000009
ffffffff
00000000
fffffffd
ffffffff
fffffffa
00000000
fffffff4
ffffffff
00000004
00000003
fffffffd
00000000
fffffffe
fffffff9
fffffff4
00000002
0000000a
fffffff6
00000007
fffffffa
fffffff9
00000004
00000003
00000003
ffffffec
fffffffc
00000000
00000000
00000000
fffffff7
fffffffb
00000000
00000001
00000001
fffffff8
fffffff9
00000000
fffffffa
fffffff9
00000000
fffffffc
00000003
00000001
00000000
00000006
ffffffff
ffffffff
ffffffff
fffffffa
00000001
00000000
00000001
fffffff5
fffffffd
fffffff8
00000000
00000005
ffffffff
fffffff9
fffffffd
00000001
00000006
00000000
ffffffff
ffffffff
fffffff8
00000001
00000003
fffffffd
00000002
ffffffff
fffffffb
ffffffff
ffffffff
fffffff2
fffffffc
fffffffa
fffffffe
fffffff4
fffffff3
fffffff1
ffffffff
00000000
00000004
fffffffd
fffffffc
fffffffe
fffffffc
00000001
00000001
fffffff7
00000001
00000000
fffffffd
ffffffff
fffffff8
00000000
00000000
00000000
ffffffef
fffffffd
fffffff1
00000009
fffffff7
fffffff8
00000012
fffffff7
ffffffff
fffffff1
0000001f
ffffffed
fffffffe
0000000b
00000013
ffffffff
00000002
00000002
00000014
fffffff1
fffffff2
fffffff8
00000004
00000005
fffffff3
00000003
fffffffb
fffffff8
00000000
00000004
0000000a
fffffff3
00000002
fffffffe
fffffff7
00000004
0000000b
fffffff4
00000002
00000002
0000000a
00000020
ffffffec
ffffffed
00000002
00000002
00000019
fffffff6
00000013
0000000b
00000022
00000001
0000000a
00000001
0000000d
00000008
00000000
00000016
ffffffff
00000027
ffffffe0
0000000c
00000002
00000013
0000000a
0000000b
00000002
00000005
00000029
fffffffc
00000009
00000004
ffffffeb
00000001
0000000a
fffffff4
ffffffff
0000000c
0000000e
fffffff2
00000006
0000000a
fffffff7
fffffff6
fffffff8
fffffff6
00000009
00000015
fffffff6
ffffffe3
fffffffe
00000001
00000011
ffffffe9
ffffffe9
00000001
00000005
00000006
00000004
fffffffe
00000000
00000000
00000007
fffffffb
00000012
00000006
ffffffeb
00000018
00000002
fffffff5
fffffffc
00000009
fffffff4
fffffff2
00000003
ffffffd5
00000004
00000006
00000002
00000000
fffffffc
00000001
fffffff6
ffffffec
00000003
fffffffa
fffffff8
00000010
00000010
00000009
00000000
ffffffef
fffffffb
00000015
00000012
0000000c
fffffffa
00000004
0000001c
00000026
00000007
00000005
0000000f
00000005
00000000
ffffffee
00000008
00000008
00000007
00000009
fffffffa
ffffffec
00000000
fffffffa
fffffff6
fffffffb
00000014
fffffffd
fffffff5
fffffffa
ffffffe9
00000002
ffffffdb
00000000
fffffffa
fffffff2
00000026
fffffff4
fffffffa
00000008
00000009
00000000
00000000
ffffffed
fffffff1
0000000f
fffffffd
00000004
fffffff8
ffffffff
fffffff3
fffffffa
00000004
00000002
00000006
00000007
00000005
fffffff0
fffffff7
fffffffb
fffffff9
0000000b
0000000b
00000009
00000024
fffffffa
00000001
00000006
00000007
00000000
fffffffc
0000000e
00000000
fffffffe
fffffffa
00000010
fffffffb
fffffffb
00000020
0000001a
00000006
00000004
ffffffff
0000000a
00000015
00000005
0000001e
ffffffe7
fffffffd
fffffff9
00000006
00000003
ffffffe9
fffffff9
00000005
0000000f
fffffffd
fffffff2
fffffffd
00000022
00000013
fffffff4
00000007
ffffffff
fffffff7
00000006
fffffff3
00000009
0000000c
fffffff8
ffffffe8
fffffff8
00000006
fffffff1
00000004
00000001
ffffffe1
00000003
fffffff7
00000001
00000007
fffffff3
00000004
0000000c
00000006
0000000a
fffffffd
0000000a
ffffffff
00000006
00000000
fffffffe
fffffffd
00000004
0000000b
fffffff8
fffffff4
00000006
00000009
fffffff6
00000000
00000001
fffffffc
fffffffd
ffffffff
ffffffff
fffffffd
00000012
00000008
00000000
0000000a
fffffff1
00000005
fffffffe
fffffffd
fffffffd
00000006
fffffff8
00000005
fffffff9
fffffff9
fffffffc
00000000
fffffffc
fffffffb
00000000
00000007
00000001
fffffff5
0000000e
0000000b
fffffff1
fffffffb
00000006
00000001
00000000
00000000
00000005
00000006
ffffffff
fffffffd
00000001
00000008
fffffff6
00000000
00000009
fffffffe
00000003
00000001
ffffffff
fffffffc
00000000
00000003
0000000d
00000005
00000000
ffffffec
ffffffff
ffffffe9
00000003
00000001
00000001
fffffffa
00000000
fffffff6
00000005
fffffff9
00000005
00000001
00000009
ffffffff
00000000
fffffffe
fffffffb
fffffffb
00000000
fffffffe
fffffffc
0000000f
ffffffff
0000000e
00000007
00000004
fffffffb
00000000
00000000
00000004
00000008
00000009
00000004
fffffff6
00000002
0000000b
fffffffa
00000006
0000000d
fffffffd
00000000
00000003
00000006
fffffffb
00000003
00000003
fffffffe
00000000
00000003
00000001
fffffffd
fffffffd
fffffffe
fffffffe
00000004
00000001
fffffff6
00000003
fffffff5
00000004
fffffffd
00000000
fffffff7
fffffff9
00000004
00000003
fffffff8
fffffff2
0000000e
00000006
00000006
00000002
fffffffa
fffffffd
0000000b
fffffffb
fffffffe
fffffff8
fffffffe
fffffffc
00000001
fffffff4
fffffff7
00000001
fffffffd
fffffff5
00000007
00000004
fffffffe
fffffffc
fffffffb
00000001
00000000
fffffff5
00000000
fffffffd
fffffffa
00000005
fffffff4
fffffffe
00000005
00000003
00000008
ffffffff
fffffff3
00000004
00000006
00000010
00000005
00000008
fffffffe
00000001
ffffffff
fffffff4
0000000d
00000001
ffffffff
fffffffd
00000004
00000007
ffffffff
00000002
fffffff6
00000006
fffffff8
ffffffff
00000005
00000000
00000005
00000001
fffffffd
fffffff8
fffffffa
fffffff7
00000000
00000004
ffffffff
fffffffc
fffffff1
00000000
fffffffe
ffffffff
fffffffc
00000008
fffffff6
00000007
fffffffe
00000003
fffffff7
fffffff9
fffffffd
0000000b
00000000
00000000
fffffffe
fffffffe
fffffffc
00000001
fffffff3
00000004
ffffffe2
00000001
fffffffa
00000005
ffffffff
00000009
ffffffff
00000000
00000000
0000000d
00000000
fffffff8
fffffffd
00000001
00000000
00000001
fffffff9
00000005
00000002
00000000
00000005
fffffff2
ffffffff
00000000
00000003
fffffffb
00000006
ffffffe5
ffffffff
fffffffe
fffffffe
00000009
fffffffa
fffffffb
fffffffa
fffffffe
ffffffe6
00000004
fffffffd
0000000e
ffffffe8
00000014
fffffffd
fffffff1
fffffffe
fffffffe
ffffffff
fffffffa
ffffffff
fffffffc
00000002
00000003
fffffffc
ffffffef
fffffffd
00000007
fffffff1
00000000
00000008
00000004
00000000
fffffffe
ffffffee
00000008
00000000
fffffffb
ffffffe7
00000000
00000000
0000001e
fffffff6
00000003
0000000e
00000000
fffffffc
fffffff5
fffffff8
fffffffb
00000010
fffffff7
00000014
0000000d
00000003
fffffff1
00000002
ffffffe1
fffffff3
00000002
00000006
00000004
00000002
fffffff9
00000000
00000010
fffffffc
00000011
00000004
fffffff7
00000007
00000010
fffffffc
fffffff9
fffffff6
0000000a
ffffffdc
00000007
fffffffa
00000000
fffffff0
fffffffc
fffffff7
00000008
fffffff4
fffffff5
fffffff5
0000000d
ffffffff
fffffff6
00000003
00000001
00000006
00000002
fffffffe
0000000b
fffffff7
ffffffe4
00000001
ffffffec
00000002
ffffffe9
00000006
00000002
0000000b
fffffff5
00000016
00000000
fffffff3
ffffffec
fffffff3
fffffff9
0000001a
00000000
fffffffb
ffffffef
00000002
ffffffff
0000000b
00000025
00000003
00000014
00000001
fffffff8
00000005
fffffffe
fffffff9
00000011
fffffffb
fffffff0
fffffff8
00000035
fffffffa
00000003
00000000
00000007
00000001
fffffff1
fffffff7
ffffffef
00000006
fffffffe
fffffff7
fffffffc
fffffffe
00000005
fffffffd
00000000
fffffffa
0000000a
fffffff9
fffffffd
00000004
00000001
ffffffe6
00000004
00000007
00000000
00000000
0000000e
fffffff2
00000000
00000003
0000000d
fffffff4
fffffff9
00000006
fffffffe
00000009
00000005
00000003
00000008
00000000
00000000
00000006
0000000f
fffffffd
00000001
fffffffe
fffffffa
fffffff7
ffffffef
ffffffed
00000005
00000000
fffffff0
fffffffe
ffffffe7
00000010
fffffff5
ffffffed
ffffffee
00000013
00000007
00000008
fffffff9
fffffffa
fffffffb
00000015
00000017
fffffff9
fffffffa
00000002
0000000f
fffffff7
fffffff8
fffffff7
00000001
00000004
0000000b
00000004
00000004
00000005
0000000e
ffffffff
00000005
fffffffe
0000000a
00000002
00000007
fffffff3
00000003
00000003
fffffff7
00000005
00000007
ffffffe4
ffffffe9
fffffffb
fffffffb
fffffffd
00000008
fffffff1
00000011
00000003
fffffffb
ffffffec
00000002
ffffffef
00000001
fffffffd
fffffffa
fffffff8
ffffffdc
0000000d
fffffff8
fffffffe
00000008
00000004
fffffff9
00000019
fffffff8
fffffff3
00000003
ffffffff
00000003
00000003
00000006
00000002
00000003
00000007
fffffff8
00000003
fffffffe
00000000
00000004
00000000
00000000
00000000
00000000
00000001
00000004
00000008
fffffffb
00000001
00000006
00000007
fffffffd
00000005
00000006
00000001
ffffffff
fffffffc
00000002
fffffffe
00000005
fffffffd
00000003
00000002
fffffffd
00000000
fffffffb
0000000a
ffffffff
00000001
00000001
fffffff9
fffffffa
fffffffb
fffffff9
00000001
fffffffd
ffffffff
00000001
00000006
00000000
fffffffe
00000006
fffffff8
fffffff9
fffffffb
00000000
00000000
00000000
00000006
00000003
00000001
fffffffe
00000004
fffffff7
fffffffa
fffffffc
00000005
fffffff4
00000005
fffffffe
fffffffc
00000000
ffffffff
00000001
00000006
00000003
fffffff7
00000008
00000000
00000004
00000005
00000007
00000000
00000006
fffffff9
00000003
00000002
ffffffff
fffffff9
fffffffc
fffffffe
ffffffff
00000001
00000004
00000005
00000003
00000006
fffffffc
00000005
00000000
00000006
fffffffd
fffffff5
fffffffa
00000004
0000000a
fffffffb
fffffffe
00000005
00000001
fffffffb
00000004
fffffffb
00000000
00000001
fffffffe
fffffffb
fffffffa
fffffff8
fffffffe
00000000
fffffffe
fffffffd
fffffff9
fffffff8
fffffffd
00000002
fffffffa
00000000
00000007
00000006
ffffffff
00000001
00000002
00000005
00000004
fffffff9
ffffffff
0000000a
fffffffb
00000000
00000006
fffffff5
fffffffa
00000000
00000000
00000000
00000003
00000004
00000003
fffffffc
fffffff8
fffffffa
00000000
00000000
fffffffc
00000002
fffffff9
fffffffe
fffffffd
fffffffb
00000004
00000007
00000002
ffffffff
ffffffff
fffffffb
0000000c
fffffffc
fffffffc
fffffffb
00000004
00000001
fffffffd
00000006
fffffffe
00000009
00000000
fffffff7
00000000
fffffff8
00000000
00000005
fffffffd
00000009
fffffff9
fffffffe
fffffffc
00000001
00000000
fffffff9
fffffffe
fffffffe
00000007
fffffffe
00000002
00000000
00000004
00000000
00000004
00000005
00000009
ffffffff
fffffff8
fffffffd
00000004
fffffffc
fffffffe
00000008
fffffff9
ffffffff
fffffff8
ffffffff
00000000
ffffffff
00000000
00000001
fffffffd
fffffffb
fffffff7
fffffffd
fffffffa
00000001
00000000
fffffff7
00000006
fffffffc
fffffffb
fffffffd
0000000a
00000000
fffffffd
00000000
fffffffa
00000005
00000006
00000008
ffffffff
ffffffff
00000002
00000003
00000001
00000001
00000000
00000000
00000004
fffffff9
ffffffff
fffffffa
fffffffe
00000000
fffffffc
fffffffe
0000001a
fffffff9
00000004
00000000
00000018
00000007
00000000
00000001
00000000
fffffffb
fffffffe
00000001
00000009
00000001
fffffffa
00000001
fffffffa
0000000e
fffffffe
fffffff8
fffffff8
fffffff8
00000006
00000007
fffffffb
ffffffff
00000006
fffffffd
00000002
00000000
00000000
00000000
0000000b
fffffffe
fffffffc
00000000
fffffff9
fffffff9
fffffffc
00000000
00000000
ffffffff
fffffffd
ffffffff
00000002
fffffff6
ffffffff
fffffffb
00000002
00000005
ffffffff
00000005
fffffffe
fffffffd
fffffffc
fffffffa
ffffffff
00000000
fffffff8
00000000
fffffffc
fffffffe
fffffffb
00000003
fffffffe
fffffffc
fffffffc
00000004
00000001
00000004
fffffffe
ffffffff
ffffffff
fffffff9
fffffffd
00000002
fffffffa
fffffffa
fffffff9
fffffff7
0000000c
00000003
fffffffc
00000002
fffffffe
00000000
00000004
00000000
fffffffb
fffffffd
00000000
00000000
fffffffa
00000001
fffffff6
00000002
fffffffe
ffffffff
fffffff8
00000005
fffffff5
00000005
00000000
00000009
fffffffe
00000000
fffffff9
fffffffd
00000000
fffffff9
ffffffff
00000000
00000000
00000000
00000004
fffffffb
fffffffe
00000001
00000000
00000000
00000000
00000000
00000003
00000000
ffffffff
00000014
00000018
fffffffa
00000001
fffffff8
00000000
fffffffa
fffffffe
00000000
00000001
00000001
fffffffc
00000000
ffffffff
fffffffe
00000000
00000000
00000002
fffffffe
fffffff7
00000001
fffffffa
00000001
ffffffff
fffffffd
fffffff8
fffffffa
00000001
fffffffa
fffffff5
00000000
00000007
ffffffff
00000001
00000005
fffffff9
00000000
fffffffd
00000006
fffffff6
fffffffb
fffffffe
00000000
fffffffd
00000000
fffffffe
00000004
00000005
fffffffb
00000002
fffffff6
00000005
fffffffc
fffffffc
00000002
00000000
fffffffe
00000000
fffffffd
00000004
00000005
fffffffa
0000000b
00000007
00000000
fffffffc
fffffffd
fffffffb
fffffff9
00000000
00000003
00000002
00000003
00000000
fffffffd
fffffffd
fffffffb
00000000
00000000
00000004
ffffffff
fffffffc
fffffffd
fffffffd
ffffffff
00000001
00000001
00000001
fffffffa
fffffffb
fffffffd
00000000
fffffffd
fffffffd
ffffffff
fffffffd
00000006
00000004
00000000
00000000
fffffff9
00000004
fffffffb
ffffffff
fffffffb
00000004
fffffffa
0000000c
00000000
00000007
fffffffc
fffffffc
00000000
00000002
00000000
00000000
00000006
00000001
fffffff7
00000004
ffffffff
fffffff9
00000000
fffffffc
fffffffd
fffffffd
fffffffb
00000001
00000007
00000003
ffffffff
00000003
00000001
ffffffff
00000001
00000007
00000000
fffffff8
ffffffff
00000003
00000002
00000007
00000000
00000002
00000000
00000000
00000000
fffffffb
fffffffd
00000007
00000003
00000005
fffffffd
fffffffe
00000003
fffffff9
fffffff9
fffffffd
0000000c
fffffffa
0000000c
00000004
fffffff6
00000003
fffffffe
00000009
00000005
00000008
ffffffea
ffffffef
00000002
00000001
ffffffff
00000000
00000007
0000000a
00000005
00000003
00000007
ffffffff
fffffffe
fffffffd
00000001
00000008
00000001
ffffffff
00000008
00000000
fffffffc
00000001
fffffffb
00000000
ffffffff
fffffffb
fffffffb
00000002
fffffffc
00000006
00000009
00000004
fffffffc
fffffff7
00000006
fffffffb
fffffffc
00000006
00000001
ffffffff
00000002
fffffff9
00000001
00000002
00000001
fffffffc
00000007
fffffffd
00000004
00000005
fffffffb
fffffffe
fffffffc
00000000
fffffffd
ffffffff
00000005
fffffffc
fffffffd
00000002
fffffffb
00000005
00000005
00000009
00000007
00000000
00000008
fffffffe
00000000
00000002
00000009
00000000
00000005
00000009
fffffffe
00000003
00000006
fffffffb
fffffffb
fffffffb
fffffffc
00000002
00000004
00000007
fffffffa
fffffffa
fffffffb
00000002
00000005
00000000
00000003
00000002
fffffff1
fffffffa
00000001
ffffffff
ffffffff
fffffff9
00000001
00000002
fffffff6
fffffffa
00000004
00000000
00000001
00000006
00000000
00000000
00000001
fffffffd
fffffffe
fffffffc
fffffffe
00000004
fffffffc
00000009
00000000
00000000
fffffffd
00000006
00000000
00000004
fffffff9
fffffffb
fffffffd
fffffffd
fffffffd
00000012
fffffffd
00000004
00000000
ffffffff
fffffffa
00000007
ffffffff
00000001
00000001
00000000
0000000a
00000003
fffffff8
ffffffec
00000003
fffffffe
ffffffea
fffffffb
00000001
fffffffe
00000003
00000000
00000004
fffffffe
00000000
fffffffd
fffffffe
00000000
fffffffc
00000009
fffffff2
ffffffff
fffffffe
00000005
fffffffe
fffffffb
00000006
00000004
ffffffff
00000001
0000000a
00000004
00000000
00000002
00000006
fffffffe
00000004
00000005
fffffffd
00000003
00000000
00000000
fffffffe
0000000b
00000009
00000005
fffffffd
fffffffe
00000001
00000000
00000003
ffffffff
00000002
fffffffa
00000000
fffffffc
fffffffa
00000006
fffffffe
00000000
fffffffe
00000002
fffffffe
00000004
00000001
fffffffe
00000000
00000005
fffffffe
fffffffb
00000005
00000000
ffffffff
00000000
00000001
fffffffa
00000007
00000001
fffffffb
00000005
00000008
0000000a
fffffff6
00000006
00000003
00000000
0000000b
00000005
00000000
fffffff5
0000000f
00000010
0000001b
fffffff2
00000003
ffffffe6
00000000
fffffff7
fffffff8
0000000f
00000000
fffffffd
0000000d
fffffff1
00000000
00000000
00000002
00000001
fffffffd
00000006
00000003
fffffffd
0000000a
0000000c
0000000d
00000002
fffffff6
0000001b
fffffffa
00000004
00000007
fffffff9
00000006
fffffffb
0000001b
fffffff2
00000002
ffffffff
fffffff3
0000000b
00000007
fffffff6
ffffffff
fffffffc
00000004
0000001c
00000000
00000003
fffffff1
0000001b
fffffff6
fffffff7
00000001
00000003
00000009
fffffff9
00000015
ffffffff
00000005
fffffffa
00000000
fffffffa
0000000d
00000015
0000000d
ffffffff
00000000
fffffff9
fffffff5
00000008
0000000c
00000006
00000009
00000001
fffffffc
00000001
fffffffe
00000009
0000000c
00000005
fffffff0
00000000
00000006
fffffff7
fffffffe
00000000
fffffff4
fffffffe
00000000
0000000d
00000001
fffffff8
fffffff1
fffffff8
0000000b
00000008
00000013
00000003
fffffff2
fffffff2
fffffffb
fffffffa
00000001
fffffff4
0000000b
00000015
0000000e
00000002
fffffffd
ffffffee
0000000a
00000003
00000012
ffffffe6
fffffffe
ffffffe7
00000002
fffffffd
fffffffa
fffffffe
0000000b
ffffffec
00000013
0000000c
00000031
ffffffda
00000006
00000008
00000006
00000003
00000004
00000017
ffffffff
00000018
0000000a
00000001
0000000d
00000002
fffffff6
fffffff9
fffffff6
00000009
00000003
00000003
00000000
fffffff3
00000009
00000011
00000017
00000007
0000000d
fffffffd
fffffff8
00000019
0000000b
00000003
00000002
00000019
00000008
fffffff1
00000012
00000014
00000007
00000006
00000002
00000004
00000001
00000003
fffffff5
fffffffc
fffffffd
00000003
ffffffff
fffffffe
00000000
0000000a
00000016
00000000
00000004
fffffff8
fffffffa
00000003
fffffffb
0000000b
fffffff9
fffffffc
fffffff0
ffffffff
00000012
fffffffe
fffffff4
00000005
00000006
00000001
fffffff9
ffffffff
fffffff6
00000002
fffffffc
0000000a
00000002
ffffffff
fffffff5
fffffffe
00000008
00000005
00000004
00000001
0000000e
00000001
00000004
00000000
fffffff5
00000006
00000008
00000000
fffffffe
00000005
fffffffa
0000000a
00000001
ffffffec
00000000
00000002
00000001
00000003
ffffffe2
fffffff8
fffffffb
00000003
0000001c
00000000
fffffffb
0000000a
fffffff3
fffffffb
fffffffd
0000000b
fffffffc
0000000f
0000000e
00000003
00000002
00000000
fffffffe
fffffffd
00000008
fffffffe
00000006
00000005
fffffff8
00000000
ffffffff
fffffffd
00000005
fffffff9
fffffffe
00000003
fffffffb
0000000c
fffffff5
00000000
00000000
fffffff4
00000003
00000000
0000000f
00000002
fffffffe
ffffffff
00000001
fffffffc
fffffffe
00000005
fffffffa
00000001
ffffffff
00000001
00000000
00000008
fffffffd
00000017
fffffff9
fffffffd
fffffff9
fffffff9
00000000
00000004
fffffff9
ffffffff
00000000
fffffffc
fffffffa
00000003
fffffff1
fffffff8
fffffffc
00000004
00000003
00000009
fffffffa
fffffffa
00000002
00000009
00000000
fffffff8
00000000
ffffffff
00000005
fffffff9
fffffff5
00000002
ffffffff
00000000
00000018
fffffffb
00000001
fffffffc
00000000
fffffffe
fffffffd
00000001
00000000
fffffffc
fffffffd
fffffffb
fffffffe
00000002
00000002
0000000b
00000000
fffffff9
fffffffc
00000005
fffffffd
00000000
fffffffc
fffffffe
fffffffd
ffffffff
fffffffd
00000004
fffffffa
00000006
fffffffa
ffffffff
00000005
fffffff2
fffffffd
fffffffb
fffffffc
00000000
fffffff9
00000009
fffffffb
00000005
ffffffff
00000004
00000005
00000001
ffffffff
fffffffa
00000002
fffffffc
00000008
fffffffa
00000004
fffffffd
ffffffff
fffffff5
00000007
ffffffff
00000004
fffffff6
00000005
00000004
00000002
00000001
fffffffe
fffffffd
fffffffd
00000007
fffffffe
fffffffe
fffffff8
00000005
00000002
fffffffd
00000006
00000004
fffffffd
00000003
fffffffc
fffffffc
ffffffff
0000000a
fffffffe
fffffffd
00000008
fffffff5
00000002
00000003
fffffffc
ffffffff
00000000
fffffffc
00000001
00000003
00000003
fffffffd
00000002
00000006
00000011
00000005
00000001
00000000
0000000e
fffffffd
00000001
fffffffa
fffffff6
fffffffa
00000002
fffffffc
fffffff8
fffffffa
00000002
00000000
fffffffd
00000004
00000004
00000001
fffffffe
fffffffb
00000000
00000005
00000011
00000003
00000004
fffffffd
00000008
00000003
fffffffe
00000003
00000000
00000006
00000009
fffffffc
00000000
ffffffff
fffffffa
fffffffe
fffffffe
00000000
fffffffe
00000003
fffffffa
00000007
00000002
fffffffe
fffffff6
00000000
ffffffff
ffffffff
0000001a
0000000f
00000004
fffffff5
00000000
fffffffd
fffffffa
00000002
00000003
00000000
fffffffa
fffffffe
fffffffb
00000001
ffffffe5
00000008
fffffffe
00000004
fffffffc
fffffff1
fffffff5
00000004
fffffffc
00000006
00000003
00000001
00000000
00000004
fffffffb
00000000
fffffff7
00000005
fffffffe
00000002
00000005
ffffffff
0000000a
fffffffb
00000003
00000008
fffffffe
fffffff3
fffffffa
fffffff9
00000001
00000004
00000002
ffffffff
00000001
00000009
00000000
00000003
fffffff8
00000007
00000002
00000001
fffffffe
00000003
00000009
00000002
fffffffa
00000002
fffffffb
00000000
fffffffc
00000007
00000006
00000000
00000012
ffffffff
ffffffff
00000005
fffffff3
00000003
fffffffe
ffffffff
00000002
fffffff8
00000003
fffffffd
00000000
00000005
00000001
00000000
00000004
00000000
fffffff9
fffffffe
fffffff8
00000000
00000002
00000000
00000003
00000004
00000000
fffffffa
00000000
00000001
fffffff3
ffffffff
fffffffa
00000000
fffffff9
fffffffd
00000001
00000006
00000009
fffffffe
ffffffff
00000000
fffffffd
fffffffc
fffffff6
fffffff6
00000001
fffffffc
fffffffd
fffffffa
fffffffe
ffffffff
00000003
00000005
fffffffd
00000001
00000001
00000004
fffffff8
fffffffd
00000003
fffffff9
fffffffb
00000012
fffffffd
00000002
00000012
fffffffd
00000002
fffffff9
00000000
00000008
00000007
00000006
00000002
fffffffa
00000000
00000005
0000000b
00000002
00000000
00000006
00000005
fffffffc
00000000
fffffff4
00000007
fffffffa
fffffff7
ffffffff
fffffffd
00000002
00000001
00000001
00000002
00000001
00000000
00000002
00000004
ffffffff
ffffffed
fffffff6
fffffff4
ffffffff
00000001
ffffffff
00000006
fffffffe
fffffff3
fffffff9
00000000
00000000
fffffffe
00000006
00000005
00000002
fffffffe
00000003
00000004
fffffffc
00000002
00000005
00000002
fffffffd
fffffffc
00000005
fffffffb
00000003
00000001
fffffffb
fffffffd
fffffffe
fffffffd
fffffffe
fffffffd
00000000
00000007
fffffffd
ffffffff
fffffffc
00000006
00000000
ffffffff
00000006
fffffff1
00000000
fffffffb
00000014
00000000
00000000
fffffffe
fffffffc
fffffff8
00000006
00000007
fffffffd
fffffffd
00000000
fffffffd
ffffffff
ffffffff
00000000
00000000
fffffffd
fffffffb
00000007
fffffff1
fffffffe
0000000b
00000007
00000009
00000002
00000003
00000001
fffffff2
fffffff9
00000005
fffffffb
fffffffb
00000002
00000008
00000001
00000004
00000001
00000004
00000001
fffffffe
fffffffb
00000009
fffffffd
00000002
00000004
00000001
00000006
fffffff4
00000003
fffffffc
fffffffd
00000005
00000001
0000000c
00000006
fffffff6
00000006
00000002
fffffffb
0000000c
fffffffd
fffffffb
fffffffa
ffffffff
00000000
fffffffe
00000000
00000007
00000000
00000001
0000000a
fffffffe
00000001
00000001
00000000
fffffff9
ffffffff
00000007
00000000
00000000
00000006
0000000f
00000007
fffffff6
00000007
0000000a
fffffffc
ffffffff
0000000a
00000004
00000007
00000008
fffffffe
00000004
00000015
fffffff5
00000007
00000000
00000004
fffffffd
fffffffe
ffffffec
00000004
fffffffd
00000002
00000005
fffffff6
fffffffc
00000003
00000002
00000002
00000012
ffffffff
ffffffe7
fffffffe
00000000
ffffffe5
fffffffc
fffffffd
00000007
00000008
fffffff5
fffffffd
00000006
fffffff9
00000000
00000009
0000000d
fffffffc
ffffffff
fffffff0
00000000
00000010
00000004
ffffffef
fffffffd
00000013
ffffffff
00000012
fffffff7
00000010
fffffff9
fffffff5
fffffffb
00000007
0000001e
00000000
0000000b
fffffffc
fffffffc
00000000
00000005
fffffff3
00000004
fffffffd
00000002
fffffff3
00000000
fffffff7
fffffff8
00000005
fffffff4
fffffffe
fffffff5
00000007
ffffffff
fffffffa
fffffff8
00000000
fffffffc
ffffffec
fffffff7
00000016
fffffffd
00000009
fffffffd
fffffffa
fffffff7
00000001
00000009
fffffffe
fffffff4
ffffffdb
fffffff2
fffffff6
00000004
00000007
00000002
0000000d
fffffffe
00000007
fffffffc
00000000
fffffff2
0000000b
00000004
fffffff7
00000008
0000000d
00000000
00000023
00000000
00000012
fffffffa
fffffff6
00000004
00000005
fffffffc
fffffffc
fffffffb
fffffff8
00000007
00000002
fffffffb
00000015
fffffff4
fffffff0
00000003
ffffffea
ffffffea
00000009
ffffffff
00000005
fffffffd
fffffff7
ffffffeb
00000005
fffffff8
fffffff0
00000006
00000004
fffffffc
fffffff3
00000002
fffffffa
00000001
00000008
ffffffe8
00000003
00000001
00000000
00000003
0000000a
00000001
00000003
00000002
ffffffec
00000007
00000005
00000002
00000002
00000006
00000000
fffffff7
ffffffef
00000003
fffffffa
fffffff5
0000000b
fffffffe
ffffffff
00000001
00000002
fffffffa
00000006
fffffff8
00000002
ffffffff
ffffffec
fffffffb
00000010
fffffffc
fffffffb
ffffffe6
00000022
00000008
00000000
ffffffee
fffffff9
00000003
ffffffff
ffffffef
0000000b
fffffffe
fffffffc
fffffffe
00000008
fffffffd
fffffff6
ffffffff
00000008
00000015
fffffffc
fffffff1
ffffffef
00000000
fffffffb
00000004
00000005
00000006
fffffffb
fffffffe
00000000
00000000
00000002
fffffff9
fffffffc
fffffffb
ffffffff
00000017
ffffffdf
ffffffe7
00000006
00000005
00000004
00000000
00000015
00000008
fffffff7
00000011
00000012
00000004
00000002
00000005
fffffff7
fffffff6
fffffffb
ffffffef
0000000e
00000008
fffffffe
00000008
fffffffb
fffffffd
00000006
fffffff6
fffffffc
ffffffff
fffffff7
fffffff3
00000002
00000008
fffffffe
fffffff8
fffffffe
00000002
00000000
00000002
fffffffc
fffffff6
ffffffdf
fffffff7
00000005
fffffffa
0000000d
fffffffe
00000001
fffffff5
00000000
00000000
00000004
00000007
00000003
fffffffc
ffffffff
00000001
00000003
00000007
00000010
fffffff3
00000006
fffffff6
fffffff3
fffffff8
00000018
fffffffa
00000006
0000000b
fffffffe
ffffffe9
00000002
fffffff9
00000007
00000006
ffffffff
fffffffb
0000000f
fffffff2
fffffff4
fffffffc
00000014
ffffffff
fffffffe
ffffffe3
ffffffed
fffffff4
fffffff0
00000002
fffffffc
ffffffff
fffffff2
00000000
00000001
00000003
00000011
fffffff5
fffffff6
fffffffe
fffffff4
fffffff4
fffffffa
00000006
fffffffb
00000000
fffffffe
ffffffdc
00000000
00000001
fffffff4
fffffff4
fffffffe
00000011
ffffffff
00000009
00000002
fffffff9
00000008
fffffffc
00000003
00000001
ffffffff
fffffff4
00000001
fffffffd
00000012
fffffff9
00000002
ffffffeb
00000000
fffffffa
00000004
fffffff0
00000010
00000024
00000011
00000006
00000005
fffffffa
fffffffd
0000000b
fffffff8
ffffffd5
0000000a
00000006
00000010
fffffff2
00000006
fffffff7
00000009
ffffffec
ffffffde
fffffffe
00000007
fffffffd
fffffff8
fffffffd
00000000
fffffff0
fffffff4
00000010
0000001c
00000009
0000000a
00000014
ffffffff
00000018
ffffffed
00000009
00000003
fffffff8
00000008
ffffffec
fffffff8
fffffffd
ffffffe8
fffffff1
00000001
00000009
0000000a
fffffffd
0000000a
fffffffc
00000003
fffffff7
fffffffc
00000003
fffffff9
fffffff6
fffffff7
0000000a
fffffffb
fffffffb
00000010
00000002
ffffffff
fffffffd
ffffffff
00000011
fffffffd
fffffffa
ffffffe0
00000000
fffffff7
fffffff7
fffffffa
fffffffb
0000000d
ffffffeb
00000000
fffffffd
0000001b
00000015
00000000
fffffff8
ffffffff
fffffffe
00000026
0000001f
fffffffe
00000004
00000012
00000005
00000004
fffffff3
0000000c
fffffff8
00000000
00000005
00000007
fffffff3
00000000
fffffffb
ffffffff
fffffff8
fffffff5
00000014
fffffffc
00000004
0000000a
0000001b
00000008
00000003
00000004
00000000
00000005
00000006
0000000c
0000000f
00000004
fffffff2
00000004
ffffffff
00000004
fffffffa
fffffffa
0000001f
0000000f
0000000e
ffffffff
ffffffff
fffffff8
ffffffea
00000000
0000000c
fffffffb
fffffff5
fffffff8
fffffffd
00000000
fffffff7
fffffff9
00000000
ffffffe2
fffffffa
00000009
00000008
fffffff1
00000011
0000000b
00000012
00000005
00000000
ffffffe9
fffffffa
ffffffec
00000007
fffffff2
00000003
fffffffc
00000000
0000000e
fffffff8
00000000
00000018
00000001
00000005
0000001b
00000002
fffffffc
fffffffe
00000000
fffffff7
00000001
0000000a
fffffffe
00000003
ffffffe5
00000001
fffffffc
fffffffd
fffffffd
fffffff7
00000006
00000012
00000005
fffffff0
00000004
00000005
00000007
fffffff5
fffffff7
fffffff5
00000005
fffffffe
fffffff3
ffffffec
00000003
00000000
00000002
0000000e
00000006
00000006
00000002
fffffffe
ffffffeb
0000000d
00000015
00000004
fffffff1
0000000f
00000007
0000000c
0000000b
0000000b
00000006
fffffffa
00000000
00000017
00000000
fffffff1
00000012
fffffff6
00000006
00000001
00000000
fffffff1
fffffff9
00000008
0000000d
00000000
0000000a
fffffffd
00000015
00000007
00000008
ffffffdf
00000003
00000015
00000004
fffffff5
00000003
fffffffc
fffffffe
fffffff8
ffffffee
fffffffb
fffffff2
ffffffff
fffffff8
ffffffff
fffffffe
00000008
ffffffe7
0000000b
0000001d
00000006
00000003
00000005
00000016
00000010
fffffffe
fffffffc
fffffff8
00000001
fffffffa
0000001d
fffffffe
00000003
0000000a
fffffff2
fffffffd
fffffffb
00000008
fffffffe
00000018
fffffff6
0000001e
00000003
00000004
00000010
00000006
fffffffd
0000002c
fffffff1
fffffff4
00000004
00000019
00000009
00000008
00000000
00000013
00000009
ffffffed
fffffff4
00000011
fffffffa
fffffffa
0000000c
00000003
00000006
0000001b
fffffffa
00000009
00000007
fffffffc
ffffffed
fffffffa
00000006
00000015
00000000
00000000
0000000b
00000004
00000001
00000002
ffffffff
fffffff7
fffffffe
00000008
00000007
0000000f
00000004
fffffffc
fffffff8
0000000b
ffffffd9
00000018
0000000a
fffffff7
ffffffe9
fffffffc
ffffffff
ffffffce
fffffff3
ffffffff
fffffff7
fffffff8
fffffff4
ffffffed
00000001
fffffff4
fffffffc
00000006
00000005
0000000a
fffffffd
0000000f
ffffffff
0000000c
00000000
fffffffe
fffffff2
fffffff8
0000001d
fffffffa
0000001a
fffffff7
00000005
fffffffc
00000005
00000022
fffffff8
fffffff3
00000007
00000011
00000007
fffffffe
fffffffd
00000006
0000000b
fffffffb
fffffffe
ffffffff
ffffffee
ffffffff
00000006
00000000
00000008
ffffffff
fffffff1
fffffff5
0000000b
00000001
fffffff3
00000004
00000011
00000005
fffffff5
00000004
fffffff3
00000002
fffffff6
00000002
fffffffa
00000001
00000003
00000003
ffffffff
ffffffe7
0000000b
fffffff6
00000009
00000000
00000007
fffffff3
00000017
fffffff4
00000004
00000006
00000000
00000001
00000000
00000008
fffffffe
fffffffb
00000000
00000004
00000001
00000001
00000004
0000000a
ffffffff
00000000
fffffffe
fffffff9
00000010
00000004
0000000d
fffffffb
fffffff7
00000002
00000001
fffffffb
fffffffd
0000000d
00000006
fffffffc
00000001
fffffffa
00000000
00000006
00000001
00000015
00000000
fffffffb
ffffffec
fffffff1
00000000
00000001
00000000
fffffffc
00000002
00000003
00000006
00000001
fffffffb
00000005
ffffffff
fffffff8
fffffff9
ffffffff
00000002
fffffffd
fffffffb
fffffff7
ffffffff
fffffff8
fffffffc
00000000
fffffffc
00000004
fffffffc
fffffffe
00000000
00000002
0000001a
00000002
ffffffff
fffffff4
fffffffe
fffffffc
fffffff9
fffffffe
00000008
fffffffb
fffffffc
fffffffc
fffffff6
0000000a
fffffffd
fffffff6
fffffffd
fffffff9
00000000
00000006
fffffff9
00000000
00000006
00000001
fffffff8
fffffffc
fffffffe
fffffffe
00000009
0000000b
00000000
00000000
fffffffb
ffffffff
0000000a
fffffff9
0000000c
00000000
00000000
00000004
fffffff9
00000007
00000002
00000006
00000000
00000000
00000000
fffffffb
ffffffff
fffffffd
fffffff6
00000006
00000003
fffffffc
00000002
fffffffe
00000008
00000000
00000011
00000005
00000003
fffffffc
00000000
fffffffd
fffffffd
fffffffe
00000000
00000000
00000000
fffffff8
00000006
00000000
00000002
ffffffff
00000000
00000003
fffffff9
00000001
fffffffc
ffffffff
00000000
fffffffe
00000000
fffffffc
fffffffd
fffffffd
00000001
fffffff6
00000002
00000004
00000000
ffffffff
fffffffc
ffffffff
00000003
ffffffff
00000003
00000000
00000005
fffffffb
00000001
00000001
00000006
fffffffe
00000002
fffffffa
fffffff7
ffffffff
00000003
00000001
00000002
fffffffa
fffffffc
fffffffa
ffffffff
00000007
fffffffb
fffffffa
fffffffe
fffffffe
fffffffa
00000003
00000006
ffffffff
00000004
fffffffe
00000002
00000003
fffffff7
00000001
ffffffff
fffffffe
fffffffa
fffffffa
00000002
00000005
fffffffe
00000004
fffffffe
ffffffff
fffffffc
00000000
00000007
00000000
00000000
fffffffc
fffffffc
00000003
fffffff5
00000000
00000007
0000000c
fffffff8
fffffffc
fffffff3
00000004
fffffff8
fffffff7
00000000
fffffffe
ffffffff
fffffffd
fffffffd
ffffffff
fffffff6
00000001
fffffffa
00000007
fffffffe
fffffffa
fffffff4
fffffff6
00000004
fffffffe
00000008
00000006
00000000
ffffffff
00000004
00000003
00000002
00000003
00000001
00000002
00000001
fffffffe
00000006
00000000
00000000
00000000
00000007
00000006
00000000
fffffffa
00000000
fffffff8
00000000
00000000
00000000
fffffff9
00000003
fffffffa
fffffff9
fffffff8
fffffff9
00000000
fffffffd
00000003
00000009
00000006
fffffffe
00000002
00000002
fffffff9
00000004
00000002
ffffffff
00000000
0000000b
fffffff7
00000002
ffffffff
fffffff9
fffffffc
00000002
fffffffd
fffffff7
fffffffa
fffffffd
fffffffd
fffffff4
00000003
fffffffa
fffffffa
fffffffb
fffffffd
00000001
ffffffff
fffffffc
00000004
fffffff9
00000005
00000001
00000000
00000006
fffffffd
ffffffff
fffffffa
fffffffd
fffffffb
00000003
00000004
fffffff9
00000003
fffffff6
fffffffd
fffffff9
00000003
fffffffe
fffffffa
00000007
ffffffff
fffffff7
fffffffc
ffffffff
00000000
00000004
fffffffb
00000000
00000004
fffffffb
00000008
00000000
00000001
00000002
00000008
fffffffb
00000001
00000006
00000000
00000003
fffffffe
00000000
00000000
fffffffc
00000004
00000005
fffffff9
00000001
0000000a
fffffffc
fffffffe
fffffffc
fffffffd
00000000
00000002
00000000
fffffffd
00000004
00000000
00000000
00000007
fffffffe
fffffff7
fffffffa
fffffffb
fffffffe
00000005
00000002
ffffffff
ffffffff
00000000
fffffff9
00000004
fffffff8
fffffffb
00000002
00000001
fffffff7
fffffffc
00000002
00000003
fffffffa
fffffffb
fffffff6
00000000
00000000
00000005
00000001
ffffffff
fffffffa
fffffffb
ffffffff
00000000
fffffffd
00000003
00000007
ffffffff
fffffffd
00000002
00000001
00000000
fffffffa
00000001
00000000
fffffff9
fffffffd
fffffffe
00000003
fffffff4
00000001
00000001
00000000
fffffffe
fffffffd
00000004
fffffffd
00000007
00000000
fffffffe
fffffffd
00000001
ffffffff
00000000
fffffffc
00000000
fffffffb
fffffff6
ffffffff
fffffffc
fffffff8
fffffffd
00000000
00000002
fffffff9
00000000
00000004
00000004
fffffffa
00000006
00000001
00000000
fffffff5
fffffffc
00000000
00000005
fffffffd
00000000
00000007
00000004
00000003
00000000
fffffff8
00000004
00000000
00000002
00000000
ffffffff
fffffffc
00000002
00000004
00000000
ffffffff
00000000
00000007
ffffffff
ffffffff
00000000
00000000
00000004
fffffffa
00000004
fffffffb
00000000
fffffffd
00000008
fffffff9
00000000
fffffffe
00000004
fffffff6
00000007
00000001
00000000
ffffffff
00000003
00000005
fffffff9
fffffff6
00000002
00000006
00000007
ffffffff
00000006
00000003
ffffffff
fffffffd
00000000
00000007
ffffffff
fffffff8
ffffffff
fffffffd
fffffffd
00000007
00000000
00000005
00000019
ffffffff
00000000
00000002
00000005
fffffff8
ffffffe3
fffffff1
00000003
00000002
00000000
00000004
fffffff6
0000000a
00000004
fffffff0
0000000a
fffffffb
00000001
ffffffe9
0000000a
fffffffd
ffffffef
fffffffc
fffffff3
00000004
fffffffd
fffffffe
fffffff3
fffffff4
00000008
fffffffc
00000006
fffffff6
0000001e
00000007
fffffff9
fffffffd
00000000
00000000
ffffffef
fffffffe
fffffffd
fffffffc
0000000a
fffffff8
0000000c
fffffff9
fffffffd
fffffff6
fffffffd
fffffff9
00000002
00000003
00000000
fffffff6
00000012
fffffff7
fffffff2
00000003
fffffffa
00000015
fffffffe
00000000
00000004
00000004
fffffff6
ffffffef
0000000c
fffffff8
00000001
0000000f
00000000
ffffffff
fffffff6
fffffffc
fffffffa
ffffffed
00000002
fffffffd
00000004
ffffffff
fffffffb
0000000b
00000001
00000001
00000014
ffffffec
fffffff1
fffffffb
fffffff6
fffffffa
00000017
00000006
00000002
fffffffd
0000000a
00000004
00000013
ffffffff
ffffffeb
fffffffa
00000013
fffffff1
fffffff9
fffffff7
00000000
ffffffe0
0000000e
00000001
00000020
fffffff9
00000002
ffffffd6
fffffffe
ffffffed
fffffffb
00000008
00000015
00000007
ffffffed
fffffffd
ffffffd9
fffffff8
fffffff6
0000000b
00000002
fffffffa
ffffffe9
00000012
00000000
00000008
ffffffdc
ffffffff
fffffff9
00000002
00000014
00000002
00000000
0000000e
00000011
00000006
fffffffc
0000000b
00000006
fffffff4
ffffffe6
00000004
fffffff4
00000000
ffffffff
00000000
ffffffe9
00000005
00000000
fffffff5
00000009
0000000d
00000002
fffffff1
fffffff9
ffffffff
ffffffff
fffffff8
fffffff2
fffffff4
fffffff6
fffffff8
00000002
00000001
fffffff9
ffffffec
fffffff2
fffffff3
00000003
00000004
00000000
fffffffe
fffffffc
00000003
00000001
00000009
00000001
00000013
fffffffc
00000000
fffffffd
ffffffee
00000022
00000005
fffffffe
ffffffed
fffffffd
ffffffff
fffffffb
fffffff1
00000013
ffffffed
fffffffb
0000000e
00000005
00000002
fffffffb
fffffffc
00000000
0000000a
00000039
00000011
00000001
00000003
fffffff9
fffffff7
fffffffb
ffffffff
00000005
00000002
00000003
00000006
00000008
0000000c
fffffffc
00000000
fffffff5
00000004
fffffffa
fffffff4
0000001b
0000001b
fffffffc
00000003
fffffff6
00000011
fffffffd
fffffffe
fffffff5
0000000c
00000004
00000013
fffffff3
00000000
fffffffc
fffffff8
0000000e
00000001
0000000b
fffffff8
fffffff9
fffffff2
fffffff7
00000013
ffffffff
0000000a
fffffff8
00000003
00000001
fffffff3
fffffff7
fffffffe
00000000
fffffff3
fffffff1
fffffff8
fffffffd
fffffff7
fffffff9
00000021
00000000
00000010
ffffffd2
ffffffec
fffffff7
00000009
ffffffff
fffffff2
fffffffd
00000012
fffffffc
00000001
0000000e
00000015
fffffffe
0000000d
0000000c
fffffffb
fffffffd
00000007
ffffffff
ffffffd5
fffffff3
00000009
00000017
ffffffff
00000015
fffffff7
fffffff0
00000001
fffffffa
00000003
fffffff2
fffffff3
00000005
00000005
00000006
ffffffeb
fffffffa
fffffff3
00000002
00000014
00000013
00000013
fffffff5
fffffffd
fffffffc
00000001
0000002c
fffffff9
ffffffff
00000004
fffffff8
fffffffb
00000003
00000003
ffffffff
00000000
00000003
00000018
ffffffee
fffffff0
ffffffe7
0000000c
fffffff3
fffffffd
fffffff4
fffffffa
0000000b
00000000
00000009
00000020
00000000
00000006
00000003
ffffffef
00000005
fffffff4
0000000e
fffffffd
00000000
ffffffff
ffffffbe
ffffffea
fffffff7
00000008
fffffffb
0000000b
00000000
fffffff3
00000003
00000001
fffffff0
00000005
00000013
00000000
00000003
00000016
00000002
fffffffc
fffffff9
00000009
fffffffe
00000010
00000007
00000000
00000001
00000000
00000007
0000001d
00000000
fffffffb
ffffffe9
ffffffff
fffffffe
fffffff1
00000009
00000003
fffffffb
00000004
fffffff8
00000006
0000000a
00000007
00000003
ffffffff
00000008
ffffffea
0000000a
ffffffe8
fffffff8
fffffffe
fffffff6
0000000e
fffffffb
00000003
0000000b
ffffffe8
fffffff9
00000007
00000000
fffffffa
fffffffb
00000000
0000000d
00000003
fffffff7
00000002
00000008
00000007
0000002b
fffffffa
00000006
00000006
0000000e
fffffffa
00000000
00000009
fffffffe
00000001
fffffff5
00000004
0000000b
00000000
00000004
00000003
00000003
fffffffc
0000000d
00000005
00000009
fffffffa
00000004
ffffffee
fffffffb
fffffffe
00000010
00000005
fffffffc
00000006
00000000
00000003
ffffffdd
ffffffe9
fffffff9
0000000e
fffffffd
0000000c
00000000
fffffff1
00000015
00000000
ffffffff
00000006
ffffffed
fffffff4
ffffffe8
00000009
ffffffef
fffffff9
00000006
00000004
00000006
00000005
fffffff3
00000019
00000001
00000006
fffffff0
00000010
0000000b
00000002
00000006
00000000
00000007
00000010
00000000
00000000
ffffffea
ffffffe9
fffffff7
fffffff9
00000008
fffffffd
00000004
00000009
00000000
0000001d
00000027
00000006
fffffffe
00000005
00000000
fffffff7
fffffffd
00000007
fffffff8
0000000f
fffffff9
ffffffe7
00000004
0000000c
fffffff0
fffffff3
fffffff9
fffffff8
fffffffb
ffffffff
00000003
fffffff9
fffffffb
00000005
0000000c
0000000d
fffffffc
00000003
00000001
ffffffed
00000012
00000005
00000000
00000003
0000000a
fffffff9
fffffffa
00000004
00000002
ffffffff
fffffffc
fffffffe
00000005
00000005
00000001
00000002
fffffffc
00000011
00000000
ffffffff
00000001
fffffffd
fffffff9
0000000c
fffffff2
fffffff9
fffffffd
00000000
fffffffb
00000010
fffffffe
00000002
00000003
00000002
fffffffd
00000005
fffffff7
00000003
00000009
00000004
0000000b
00000000
00000008
fffffffe
ffffffed
fffffff8
ffffffef
00000004
00000005
ffffffeb
fffffffd
ffffffff
00000001
ffffffff
fffffff4
00000005
ffffffec
ffffffff
fffffff9
fffffff9
00000008
00000002
fffffff8
00000003
fffffffc
00000006
ffffffff
00000006
00000000
ffffffff
fffffffc
0000000c
fffffff9
ffffffed
00000000
fffffffa
fffffffe
fffffff6
fffffffc
00000000
fffffffa
fffffff7
00000000
00000002
fffffffb
00000000
fffffffa
fffffff6
0000000a
00000003
fffffff5
fffffffd
0000000a
00000000
ffffffff
00000008
ffffffff
fffffff7
0000000a
fffffff3
00000005
fffffffc
00000001
00000000
00000005
00000000
00000004
00000004
fffffff7
00000001
00000003
00000003
00000004
00000004
00000001
0000000c
00000005
fffffff5
fffffff9
fffffffb
ffffffef
00000008
fffffff7
fffffff8
fffffffe
00000007
00000000
00000005
0000000f
fffffff4
00000000
fffffff3
fffffffb
00000000
00000006
00000001
fffffffc
00000007
fffffff7
fffffff8
fffffffb
fffffffb
00000006
00000012
fffffffe
fffffffc
fffffffd
00000003
fffffff5
fffffffd
fffffffa
00000007
00000011
fffffffb
fffffff8
00000009
00000001
00000004
fffffffe
00000000
fffffffe
fffffff4
fffffff7
00000002
0000000f
00000000
fffffffd
00000003
00000000
fffffff6
fffffff4
00000008
ffffffff
ffffffff
fffffffe
00000004
00000015
fffffffd
fffffff9
00000000
00000012
fffffffa
ffffffff
00000008
fffffff9
00000004
fffffffe
00000003
fffffffa
fffffff8
fffffff4
00000000
fffffff1
fffffffc
00000000
00000011
fffffffd
ffffffee
00000000
fffffffc
00000000
fffffffc
fffffffd
00000005
fffffffe
00000008
fffffff6
fffffffe
00000004
ffffffff
fffffffa
ffffffff
00000003
fffffff2
00000006
fffffffe
fffffffa
ffffffed
fffffffb
fffffffe
ffffffff
fffffff6
ffffffff
fffffff8
00000003
fffffffe
fffffff6
fffffffb
00000000
00000004
00000004
fffffffd
00000002
00000009
fffffffa
00000009
fffffff3
fffffff7
fffffff1
fffffff7
fffffff6
00000004
00000000
00000000
00000004
00000015
00000000
00000000
00000011
ffffffff
0000001e
ffffffe4
fffffffe
00000010
00000000
00000016
00000002
ffffffee
fffffff3
00000007
fffffffa
fffffff6
00000000
ffffffef
ffffffec
fffffffc
0000000d
ffffffed
fffffffd
fffffffa
0000000f
0000000e
fffffff6
00000009
0000000a
fffffffd
ffffffff
00000008
fffffff1
00000008
00000009
fffffffe
00000000
00000006
00000008
00000013
0000001a
ffffffef
00000014
fffffff6
00000001
00000013
0000000a
fffffff7
0000001c
ffffffee
0000001d
00000002
0000000d
ffffffe8
00000002
fffffff3
fffffff3
fffffffd
fffffffb
00000011
00000007
00000003
0000000f
00000008
fffffffc
0000000d
00000009
0000000d
00000005
00000001
fffffff9
00000003
fffffffe
fffffff6
00000002
00000009
00000007
00000000
00000007
0000001d
fffffff9
00000011
0000000a
00000004
0000000d
fffffff8
00000010
ffffffee
00000006
fffffff2
fffffff3
0000000d
0000000d
fffffffb
fffffffc
00000010
fffffff4
ffffffeb
fffffff6
00000000
fffffffb
00000011
ffffffdd
00000018
00000001
fffffff6
fffffff2
0000000b
00000003
00000011
00000009
00000014
fffffffe
00000024
00000009
00000011
fffffff7
00000003
00000006
fffffff4
fffffffc
00000005
00000000
00000003
fffffffa
fffffff4
0000000e
ffffffff
fffffffa
00000013
00000001
00000007
00000006
fffffffa
0000000c
fffffff7
00000015
00000003
ffffffe2
fffffff9
fffffffe
00000013
fffffff8
00000009
ffffffe9
00000010
00000005
ffffffe6
fffffffb
00000001
00000004
00000004
00000004
00000008
fffffffc
fffffff8
fffffffd
00000007
00000004
00000008
00000001
fffffff6
ffffffed
fffffffc
00000008
00000011
0000001a
00000002
fffffffd
00000003
ffffffe3
0000000e
00000019
0000000c
00000000
00000008
ffffffd0
00000000
fffffffe
00000000
ffffffec
fffffff2
0000000a
fffffffe
fffffff4
00000001
ffffffe6
00000002
00000006
00000000
00000004
00000003
00000003
00000007
fffffffd
fffffff4
0000000a
00000000
00000016
00000006
fffffff4
00000000
00000003
fffffff8
00000024
00000002
00000005
0000000f
ffffffec
00000000
00000010
00000007
00000008
00000005
00000004
00000004
fffffffd
fffffff2
00000005
fffffff5
fffffffd
fffffffc
fffffffd
00000006
fffffffb
0000000b
00000000
fffffff6
00000000
00000002
fffffff8
00000008
00000011
00000003
00000009
0000000d
0000000d
fffffff7
00000002
fffffff6
00000005
00000001
00000016
ffffffef
00000006
fffffffd
00000009
00000000
fffffffe
00000000
fffffffd
00000007
00000006
00000001
fffffffc
00000002
fffffffd
fffffff4
00000018
fffffffb
00000010
fffffffb
fffffff5
ffffffea
00000002
ffffffff
ffffffef
ffffffff
00000001
00000005
00000006
ffffffef
00000001
fffffff2
00000000
00000005
ffffffe9
00000003
00000015
fffffffb
00000002
00000007
00000004
00000006
00000001
00000012
00000003
fffffffb
fffffffe
00000008
0000000b
00000007
fffffffd
fffffff4
00000004
ffffffff
0000000d
fffffffb
00000005
00000008
fffffff0
ffffffff
00000002
00000010
00000005
00000000
0000000b
00000005
00000002
00000011
fffffffe
ffffffff
ffffffec
0000000e
fffffff9
fffffffa
00000006
ffffffff
00000005
0000000d
0000000d
00000000
0000000a
ffffffec
00000003
0000000d
00000006
00000000
00000002
fffffffc
0000000b
ffffffe8
00000008
fffffffe
fffffff8
ffffffff
fffffffe
ffffffe7
fffffffc
fffffffe
0000000a
00000004
00000005
fffffff3
00000005
00000005
0000000d
0000000a
fffffffc
fffffff3
00000019
fffffff7
fffffff7
00000001
00000004
00000000
00000000
00000000
00000014
00000010
00000001
ffffffff
ffffffff
fffffff4
00000000
ffffffdf
fffffffe
fffffffd
00000003
ffffffea
00000002
00000000
fffffffb
0000000c
00000003
00000000
00000022
fffffffb
00000000
00000007
0000000d
fffffffd
ffffffe6
ffffffdf
00000004
00000011
00000025
fffffff7
ffffffff
0000000b
fffffffa
00000005
fffffffb
00000014
fffffffd
00000008
ffffffff
00000006
fffffffb
00000002
00000002
0000000f
0000000a
00000009
fffffff3
fffffff5
00000005
fffffffb
00000003
ffffffeb
00000002
ffffffff
fffffff4
00000002
fffffff0
0000000d
00000006
0000000a
fffffffd
fffffffa
00000000
fffffff6
00000009
00000020
00000008
ffffffef
0000000c
fffffff8
fffffffb
00000004
00000008
fffffff0
00000011
ffffffec
00000001
00000003
ffffffe1
00000006
00000006
00000003
fffffff0
fffffffc
00000012
00000002
00000000
ffffffee
fffffff2
0000001f
00000003
fffffff4
00000000
fffffff8
00000000
0000001c
ffffffea
00000002
fffffff6
00000006
00000004
fffffff8
fffffff4
00000015
ffffffff
0000000f
0000000f
00000002
00000000
00000008
fffffff6
00000002
00000000
ffffffff
fffffff2
00000003
fffffff7
00000000
00000000
fffffffe
ffffffff
ffffffff
ffffffff
ffffffe6
00000006
ffffffd7
ffffffff
fffffffe
ffffffff
0000000e
ffffffe4
00000009
00000007
fffffff1
00000008
00000004
00000006
00000000
fffffffd
fffffffe
fffffff7
fffffff9
00000006
fffffff7
fffffffc
00000005
fffffffe
fffffffe
00000008
0000000e
fffffffe
ffffffef
00000005
ffffffff
00000000
fffffff3
ffffffea
fffffff4
00000007
fffffffc
fffffffa
0000000e
00000002
fffffffe
0000000a
fffffff0
fffffffa
00000005
fffffff8
00000008
00000000
fffffff5
00000005
00000003
00000018
00000008
fffffffa
00000007
00000009
fffffffc
0000000f
fffffff1
fffffff7
00000018
fffffff1
00000007
00000013
00000001
fffffff7
fffffffe
ffffffea
ffffffd8
fffffffe
fffffff3
fffffff0
fffffff7
fffffffb
00000002
fffffff0
00000013
00000007
00000000
00000003
00000007
fffffff4
ffffffe5
00000004
fffffffb
00000008
fffffff5
fffffff9
ffffffe1
00000006
fffffff6
ffffffff
fffffff7
fffffffb
fffffff0
00000007
fffffff4
fffffff7
ffffffef
ffffffe7
0000000b
00000002
fffffff9
fffffffe
fffffff5
00000001
0000000d
fffffff2
00000008
fffffff4
fffffffd
00000000
00000003
fffffff9
fffffff7
ffffffff
00000008
00000005
0000000c
fffffffd
00000003
00000008
fffffffd
00000001
00000012
fffffffc
fffffff1
ffffffef
0000000e
ffffffd7
fffffff6
ffffffea
ffffffeb
fffffffe
00000013
ffffffff
fffffff7
fffffff1
00000008
fffffffd
00000027
00000006
00000008
00000006
00000008
fffffffd
00000003
fffffffe
fffffff3
0000000c
00000002
0000000a
00000001
ffffffff
fffffffc
ffffffe4
00000007
00000030
fffffffc
fffffffb
fffffff9
00000018
fffffffe
ffffffff
fffffff4
00000008
00000009
00000000
fffffffe
ffffffeb
ffffffee
fffffff8
ffffffe8
fffffff6
fffffff6
0000002d
fffffff7
00000000
ffffffef
00000004
fffffffd
fffffffa
fffffffa
0000000a
00000006
ffffffff
fffffffb
00000007
fffffff2
fffffff1
fffffff2
fffffff5
ffffffff
fffffff8
fffffffd
00000006
ffffffff
00000006
fffffff5
fffffffa
0000000a
00000005
00000007
00000013
fffffffe
00000016
00000005
fffffff4
00000019
ffffffed
00000009
ffffffeb
fffffff0
00000009
fffffff1
fffffffd
00000001
fffffffa
0000000c
fffffff8
ffffffe0
fffffffd
00000001
00000000
00000003
fffffffe
fffffff5
fffffff1
00000001
0000000a
fffffff0
fffffffb
fffffff9
ffffffff
fffffffc
fffffff5
ffffffed
00000000
fffffffc
0000000c
ffffffef
ffffffe5
00000000
00000011
00000006
fffffffd
fffffff2
fffffffd
00000003
00000003
0000000b
00000005
fffffff0
fffffff4
fffffffe
00000003
0000000c
0000001c
00000001
fffffff6
fffffff2
00000004
fffffffc
00000004
ffffffec
fffffff9
fffffffe
00000000
fffffff7
fffffffa
00000001
00000008
00000002
fffffff3
00000004
fffffff8
fffffffc
0000000a
fffffff8
fffffffc
fffffffa
ffffffee
00000002
00000005
fffffffe
fffffffd
00000003
00000002
0000000b
00000006
00000007
00000000
00000000
fffffff9
fffffffd
0000000e
00000001
ffffffff
00000007
00000006
00000011
00000000
00000000
00000000
00000005
00000005
00000004
00000005
fffffffd
fffffffb
00000003
0000000a
00000001
fffffffb
00000008
00000000
fffffffe
00000003
fffffffe
00000001
fffffffa
fffffffc
00000006
fffffffa
00000003
00000003
00000005
fffffff8
fffffffb
00000000
fffffffa
00000000
00000000
00000000
00000002
00000001
fffffffa
fffffff9
fffffffa
00000002
fffffff9
fffffffa
00000004
fffffffd
00000006
fffffffc
fffffffb
00000006
00000003
00000006
fffffffd
00000005
00000003
fffffff8
fffffffc
fffffff3
00000003
00000009
fffffffe
fffffffc
ffffffff
fffffffe
fffffffa
00000005
00000003
00000006
fffffffd
00000008
fffffffd
00000002
ffffffff
fffffffa
00000007
00000001
00000003
00000001
fffffffa
00000006
ffffffff
fffffffc
fffffffc
00000001
00000006
fffffff9
00000009
00000007
00000004
00000003
fffffffb
00000001
fffffff9
00000002
00000000
00000001
fffffffe
fffffff6
00000004
00000005
00000007
00000004
00000010
fffffffd
00000004
fffffffa
00000003
00000000
fffffff9
fffffffe
00000011
00000007
00000005
00000007
fffffff7
00000008
fffffffe
00000004
ffffffff
00000001
fffffffa
00000008
00000002
00000003
ffffffff
00000002
ffffffff
0000000f
0000000b
00000004
00000003
ffffffff
00000000
00000000
00000003
fffffffb
00000003
fffffffb
fffffffa
fffffffc
00000002
fffffff8
0000000c
00000000
00000001
fffffffd
00000005
00000004
fffffffd
fffffffd
00000004
00000000
00000009
00000001
fffffffa
00000004
00000001
ffffffff
fffffff8
fffffff5
fffffffa
0000000d
00000003
fffffffb
00000001
fffffffe
fffffffc
fffffffb
00000009
00000006
00000005
00000004
00000001
00000003
0000000b
fffffffb
00000002
00000007
fffffff9
fffffffd
00000004
0000000a
00000005
fffffffb
00000000
00000000
00000000
00000000
0000000b
00000005
fffffffe
fffffffc
00000003
00000008
00000001
00000008
ffffffff
00000002
0000000b
00000002
00000008
00000001
ffffffff
00000009
fffffffe
fffffffa
fffffff8
fffffffd
00000005
00000000
fffffffc
00000005
00000008
00000001
00000000
00000000
00000004
0000000c
00000000
00000008
00000000
00000007
00000000
00000005
fffffffd
fffffffb
00000000
00000005
fffffffc
fffffffb
fffffffd
0000000b
00000003
00000001
00000003
fffffff5
fffffffd
00000002
ffffffff
00000000
00000000
00000006
fffffffc
fffffffd
fffffffe
00000000
ffffffff
fffffffd
fffffffc
00000000
00000000
fffffffd
fffffffb
00000000
fffffffb
00000001
00000002
fffffffb
0000000d
fffffff9
fffffffc
fffffff7
fffffffb
00000000
00000002
fffffffb
0000000f
0000000e
00000005
fffffffa
00000003
fffffff7
fffffffd
0000000d
fffffffc
fffffff6
ffffffff
00000000
ffffffff
00000003
00000007
fffffffc
00000005
fffffffb
00000002
00000004
fffffffa
00000001
fffffff9
fffffffc
fffffffb
00000005
fffffffd
00000000
ffffffff
fffffffb
fffffffd
00000000
fffffffb
fffffffe
00000000
fffffffa
00000004
00000001
fffffff9
00000000
fffffffa
00000000
00000018
ffffffff
00000003
fffffffc
00000002
fffffff7
fffffff6
fffffffe
00000002
fffffffd
fffffff7
00000000
00000004
00000002
00000001
00000000
fffffffe
fffffff8
fffffffd
00000007
00000000
00000002
fffffffb
fffffffa
fffffffd
fffffff8
00000006
fffffffe
00000006
00000000
00000003
fffffff9
fffffff8
fffffff8
fffffff9
fffffffc
00000000
fffffff9
fffffff9
00000000
fffffffb
fffffffe
00000001
00000010
00000000
00000003
00000006
fffffffd
fffffff6
00000002
fffffffb
00000003
fffffff9
fffffffd
00000002
fffffffd
fffffff9
fffffffe
00000009
fffffffc
00000009
00000005
fffffffe
fffffffd
fffffffb
fffffffd
fffffffc
ffffffff
ffffffff
ffffffff
00000000
00000008
ffffffff
00000003
ffffffff
00000000
00000002
fffffffb
fffffff8
00000003
00000006
00000005
fffffff8
00000004
00000006
00000004
fffffffb
fffffffc
fffffffb
fffffffd
fffffffc
fffffffc
fffffff8
00000000
fffffffd
fffffffa
00000000
00000000
fffffffc
fffffffd
00000001
00000004
fffffff9
00000003
00000009
00000002
fffffffc
fffffffa
0000000f
00000006
00000000
00000005
fffffff9
00000004
00000001
00000007
fffffffd
00000000
fffffffc
00000000
00000004
00000001
fffffffe
ffffffff
00000001
fffffffd
fffffffd
00000000
fffffff9
00000006
00000000
fffffffd
ffffffff
00000000
00000002
fffffffb
fffffffc
00000000
ffffffff
fffffff9
00000001
00000005
fffffffb
00000000
00000000
fffffff7
ffffffff
00000001
fffffffd
00000002
00000002
0000000b
00000005
00000005
fffffff9
00000001
fffffff8
ffffffff
fffffffa
ffffffff
fffffffb
fffffffe
ffffffff
ffffffff
00000000
00000005
fffffffe
00000003
fffffffa
fffffff7
fffffffd
fffffffc
fffffffe
00000001
00000006
00000003
00000006
fffffffc
00000003
00000000
00000005
fffffffe
fffffffd
fffffffc
fffffff8
00000004
00000000
00000000
fffffffc
fffffff9
fffffff4
fffffff2
fffffff8
00000004
00000004
fffffffa
00000004
ffffffff
00000017
fffffff7
0000001b
00000002
fffffff9
00000006
fffffffc
fffffff4
00000010
00000006
fffffffe
00000002
00000004
00000005
00000005
00000010
0000000d
00000000
0000000b
fffffffb
00000008
00000011
0000000a
00000007
fffffff8
00000007
fffffffb
fffffff7
00000000
ffffffff
ffffffff
fffffffb
fffffffb
fffffffb
ffffffec
00000007
00000007
fffffff7
00000003
fffffffc
00000008
fffffffe
00000000
fffffff5
ffffffff
fffffffc
0000000b
fffffff6
00000012
ffffffe2
0000001e
fffffff1
ffffffef
fffffffc
fffffff4
fffffffb
00000007
00000008
fffffffa
00000020
ffffffff
fffffffa
ffffffef
ffffffe4
fffffffb
00000007
fffffffc
fffffff7
fffffff9
fffffffd
00000006
fffffffb
fffffffa
0000000e
00000003
00000004
00000002
00000003
00000003
fffffff3
ffffffff
00000001
00000001
fffffff7
00000016
ffffffef
00000003
00000000
0000000d
ffffffff
00000000
ffffffeb
fffffff6
ffffffed
fffffffb
fffffff3
fffffffd
00000023
00000015
00000008
0000000b
ffffffff
00000002
fffffffe
0000000a
00000004
00000014
ffffffff
fffffff2
fffffff3
fffffffd
00000019
00000006
00000023
00000002
00000038
00000001
00000000
00000000
00000002
fffffff7
0000001c
fffffff2
fffffff6
fffffff9
0000000c
00000003
00000001
00000004
00000000
00000000
ffffffed
fffffff6
fffffff7
fffffff8
fffffff9
00000000
00000008
fffffffa
00000003
00000000
00000002
00000014
fffffff6
00000009
fffffffc
fffffffb
0000000b
0000000a
00000000
00000000
00000001
fffffffa
0000000e
0000000a
00000004
00000004
00000000
00000006
ffffffff
fffffff9
00000002
fffffffa
00000002
0000000a
fffffffa
fffffffe
00000001
ffffffff
ffffffff
fffffffc
00000010
fffffffe
0000000b
fffffff7
00000009
ffffffec
fffffffb
fffffff9
00000007
fffffff8
fffffff6
00000012
fffffffd
00000002
00000011
fffffff9
00000007
00000015
fffffff4
0000000d
fffffff2
fffffffe
00000008
00000000
00000007
fffffff0
00000003
fffffffe
fffffff5
fffffff7
fffffff9
fffffff1
0000000b
00000007
00000009
fffffffc
ffffffe9
fffffff8
ffffffff
ffffffef
00000008
00000003
0000000a
0000000b
fffffff5
fffffffe
fffffffe
fffffff8
fffffffb
0000000b
00000002
00000009
00000001
00000000
fffffffc
00000015
0000000b
00000001
0000000c
00000007
00000001
ffffffff
fffffff9
0000000c
00000006
fffffffe
ffffffe3
0000000c
00000007
00000006
00000008
fffffff4
fffffffe
00000006
fffffff8
00000008
00000001
fffffffd
00000003
00000001
00000006
ffffffff
00000001
fffffffd
00000000
00000001
fffffffb
00000000
00000003
fffffff8
fffffffe
fffffff8
