000000ba
00000197
0000059c
000003db
0000031f
00000830
000003fc
fffffca4
000001b9
fffffeaa
00000208
0000033b
00000374
00000352
0000042e
0000044e
fffffd1b
00000674
000001fb
00000046
00000453
ffffff07
000004d9
00000060
0000058a
000005a8
00000762
ffffffd9
000000cf
0000035d
000005fe
00000402
fffff9f6
00000046
00000268
0000021f
0000026d
00000241
0000011e
0000036b
fffffa4a
00000721
0000054e
ffffffe1
000001a6
fffffef1
00000317
00000243
0000025d
ffffff08
ffffffdd
fffffc11
000002d8
000008ac
000004fb
00000088
00000732
fffffe12
000000c8
000001a0
000001a6
0000012e
00000107
000003c9
fffffdc3
0000024e
00000494
00000375
fffffd55
000000dc
000003f2
000004af
00000382
000000f4
000001ef
000001e6
fffffec2
0000053d
0000001e
ffffff32
000000e2
000000ba
00000586
000001e4
00000308
0000057a
00000247
00000646
00000116
000000b8
fffffd20
00000083
000003e4
000002c8
00000865
ffffffd3
000005c5
000003ac
fffffe51
fffffe44
00000114
000004ac
000002e7
000000cc
0000030d
fffffe88
000001bc
ffffff18
00000768
0000021b
00000153
000002e4
00000439
000001e6
fffffbb3
000007a8
fffffa1d
00000399
ffffff4d
ffffffbf
00000304
00000966
ffffff8e
0000012a
00000299
000001e5
0000004f
00000165
000001df
0000038d
000002e3
0000050d
00000000
00000553
000003dc
fffffc9b
00000711
000003ed
00000455
0000032b
0000025a
0000009c
fffffe9d
000001b9
000001ab
fffffdb2
000003f7
000001ce
0000011b
00000206
00000265
00000661
fffffe19
0000032d
000000ab
00000012
000001f6
00000567
00000112
000003f6
00000285
000000d0
00000115
000004df
fffffd4c
00000486
fffffc55
00000351
00000387
000006cf
000002ec
00000277
00000116
00000212
000002b4
00000635
0000008c
fffffd43
fffffe5b
000005f4
ffffffc1
0000022b
000001d6
00000297
00000723
00000082
00000665
fffffedf
000005bc
0000027d
00000220
000003b6
00000668
00000190
0000059d
000003a8
000004a3
00000645
00000236
000002f4
0000022e
0000041b
0000045b
00000236
00000446
000001ab
000006aa
000000a6
0000035d
00000426
fffffe2e
0000045c
00000490
00000437
ffffff92
00000322
00000594
00000225
000006c7
fffffff6
0000050a
0000082d
000001cd
000001b9
0000039c
00000712
000004c0
0000047d
0000067b
00000136
fffffd5b
00000136
00000151
000003d7
00000296
000001c0
000005c6
00000490
ffffff18
00000162
00000526
0000061f
00000547
00000652
000006ed
00000144
00000677
000004ef
000001c8
000001bc
000002bb
0000065a
fffffec2
00000308
000001b5
000005a3
fffffff9
00000258
000005d8
000002bd
fffffea5
fffffdf7
00000199
000004ca
000001be
0000016c
000000d7
00000320
000000e3
000001c5
00000522
000004b9
00000427
00000167
fffffdaa
0000033d
0000007a
00000209
000000ed
0000063a
00000341
0000088a
00000382
000001e6
00000631
ffffffe9
fffffdde
0000001e
0000056b
000000fd
00000143
ffffff97
00000418
00000152
0000014b
000002ca
000002b0
ffffffc3
00000227
ffffff13
00000433
000002f6
000005bc
00000364
0000023f
00000248
000003a8
ffffff83
ffffffe2
fffffe5e
00000532
0000029f
fffff9c5
000001a8
000003d9
000004a3
fffffbf9
000004f3
00000615
00000744
0000029d
00000498
0000043e
fffffeb5
00000232
00000186
0000045c
00000556
0000022e
0000061a
ffffff7b
00000036
00000504
000003d7
0000039f
000003a1
0000003e
0000019e
00000293
00000153
00000014
ffffff84
00000259
fffffde1
ffffff4f
00000277
00000346
000002d0
00000287
0000023f
00000717
000003d1
00000332
000004a3
00000004
000009f4
00000436
fffffd0c
ffffff44
00000058
000005dd
0000031d
fffffd7f
00000435
00000533
00000558
fffffccd
00000197
000005fa
000006d8
0000013e
0000035c
ffffff63
000000ec
00000232
00000267
fffffc5e
00000361
00000175
0000086b
0000032a
00000703
000004ec
00000303
0000020b
0000019a
0000005b
000007a1
fffffda0
00000267
0000063b
000002ae
000005aa
000004d4
0000015e
000001cb
0000045d
fffffd72
0000048d
000000da
00000458
00000441
000002b2
fffffd43
00000594
ffffff72
00000d64
00000561
000005d7
00000592
fffffd78
000003a7
fffffd2f
000004d4
fffffdf1
000001f2
0000020c
0000042f
00000527
000005b5
fffffed5
fffffde9
000005c4
fffffe50
000003aa
00000354
00000544
000002cf
ffffff63
fffffff9
00000242
ffffff49
00000232
ffffff77
000001d2
00000020
00000561
00000264
00000376
0000023e
fffffe56
0000002a
000001ef
ffffff82
000001b3
000007cf
00000384
00000126
fffffc72
00000223
000004ae
000005b0
ffffffe8
000001bf
00000340
00000315
ffffffd4
000005e6
0000001b
000001e2
000005e0
0000057b
000003a3
ffffffc0
00000072
0000048d
00000240
0000034a
00000681
00000022
00000200
0000003e
000001dd
000001dc
0000046e
0000048c
000002ff
fffffa49
00000012
000000a8
00000405
000004c4
fffffbc5
000002bd
0000050b
0000045b
00000363
00000633
000001c2
000000db
fffffe6a
000000d5
00000679
000008db
ffffff44
000002f5
ffffffd9
00000171
000003c5
00000a2a
00000366
000005d8
ffffffa7
ffffff7a
0000062a
000003f7
000001b0
000003bd
0000085c
00000419
00000542
00000444
