1e04
05fb
0004
0611
ff03
05fa
03f2
ff05
fc03
0408
0803
0408
0300
fbf7
02d4
00f9
f202
0309
0602
02ff
05fd
00f9
04e7
fd00
0905
0400
0c02
ff11
0104
f3fc
fde2
f90c
d403
02fc
0e01
fc1d
0b09
eff5
0abb
fffc
cdff
fe03
0800
f9fc
0900
f7fb
02cf
fffd
0205
0307
0600
f9fd
fd05
0bfd
f4f3
f407
eb02
fe00
09fa
f712
0608
14fc
fecd
ff06
e6ff
fd00
08ff
f501
0203
1706
00e5
0006
fc03
0001
fffb
f500
0001
11f7
0000
ff03
010a
0505
fcfe
faf7
faf9
07fa
0cfd
f60f
0e0b
0503
fd05
fcf6
f4fa
00fb
0901
ef05
0d04
0406
fc00
f709
fffa
f7fa
0705
0507
0a08
080e
fa00
f405
f6f0
e603
0dfa
f810
0507
040e
fdfc
fafc
e5ef
f400
08f8
eb06
0001
0500
0000
0009
00fd
f8fa
0e0a
0900
f800
0009
fcff
ff0e
f8f7
e502
14fa
03f8
f1fa
fb10
fefd
fa00
f2f5
f700
04f3
fbf8
fe05
0cfa
0009
00fd
02fd
0301
fb02
0203
020d
13fb
0814
0701
ff02
0600
0506
0f08
fe07
05ff
030a
00fa
fe00
03fd
0205
0c01
040f
14fc
0b07
0603
0006
0004
0106
0e0c
081f
2000
1114
0a01
0c0c
0d01
0a13
161a
080a
0b01
0906
03fa
0108
04fd
060a
1412
fc0b
07fc
0cfc
0905
f908
fb03
0800
0c07
fa14
0afd
0f01
fbfb
010b
0aff
0b08
170f
0503
03fc
07fd
00f8
0005
02fd
0200
1110
0805
0300
e806
ff04
0efc
130d
ff01
f305
0609
080c
df0f
070e
0eeb
191d
0cfe
da10
0b06
0410
eb10
0406
07ef
0617
0404
dc0c
f5ff
00f0
fa04
00fe
1401
0708
02f3
12f7
000a
0000
fa0d
0108
19ef
0225
02ff
03fe
0e06
0002
ff0c
ff08
07f4
ef21
f709
fe04
eeff
fbdc
0bfb
04ff
0210
0bed
00f7
33e5
0005
fae6
1300
fff8
040d
f6fe
0006
2fe1
0100
fbed
1000
00fb
0006
eb08
f70b
26f2
1201
f600
fcf7
e502
f3f5
df0a
f70b
ee0c
08fb
e70f
08e4
e80b
c3dd
f212
02e4
dece
09f8
ef0a
1503
f5ea
f405
1227
0f0c
e4f0
d003
f6fe
fcf8
e507
e1ec
e40e
fafa
fcfa
c5fb
db09
15f5
e314
c100
fefb
12ec
00dc
09fa
f009
04fc
e1e1
fa1f
0b01
0a06
f61a
cd00
fef3
10fc
fe08
e7ff
00f7
0800
27f4
f4ea
fdfb
1904
f5fd
fe10
eaed
0fff
1816
3ff9
0b0b
f7fe
ffe2
110a
dff7
fcff
ec37
f600
fff3
f700
0202
fefd
00f7
f8fd
0a01
0b00
f8f8
02f8
fe1a
faff
fef5
f7f0
fa00
c9fd
f904
03fa
0008
fc01
fd00
e7d8
f9fa
d800
f7e5
fdf5
f00a
f807
f5eb
f8e1
1603
37e7
e801
07e8
e9ef
f6f7
d904
0913
f902
39f1
f713
00ef
01dc
fcf8
d31a
df32
e1fd
edfd
ffdd
0100
fe2c
f508
05eb
f6cd
24fc
09ec
f204
0bf8
eed7
f1fc
0003
1201
fff7
31fd
ff17
0afc
09e0
00fc
d61a
0b36
e700
1d04
09fd
0901
0115
f70c
0902
0104
08f7
e800
0605
1703
feed
fd09
27fc
1f07
0400
19ff
fc04
08ff
0405
04fb
f804
fdff
0102
cb0d
08fa
fbff
ff15
f70e
30f5
fefb
fffe
9405
0400
010d
f7dc
fd08
53f4
2e0a
010a
16ff
fd05
0a02
00fe
fff9
ec08
f102
0303
fe08
03fe
f7fd
fa10
f8ff
00fc
e6f4
ff02
f805
00fc
0000
f800
f9fa
0101
f6fb
0008
4003
fd03
0000
fd15
fbfd
c017
fc00
fefb
ee01
00f3
05ff
0e02
fc0d
0cf6
f6f8
0bfe
cdff
f7f1
0dfa
fbe3
f312
33e5
0504
0bfa
effc
fcf3
06f6
fce5
f810
24eb
0c11
0c07
01fc
0100
0001
0001
06fe
fefb
02f8
f9fe
13f2
06fd
f9f5
010a
f010
fef3
f1ed
020c
03fa
0801
fffb
0002
ee14
01ea
00f7
f411
fffa
01fd
faff
f2f5
04f9
fcfa
0613
f800
4503
0d07
f6fa
052e
0cf7
c704
1900
fc1c
130b
0d09
fc01
0620
0302
de02
10fc
eb14
fc00
f7ef
03f5
1109
0101
ebed
08fc
1405
06f5
f1fd
07e8
0a0f
03f9
f2ff
00f7
0c03
13ed
f01b
feea
0107
03fe
ee12
0bf0
0511
efe0
e8ed
00fc
0dfe
0003
f2f1
fafd
0e04
fbc6
c5f7
f1db
fd06
0000
1304
010b
f718
fbb7
c519
f6d8
e9f9
dfee
260e
1a0b
e716
f7d9
f2f7
fb04
02fe
00f8
e9f9
ebe4
00fb
edb9
c2fb
f9e2
ec05
def1
23f0
f010
f302
fda4
cb0e
fee2
e3fb
d2f1
25ff
011e
ea05
03fb
eb01
0f00
01ea
0ef7
eb0a
011b
0b05
10f2
e011
f0fc
07fd
0ff6
f410
030f
0001
0401
fe15
f30c
0907
0dfb
0417
0110
f207
24d5
bff7
06e0
fcf3
0100
eff6
0c26
18e9
04c3
a60a
f0de
f50f
03fc
0205
fcf9
08e2
dffa
ec08
eb00
000c
06fc
f31b
04e3
f000
21c9
dbf3
0ff4
f50b
fc09
06f0
180f
1be4
00bf
cbff
fdea
f116
fa06
0fea
f0f4
0fdd
d9fb
f602
f804
ff13
f9ff
0305
ebdb
f0fa
f702
ff0a
0200
f7f7
fe00
ff0a
fa0a
ff01
1001
000d
1003
0402
0102
ec0a
12f9
0a02
4f09
0506
1908
0a0b
0501
da0f
0b13
0b0b
d202
0005
ef00
f208
fcfa
f6ff
e7f3
f8fe
dc01
fd01
fefe
fb0f
fd02
fbfd
fee8
01fb
2103
0104
0d04
0504
0504
f105
0b0b
05f9
bf04
010c
e901
ec08
08fe
f6fd
e7f0
f8ff
be00
ff03
f2ff
f123
0401
03fa
e6da
f8fc
e101
ff00
00fe
f90b
0407
09ff
f6ff
04fb
1200
02f9
0902
1012
03ff
ef04
000e
fafd
0700
0000
0a02
01fe
fd00
d901
f500
f8fe
1f01
fdf4
0200
fb0d
fffb
d5f7
f0f6
01fd
0401
0106
ff01
110d
0702
0f00
fb08
faff
dd02
030d
fe0a
02fe
0205
1705
f4ff
f002
f003
030a
0600
faf9
f708
00ff
f1ef
f40f
f6ff
000b
fa01
0413
fefe
0c01
fafa
f0fe
b604
0615
fc09
fafc
0504
230b
f5fa
eb13
c501
0712
feff
f4ea
f709
1d05
fcf9
eb1d
f8ff
fa00
fc00
f701
04fd
030a
02fa
f20c
eb02
ed01
eef3
2005
fef3
e617
f8f9
e912
0004
0204
0305
1010
000e
0f0b
0a0f
010f
fff0
effb
0103
d5f3
13ee
060a
faf4
fbf5
f3d6
befb
ddcb
ebf4
fdc8
e31a
ebe8
e5e2
f7ec
ebf7
fdfa
090c
f1fc
f417
fa03
fbfd
0402
fff8
1211
fbfb
1e0a
0afb
fffe
18f3
f7e9
ecf7
f7eb
f7ec
14db
fefc
f5f7
0ad9
00ef
f6fd
09ff
0a08
05ef
f5ff
fe06
08e2
00f2
df0b
00e1
f714
cd12
e202
00fa
1d08
fff0
d1e2
03d3
f61f
ca16
d7e3
f3fe
2f00
00f7
edcb
08e5
1025
fe18
f7d3
0315
4302
07ca
f71f
e9f3
e9e5
e2f7
1727
02fa
d2fa
04b1
e905
f2d3
f4ed
9ffd
02fc
fff0
d5fc
04c8
f3ed
fee8
09fb
b512
01dd
0803
00fe
1012
0a1c
f90b
0102
1105
0912
0309
eb0b
0209
080d
05ff
ffde
06fc
171f
05fd
e00d
0300
03fb
1201
0bf6
ff00
1007
05fc
fe0e
2bfb
ef05
e1f1
ee00
eefa
040a
e6fc
eaf2
25f9
f0fa
fbfa
f424
04f3
e50e
d8fe
09ec
3c08
08fe
ff07
0040
04fd
f90d
04ed
0902
d9ee
e602
edf3
e8d3
e2f2
0700
e6e8
eedf
e1ef
eaf8
09f5
efe1
edfd
e301
be16
15d9
170b
09f4
1304
fb1c
030d
0904
eb19
1dfe
e5f8
fefe
0005
fec3
0103
1000
00e8
f9f1
d5f8
fdfa
16fc
fabc
0206
f6fe
e408
05fb
110b
06ec
0f03
fffc
050e
0702
f809
1106
1105
fe16
f509
ee01
0cee
f214
0cf5
d800
0903
060b
0c04
d8ed
1aeb
f309
28f3
e5eb
4b0b
0619
04ff
ef07
06e3
ea12
01ef
ee0d
e808
fa0c
04f6
f805
de1b
fcf5
fbf7
0011
8106
f400
1dec
f4d7
1045
53e1
3d0d
2aed
d609
f8fb
10eb
f1d9
1018
1a01
17fb
27fe
46eb
fc08
f9fe
f8f5
eae6
d70e
ff05
ed13
35d0
00f6
f0f0
0d05
d013
d5e2
b5f5
1308
08ee
03ed
faf6
04fe
f612
eae4
effa
1903
f400
ff02
0805
f5f3
00f6
040a
fd05
f10b
0afe
f905
10fc
ecfa
09fc
eb08
f405
0dfa
1400
f900
0a00
e6ff
10f6
f414
f100
00fe
f508
00ff
1104
0b00
f200
f406
030c
0105
180a
f8fc
1f04
081d
0023
c8fc
f50f
24ec
050b
fbfb
1501
f204
1515
e20a
f408
1806
f903
0202
0909
07f4
f7f6
f705
0602
f40e
07fd
01fa
1607
0309
ff0d
e1fb
fe03
0b10
ebfe
0203
0900
efe7
0607
fe02
f204
0215
210a
0c1a
f610
0706
01f7
170b
0715
e312
0e07
0917
ea02
02f2
e6e9
2a0e
040a
e215
06ff
00fe
09ff
0306
e0f5
fbfb
00f5
02f2
230d
0915
f200
00f7
f4ef
1217
000c
e614
f306
0109
fffb
00f6
c1d0
2419
f000
efed
eff2
eced
16f0
f703
c9f2
eefb
00ed
2abd
1507
0005
08f9
0306
f1f0
f00c
0503
00f9
f10b
fce5
0ffb
0210
d4ed
f60e
fcf9
26da
f2f5
f2cb
24f5
fe1e
e00f
f4ed
05f4
43cb
e300
0104
0aff
f6dc
0000
1009
0004
f500
44fe
0007
00fd
00e4
ff01
c511
ec3a
0803
04fb
fefd
fff2
02df
f20a
0afb
f513
f1fe
f400
00fc
0200
fedc
00ff
0a00
0001
00fa
6401
0306
0301
0f11
08f7
b50d
2431
0606
1cfb
0102
fefe
0c1d
f901
f0f4
1ff1
f401
ea00
00f2
f401
03fd
0200
00f9
f7e1
04fb
d702
03f9
ff05
031c
0701
f7fb
08e4
0400
bffe
00f8
f902
0211
0003
05f0
12ba
0500
0100
ff00
0a04
0d11
e5f6
fd07
efee
09f2
f8fa
fb01
0b0e
eced
14fc
0601
0f04
1608
07fa
f8fc
e8ee
00f6
0cf8
fdff
f704
010e
f910
fb00
130c
171e
d8f9
0308
f5f7
0ce8
f2f5
f202
1323
e8ef
2905
04fe
0d0a
1c0d
0bf3
f6fa
e7f3
fcf7
0bec
01fc
fb03
ff12
fd15
fe00
0b0c
1318
f7ff
0605
f7f5
feff
fef6
fb03
0218
edec
1cfc
fb01
0cfd
020f
14fa
fbfb
ecf6
f9fe
ffed
03f8
fd08
f206
1a02
04f7
0701
fafa
ffff
f2fb
0002
fd02
ef01
0401
03fe
f1f1
0002
02fc
0315
f500
eb00
0204
00fd
f5ef
0000
0500
000e
f907
fc01
03f9
ffff
f7f0
0000
fffc
f9fd
00ff
dd05
0200
01fa
eede
fd00
0600
0420
f3ff
f401
01ff
fe00
f9df
f9fb
0b00
0a1c
fa03
1103
00fd
fb01
00f6
03fe
fcfd
00ee
04fe
0102
fffd
fcfc
fff0
02f9
0bfe
0007
fd00
1d01
fffc
fbfe
00f0
fafb
09fe
0507
fe00
04f7
fbff
0400
0207
0803
fff7
fdfe
0904
02ff
ff08
0306
0e05
0302
0903
0afd
0002
fd05
0307
0006
0f09
f902
0a01
0bfe
01fe
0cf7
00fd
00ff
0202
0400
fcfa
0404
0206
1200
0208
fd01
06fb
03fe
0d0c
0a07
fa07
0806
0508
ff04
0800
0000
080a
0e08
f9fe
03ff
00ff
fdfe
02ff
0001
fd00
f603
0302
0a00
0205
fe00
02ff
ff00
0f06
f609
fffd
0003
0207
fd00
04f8
01fe
0c03
fb0b
fcf8
f800
f114
1cf7
0e00
f70f
d7fc
f107
3ef2
08f5
0110
03f9
0f13
ec27
deed
08f7
1df8
fff7
0e0c
01f3
0d15
f61f
09d5
26fb
0b0b
0be6
fc1a
08fa
effb
0010
f4f7
f8f2
28f9
e6f7
211f
f6ff
fbe8
0f1b
32fd
0c01
ee20
f20f
1d1e
df15
0cf9
15f3
37f5
0d13
d728
02eb
0014
fefb
ed02
020b
f9f1
fdf8
1d00
0311
0722
eff6
fcd2
12f2
0000
ddf9
ee02
290b
0114
df05
0705
06d3
f500
e9f4
eaea
1201
00f3
fe00
fc16
fd02
00fd
05f3
0301
2502
00fb
0102
f9dc
04ff
fa07
dc0f
f900
ae01
0000
fe02
edaf
04fd
0cfa
df0d
ee05
0200
01fa
0600
fe11
fa00
e901
0ffb
fdff
3504
02fc
0c01
ffec
0000
c305
f207
fafd
dc06
0006
fcfe
f3be
0002
fa00
d8f2
fa05
e903
01ff
0000
fcfd
0002
f501
f2f6
fd02
dd06
02fb
0d01
fb04
0707
e506
f2e5
fc02
fc05
0300
0100
fc06
020a
e905
e6d3
0c03
2008
0dde
2103
1218
011a
27ee
141c
23ff
370e
09ea
260c
0f1c
0b21
22e6
0f29
360d
1002
fdfd
14f9
0210
0910
11f2
fb09
180c
1311
0af0
fffc
010b
fc18
feed
1009
110e
050d
ff00
01ef
ed0a
0014
f2ec
f400
0f29
eefd
f90c
faec
e5f3
f706
eefe
ece5
f919
f2f9
02fd
e9ee
dcec
fa08
f7fe
fff4
ea0a
d4e2
f809
e5d2
c8c7
eb00
f10d
eadb
db17
e4ed
f512
e5e2
e0dc
e0ee
e917
eee5
d8ff
d2ff
fb1e
f6fb
0e08
01fb
ecfd
0d0b
eb0b
5608
fc18
ff01
1027
f8ef
a113
e9f5
fa08
1700
001c
0d06
f916
fcf5
d915
09f7
e3f3
3bfd
fdff
0804
061a
f5eb
c905
fd09
fe17
54fa
fe00
10fa
f231
e9f5
f30d
fbe6
fff0
cf04
0411
0efc
e1de
f306
2d06
ff05
f3ea
f5f9
fce5
03fa
e4fb
f90c
eb05
00ff
0b03
9efc
00dd
0aef
deed
f91a
4cfb
f702
1ced
8111
07e4
0c06
efab
0910
34fd
0224
150e
0805
090a
0803
0803
fbf9
fd00
fefa
e609
eef9
fa10
25ff
0ee8
0602
fe06
0602
10f6
f0f6
f509
1ef4
f1e2
0e01
0409
fb08
12f3
fd07
0804
1101
0d0a
fb00
fffe
05f4
f007
ebf4
ed05
2700
17f8
f60e
f604
000b
24f4
03e5
f103
28f8
0def
0812
f7fe
000e
3102
fb00
06ff
fa07
0a05
02fb
fffc
f9fc
eafb
01f2
01fd
0409
13f3
0a09
fa02
f904
0bff
0be9
03ff
0809
0c02
0518
ff00
000b
0d06
e9fe
001f
0804
04fd
00fb
1708
feff
f104
f8f8
03f1
09fd
0618
070d
fafd
00f8
12f5
b400
06d9
0200
0000
0c05
15f2
f5f2
25f0
0301
0031
f100
1317
0802
1215
12f9
ce06
50fc
f806
03fb
0e13
ee0b
bd00
1c17
0c00
2802
fbd0
1bf4
0efe
1214
d7ea
eb30
34d5
eaf4
fe35
dd02
fc25
03f2
2715
08ed
b503
02e6
f524
f1fc
02fd
dee7
fa12
1af9
d106
03ee
f9e7
0ded
faea
e10b
ddd7
f02e
10e2
fdfa
f519
f7ff
f201
f5f0
1e1d
160a
ddfd
fbda
bfff
f6e3
d807
06f2
0405
0bed
04ce
fee4
c2f5
e4d9
e2e8
19e9
fe18
00ef
f2cb
1002
fe14
0510
fb09
ff00
f810
070f
ecfa
ffd5
c6ee
00f6
e119
0700
f9f6
07f1
27c1
eed6
c3e9
ffd9
f4f8
08f6
ff08
00df
22be
1d08
0b11
1311
10e8
0b05
f31a
001c
d309
15ef
06ec
1d1f
0c07
0917
f6f8
0913
1ef5
0ee2
fdef
11f3
06fb
041d
07f2
050f
2df2
f5fb
f1fe
e8f8
fefd
fcf2
edfe
00f9
0208
1200
f6f5
0203
251a
f1e7
fc08
edf7
0df6
f3fc
fdef
071a
fae2
0ff7
0d01
0909
200e
09f3
ea07
f1ff
f6fc
f3e7
e909
00f7
03fc
1208
f3fe
0910
3322
edeb
0f13
f3fb
04f3
ccff
00ef
0d33
fada
22f8
0f04
180b
2521
03fc
f408
f300
edf1
00fb
f607
080e
f7fe
190b
f9fe
0108
111d
fefb
0011
faf3
fa06
edfe
fef9
ff20
efe4
21f8
0005
0ef8
0819
fb00
0305
0801
0517
01fe
0dfc
f504
f707
dd00
0904
0906
0106
0004
18f9
030b
03fd
ec03
04fd
0b03
fcf3
0500
0afb
1508
0cfc
fbfc
0205
ff00
0010
06fb
fa06
ecf2
f807
d10b
0d04
0003
fe08
0f0a
0f04
f5fb
0009
cf0b
0900
0a06
f6ed
0507
0f02
0e02
0900
0dfe
ff02
0000
000c
08fe
f500
f4f7
f4fd
ef04
ff01
fdfc
f409
0805
01ff
eff8
fffa
e307
01fc
0200
fbfc
0407
1304
0001
08ff
2301
0516
0afc
1a0b
0204
0802
1c0d
0f01
f3ff
02ff
f504
f7e9
ed04
0a08
0005
0205
dd12
01ef
07f9
150f
defb
eaf4
fbf0
0400
26fb
0616
fe08
0816
030a
fc25
1b0d
1816
e2cf
e1f9
ed02
d2ea
fdfc
fb2c
fdf5
ef27
bffb
d1e6
f2e8
0afb
c9e7
e51f
ecda
f81a
35f9
f71c
00ff
090c
0610
f407
061b
18f0
00b6
b700
eb11
c0da
fb02
fefd
f103
f3e2
d6d3
b9e5
e9ee
0ce2
baeb
f4fb
f7ea
f3d8
