00000000
00000001
fffffffe
ffffffff
00000000
ffffffff
00000002
00000001
00000000
00000000
00000000
00000000
00000000
00000000
fffffffd
ffffffff
00000000
fffffffe
00000000
00000001
00000001
fffffffd
00000000
ffffffff
ffffffff
00000000
00000000
00000000
00000003
fffffffe
00000000
00000000
00000001
00000000
00000000
00000000
00000001
fffffffe
00000000
ffffffff
00000000
00000000
ffffffff
00000000
00000000
00000000
00000000
00000000
00000000
00000001
00000000
00000000
00000001
ffffffff
00000000
00000000
00000000
00000000
00000000
fffffffe
00000000
00000003
00000000
00000000
00000000
00000000
00000000
ffffffff
fffffffd
ffffffff
00000000
00000003
00000000
ffffffff
ffffffff
00000000
00000000
00000000
fffffffe
00000000
00000000
00000000
00000000
00000000
00000001
00000000
ffffffff
00000000
00000002
ffffffff
00000000
ffffffff
00000002
00000000
ffffffff
00000000
00000000
00000000
00000000
00000000
00000000
00000000
00000000
00000000
00000002
00000000
ffffffff
00000000
00000000
00000002
00000000
00000000
00000000
00000000
00000000
ffffffff
00000000
00000000
00000001
00000000
00000002
ffffffff
00000000
00000003
00000001
00000000
00000000
ffffffff
00000000
00000001
fffffffd
00000001
ffffffff
fffffffe
00000001
fffffffe
00000000
ffffffff
00000000
ffffffff
ffffffff
00000011
00000000
00000002
fffffff7
00000000
fffffffb
00000001
fffffffc
ffffffff
00000000
00000000
fffffff3
00000004
00000000
ffffffff
00000004
00000000
00000005
00000000
00000001
00000000
fffffffe
fffffffa
00000005
00000006
fffffffe
00000002
00000000
fffffffe
ffffffff
00000001
00000003
00000000
fffffffd
fffffff7
fffffffd
fffffffe
fffffffe
00000001
ffffffff
00000000
00000001
ffffffff
00000002
00000001
ffffffff
fffffffb
00000002
00000000
00000000
ffffffff
00000000
fffffffd
00000002
fffffffe
fffffffe
fffffffe
fffffffa
00000001
00000001
00000000
00000000
fffffffa
00000002
00000000
ffffffff
00000001
fffffffd
fffffffa
00000000
00000000
00000000
00000000
00000001
00000002
00000000
00000001
ffffffff
00000004
00000000
ffffffff
ffffffff
fffffffc
ffffffff
00000002
ffffffff
00000002
00000003
fffffff2
00000000
00000001
00000002
00000000
00000004
00000002
00000000
fffffffa
ffffffff
00000004
fffffffc
00000000
00000000
00000000
fffffffe
ffffffff
00000000
ffffffff
00000008
ffffffff
00000000
00000002
fffffffd
00000001
00000000
00000001
00000001
00000000
00000000
00000001
00000004
00000000
ffffffff
00000002
fffffffb
00000000
00000000
00000000
00000000
00000000
ffffffff
00000000
00000008
00000000
fffffffb
fffffffd
00000003
00000000
00000000
00000009
fffffffd
ffffffff
00000009
fffffff6
00000005
00000004
00000003
00000001
00000000
00000008
00000000
00000002
00000000
ffffffff
00000001
00000003
fffffffe
00000000
ffffffff
00000001
00000001
00000000
0000000c
00000001
00000001
00000000
00000001
00000001
00000000
00000002
00000000
00000000
fffffffe
00000005
00000001
ffffffff
00000000
00000000
ffffffff
00000000
00000005
fffffffe
fffffffd
00000004
00000000
ffffffff
00000000
fffffff2
00000000
00000000
0000000d
00000000
fffffffe
00000001
00000001
00000000
fffffffd
fffffffb
fffffffc
fffffffd
00000000
fffffffe
fffffffe
00000004
00000000
00000002
fffffffe
fffffffe
00000000
00000001
fffffffa
ffffffff
00000002
fffffffe
00000000
00000006
00000007
00000007
00000000
00000005
ffffffff
00000000
00000001
00000000
00000004
fffffffd
00000000
00000004
fffffffc
00000002
fffffff6
00000000
fffffffa
ffffffff
00000002
fffffffe
00000003
0000000a
fffffffe
00000000
ffffffff
00000002
00000006
00000002
00000000
ffffffff
00000000
00000002
00000000
00000000
00000001
00000000
00000001
00000000
00000000
00000000
00000000
00000000
ffffffff
ffffffff
00000000
00000000
00000000
00000000
00000002
00000000
00000000
ffffffff
00000001
00000000
00000000
00000000
ffffffff
00000000
00000000
00000000
00000000
00000000
00000001
00000000
00000002
00000000
00000000
00000000
00000002
00000000
00000000
00000000
00000000
00000000
00000000
00000000
00000001
00000000
00000000
00000000
fffffffe
ffffffff
00000001
ffffffff
00000000
00000000
00000000
00000000
00000000
00000001
fffffffe
00000000
00000000
00000000
00000000
00000000
00000003
00000003
ffffffff
00000001
00000000
ffffffff
00000000
00000000
00000000
00000001
fffffffe
00000000
ffffffff
00000000
00000000
ffffffff
00000000
00000000
00000001
00000000
00000000
00000000
00000000
00000001
00000000
00000000
00000000
00000000
00000001
00000000
00000000
00000001
00000000
00000002
00000000
00000000
00000001
00000002
ffffffff
00000000
ffffffff
00000000
00000000
00000000
ffffffff
00000000
00000000
00000000
00000000
00000000
00000004
00000000
00000000
ffffffff
00000000
00000000
fffffffe
00000000
fffffffe
00000000
00000000
00000000
00000000
00000000
00000000
fffffffe
0000000a
00000000
00000001
00000000
00000001
00000000
ffffffff
fffffffc
00000002
fffffffe
00000003
00000001
00000000
00000003
ffffffff
fffffffe
fffffffe
00000000
fffffffe
fffffff8
00000004
00000000
00000005
fffffffd
fffffff8
00000003
ffffffff
00000006
00000004
ffffffff
00000000
00000001
00000000
00000003
00000000
00000000
00000000
00000000
00000001
00000000
ffffffff
fffffffe
00000006
fffffffe
00000000
00000000
00000000
00000000
00000000
ffffffff
00000000
00000000
00000000
fffffffe
00000000
00000006
fffffffd
00000001
00000000
00000000
00000000
00000002
fffffffd
fffffffe
00000000
00000002
fffffffc
ffffffff
ffffffff
00000005
ffffffff
00000000
00000003
00000001
00000000
00000000
ffffffff
fffffffe
00000000
00000000
00000004
ffffffff
ffffffff
00000004
00000000
fffffffa
00000000
00000000
00000003
00000002
00000001
0000000d
00000001
ffffffff
ffffffff
00000000
00000001
ffffffff
00000000
fffffffe
00000004
ffffffff
00000000
fffffffb
00000001
fffffffa
00000000
fffffff6
fffffffe
00000002
00000002
00000001
00000000
00000001
00000001
00000001
00000000
00000000
00000000
fffffffe
00000000
00000000
00000000
ffffffff
00000002
00000000
00000007
00000000
00000001
ffffffff
00000003
00000002
00000000
ffffffff
00000001
fffffffe
00000000
fffffffe
fffffffd
fffffffa
00000000
00000000
00000000
fffffffe
00000000
fffffffe
00000001
00000002
00000000
00000000
00000000
00000000
00000001
00000001
00000000
00000002
00000000
ffffffff
00000000
ffffffff
00000001
00000002
00000003
fffffffb
00000001
00000000
00000002
00000000
fffffffd
00000001
00000000
00000000
00000002
fffffffa
fffffffd
fffffffe
ffffffff
00000000
fffffffe
00000003
00000001
00000000
fffffffd
00000002
00000001
00000000
ffffffff
00000000
00000000
fffffffe
ffffffff
00000000
00000005
00000000
00000000
fffffff9
ffffffff
fffffffe
00000000
00000001
00000000
00000001
00000000
00000000
ffffffff
00000006
fffffffc
ffffffff
00000000
00000000
00000001
00000000
ffffffff
ffffffff
00000012
00000000
00000000
fffffffe
00000000
00000000
00000000
00000000
00000000
00000001
00000001
00000001
00000000
fffffffd
ffffffff
ffffffff
00000001
00000001
00000000
00000002
00000002
00000003
fffffff8
00000004
ffffffff
00000002
00000000
00000001
00000002
00000001
ffffffff
00000000
00000000
00000001
00000003
00000000
00000000
00000000
00000001
00000000
00000000
ffffffff
00000001
00000000
00000001
00000000
00000000
00000000
00000000
00000000
fffffffd
fffffffe
00000000
00000000
00000000
00000000
00000000
00000001
00000000
00000000
ffffffff
00000000
00000000
00000000
00000000
ffffffff
00000000
00000000
00000001
00000000
00000000
00000000
fffffffe
00000000
00000000
00000001
fffffffd
00000000
00000000
00000002
00000000
00000000
fffffffe
00000000
00000000
00000000
00000000
00000000
00000000
00000000
00000001
00000000
00000000
00000000
00000000
fffffffc
00000000
fffffffd
00000002
00000000
00000000
00000000
00000000
ffffffff
fffffffd
fffffffe
fffffffe
fffffffe
00000000
00000001
00000000
ffffffff
ffffffff
00000000
00000000
00000000
fffffffe
00000000
00000000
00000000
00000000
00000000
00000000
00000000
00000000
00000000
00000000
ffffffff
00000000
00000000
00000000
00000000
00000000
00000000
00000000
00000001
00000000
00000002
00000000
00000000
ffffffff
fffffffe
00000000
00000000
00000000
00000000
00000000
00000000
00000000
00000000
fffffffe
00000000
00000000
00000000
00000000
00000000
00000002
00000000
00000000
00000002
fffffffd
00000000
00000000
00000000
00000000
00000000
00000000
00000000
00000000
00000000
00000001
00000000
fffffffe
ffffffff
00000000
ffffffff
00000000
00000000
00000002
00000000
fffffffe
00000000
00000002
00000000
fffffffe
00000000
00000000
00000000
fffffffd
00000000
00000000
00000000
00000002
00000003
00000000
00000000
00000000
00000000
fffffffe
fffffffd
fffffffd
00000000
00000001
00000000
00000000
fffffffb
00000000
00000000
00000000
00000000
00000000
00000001
00000001
ffffffff
ffffffff
00000000
00000000
00000000
00000000
00000000
ffffffff
00000000
00000000
00000000
00000000
00000008
00000000
00000000
00000000
00000000
00000000
00000000
00000000
00000000
ffffffff
ffffffff
00000001
00000000
00000000
00000001
00000001
00000000
00000000
ffffffff
00000001
00000000
00000000
00000001
fffffffe
00000000
00000000
00000000
00000000
00000000
00000000
00000001
00000000
00000000
00000002
00000000
00000000
00000001
ffffffff
00000001
ffffffff
ffffffff
ffffffff
00000000
00000000
00000000
00000000
ffffffff
00000001
00000001
00000000
00000000
00000001
00000000
00000000
00000000
00000000
00000000
00000000
00000000
00000000
fffffffd
00000000
00000000
ffffffff
00000000
00000000
00000000
00000000
00000001
00000000
00000000
00000000
00000000
00000000
00000000
00000000
00000000
00000000
00000000
00000000
00000000
00000000
ffffffff
00000001
00000000
ffffffff
fffffff8
00000001
00000000
00000000
fffffffd
00000000
ffffffff
fffffffe
ffffffff
00000002
00000000
ffffffff
fffffffe
00000000
00000000
00000000
00000000
ffffffff
00000000
00000000
00000000
00000000
00000000
00000000
00000001
00000000
00000000
ffffffff
00000000
00000000
00000002
00000000
00000000
00000000
00000001
00000000
00000000
00000000
00000000
00000000
00000000
fffffffe
00000001
ffffffff
00000000
00000000
00000001
00000000
00000000
fffffffe
00000000
ffffffff
00000000
ffffffff
00000002
ffffffff
00000000
00000000
00000000
00000000
ffffffff
ffffffff
00000000
ffffffff
ffffffff
00000000
ffffffff
00000000
00000000
00000000
00000000
00000000
00000000
0000000f
00000004
00000000
00000001
ffffffff
00000000
ffffffff
fffffff7
fffffffe
ffffffff
00000000
ffffffff
00000000
fffffffd
00000001
00000000
00000000
00000000
00000000
ffffffff
00000000
00000000
00000000
00000005
ffffffff
00000000
00000000
00000000
00000000
fffffffe
00000000
00000000
00000000
00000000
00000000
00000000
00000000
fffffffe
00000000
00000001
00000000
00000000
00000000
00000000
ffffffff
00000000
00000000
00000000
00000000
00000000
00000004
00000003
00000000
00000001
00000000
00000001
00000000
ffffffff
00000000
ffffffff
00000001
00000000
00000000
00000000
00000000
00000001
00000000
00000000
00000000
00000000
00000000
00000000
00000001
ffffffff
00000000
ffffffff
00000001
00000000
00000002
fffffffd
00000000
00000000
00000001
00000000
00000000
00000000
00000000
00000000
00000000
00000001
fffffffd
ffffffff
00000000
00000000
00000000
00000004
00000000
00000006
ffffffff
00000000
00000000
00000000
00000000
00000001
00000002
00000002
00000000
00000001
00000000
00000000
00000000
00000000
00000003
00000000
00000000
00000000
00000002
00000000
00000000
00000000
00000000
00000000
ffffffff
00000000
00000000
ffffffff
00000000
00000001
00000000
00000000
00000000
00000000
00000000
00000000
00000000
00000000
00000000
fffffffe
00000000
00000000
ffffffff
ffffffff
00000000
00000000
00000000
00000000
00000000
00000000
00000001
00000000
00000001
00000001
00000000
00000000
00000000
00000000
00000000
00000000
00000000
ffffffff
00000001
00000000
00000000
00000001
00000000
00000000
00000000
00000000
00000000
00000000
fffffffd
00000000
00000001
00000001
00000000
00000000
00000000
00000001
fffffffd
00000000
00000001
00000001
ffffffff
00000000
00000002
00000000
00000000
00000000
00000002
00000001
00000000
00000000
ffffffff
00000000
fffffffe
00000000
00000001
00000000
00000001
00000001
00000001
00000000
ffffffff
00000000
00000000
00000003
00000000
00000000
00000000
00000000
00000000
00000000
fffffffe
00000000
00000000
00000001
00000000
00000000
00000000
00000000
00000000
00000000
00000000
00000000
00000000
fffffff6
00000000
00000000
00000000
00000000
00000000
00000000
00000000
00000000
00000000
00000000
ffffffff
00000000
00000000
ffffffff
ffffffff
00000000
00000000
00000001
00000000
00000000
ffffffff
00000000
00000002
00000001
00000000
00000000
00000000
00000000
00000000
00000000
00000000
00000000
fffffffe
00000000
00000000
fffffffe
00000001
fffffffe
00000001
00000002
00000000
00000000
00000000
00000000
00000001
00000000
ffffffff
00000000
00000000
00000000
ffffffff
00000001
00000000
00000000
00000000
00000000
00000000
00000000
00000000
00000002
00000000
00000000
00000000
00000000
00000000
00000000
00000000
ffffffff
00000000
00000000
00000000
00000000
00000000
00000000
00000000
00000000
00000000
00000000
00000000
00000000
00000000
00000001
00000000
00000000
00000002
00000005
ffffffff
00000000
00000001
00000002
00000000
00000000
00000000
00000000
ffffffff
00000000
00000000
00000001
00000000
00000000
00000001
ffffffff
00000001
00000000
00000000
00000000
00000000
00000000
00000000
ffffffff
00000001
00000000
00000000
00000000
00000000
fffffffe
00000000
fffffffe
00000000
00000001
00000000
00000000
00000000
00000000
00000000
00000000
00000002
ffffffff
00000000
ffffffff
00000001
ffffffff
00000000
00000000
00000002
00000000
00000000
00000000
00000000
ffffffff
00000001
00000000
00000001
ffffffff
00000000
00000001
00000003
00000000
00000000
00000000
00000000
00000000
00000000
00000000
00000000
00000000
00000000
00000000
ffffffef
fffffffd
00000000
00000000
00000000
00000000
00000000
00000009
00000002
00000000
00000000
00000002
00000000
00000000
00000000
00000000
00000000
00000000
00000000
00000000
00000000
00000000
ffffffff
fffffffb
00000000
00000000
00000000
00000000
00000000
00000002
00000000
00000000
ffffffff
ffffffff
00000000
00000000
fffffffc
ffffffe9
fffffff5
ffffffea
00000000
fffffff2
fffffff3
00000000
ffffffed
fffffffc
ffffffff
ffffffff
00000000
ffffffff
fffffffb
ffffffea
00000000
fffffff6
00000000
fffffff0
fffffff0
fffffff8
00000001
ffffffeb
ffffffef
fffffff9
00000000
00000001
ffffffea
fffffff1
00000003
00000001
fffffff2
00000000
fffffffa
fffffffd
fffffff3
fffffff1
ffffffff
fffffff1
ffffffe9
00000007
fffffff3
fffffffc
ffffffff
fffffff3
ffffffea
ffffffff
fffffff1
fffffffa
00000000
fffffffd
ffffffeb
fffffff1
fffffff8
0000000f
00000002
00000004
00000002
fffffff8
00000005
ffffffee
ffffffed
00000002
ffffffea
fffffffb
fffffff9
ffffffee
fffffff2
fffffff6
00000002
fffffff4
ffffffee
ffffffee
00000006
fffffff4
fffffff3
fffffff9
ffffffef
00000000
fffffff0
ffffffef
ffffffff
fffffff7
fffffff0
fffffffd
ffffffef
fffffffc
00000002
fffffff2
fffffffd
fffffff3
fffffff2
00000000
fffffff3
fffffffd
fffffff0
fffffffc
fffffffd
00000000
00000003
00000002
00000001
fffffff1
fffffff6
fffffff8
fffffff6
00000000
fffffffe
fffffff7
fffffffe
00000006
00000011
00000002
fffffff2
ffffffee
fffffffe
00000000
ffffffed
ffffffff
ffffffee
fffffff7
fffffffd
ffffffff
fffffff1
ffffffff
ffffffef
00000000
fffffffb
fffffff8
ffffffff
00000000
00000001
fffffffc
fffffff0
ffffffff
fffffff4
fffffffd
fffffffc
00000000
fffffff7
0000000a
00000004
fffffffe
00000005
ffffffed
fffffffc
fffffffa
fffffff2
ffffffff
ffffffff
fffffff9
fffffff9
00000004
fffffffc
ffffffff
00000007
ffffffd7
ffffffe8
fffffffa
fffffffb
fffffffc
fffffffe
fffffffe
fffffffe
00000004
fffffffb
00000004
fffffffd
fffffffd
fffffffb
00000001
fffffffd
fffffffe
fffffffe
00000008
fffffffb
fffffffc
00000000
fffffff2
fffffffa
fffffff9
fffffffb
00000001
00000002
00000000
00000003
fffffff9
00000000
00000009
fffffffe
fffffffb
00000000
ffffffff
fffffffe
fffffff7
fffffff4
00000000
00000006
fffffff4
00000007
ffffffff
00000000
fffffffb
fffffff8
fffffffe
00000000
fffffff5
fffffff1
fffffffb
fffffff7
00000000
fffffff4
fffffffe
fffffffd
fffffff9
fffffffe
fffffff8
fffffff3
ffffffff
fffffffb
00000000
fffffff9
00000000
fffffffe
00000014
fffffff5
fffffffe
fffffff0
fffffffe
fffffff8
00000000
fffffffc
fffffffa
ffffffeb
ffffffff
fffffffa
00000005
fffffff7
fffffff9
00000001
ffffffe2
fffffffe
00000003
00000004
ffffffec
fffffff8
00000000
ffffffef
fffffff0
fffffffc
fffffffc
00000001
fffffff2
fffffffd
fffffffa
fffffffd
fffffffb
fffffffe
00000000
fffffff1
fffffffa
fffffff4
fffffffd
fffffffc
fffffffd
00000001
fffffffb
ffffffff
fffffffc
00000000
fffffffa
ffffffed
fffffff9
00000007
fffffff5
fffffffc
00000000
fffffffe
00000001
00000000
00000003
ffffffe5
ffffffdb
fffffff1
fffffff2
fffffffb
ffffffee
fffffffb
fffffff1
fffffffd
fffffffe
fffffff8
fffffff8
00000000
00000000
00000004
00000005
00000002
ffffffff
ffffffff
00000000
00000011
00000002
fffffffb
fffffff6
ffffffef
0000000b
fffffffc
fffffffb
00000003
00000000
00000000
0000000a
00000000
00000004
ffffffee
fffffff0
fffffffc
00000000
fffffff6
ffffffef
fffffff9
00000000
00000001
ffffffff
fffffff8
0000000b
fffffffd
00000000
fffffff7
fffffff9
ffffffed
00000005
fffffff9
fffffffd
ffffffee
fffffff7
00000007
fffffffe
fffffff6
fffffff1
fffffff0
fffffffc
00000000
fffffff3
ffffffff
fffffffd
00000001
fffffff1
ffffffff
00000006
fffffffc
fffffffb
fffffff7
00000012
00000000
ffffffff
ffffffff
fffffffb
00000003
fffffff8
fffffff0
ffffffff
fffffffb
00000000
00000000
00000001
fffffff5
fffffffc
00000010
fffffff5
ffffffff
fffffffb
00000002
fffffffe
00000005
ffffffff
fffffff3
fffffff9
00000006
00000000
0000000b
00000002
fffffffe
fffffffe
00000002
fffffffe
fffffffe
ffffffff
00000001
fffffffe
00000000
fffffff9
00000005
fffffffc
fffffffa
fffffffc
fffffffe
fffffffd
00000004
00000000
fffffffa
00000001
00000000
00000001
00000002
00000000
00000001
00000000
fffffffb
fffffff9
00000000
00000000
00000006
fffffffa
ffffffff
00000004
fffffffb
fffffffa
ffffffff
00000000
fffffffb
00000002
00000000
fffffffa
00000001
ffffffff
fffffffd
fffffffd
ffffffff
00000000
00000001
00000002
00000000
00000005
00000002
00000000
fffffffe
ffffffff
00000000
00000000
fffffff9
00000001
00000003
fffffffe
ffffffff
fffffff8
00000000
fffffffe
00000002
00000002
fffffffc
fffffffd
00000000
00000002
00000000
00000001
fffffffb
00000000
00000001
00000000
00000001
fffffffd
00000000
00000000
00000004
00000000
ffffffff
00000000
ffffffff
00000000
00000000
00000000
fffffffb
fffffffe
ffffffff
00000008
fffffffe
fffffffe
00000001
fffffffb
fffffffb
fffffffe
fffffffb
00000000
fffffff7
ffffffff
00000000
ffffffff
fffffffe
fffffff9
fffffffc
00000002
fffffffc
fffffffb
ffffffff
00000000
ffffffff
fffffffc
00000007
fffffffa
00000000
fffffff6
ffffffff
00000000
00000000
00000000
00000000
fffffffe
ffffffff
ffffffff
00000001
ffffffff
fffffffe
00000000
fffffff4
00000000
00000001
00000000
00000000
fffffffe
fffffffb
ffffffff
fffffffa
fffffffb
fffffffe
00000000
fffffffe
00000000
fffffff9
fffffffe
fffffffe
fffffffd
fffffffe
fffffffa
00000000
fffffffe
00000000
fffffffb
fffffffc
fffffffe
00000000
fffffffd
00000006
fffffffd
00000000
00000000
fffffffc
ffffffff
ffffffff
fffffffe
00000002
fffffffe
00000001
00000002
00000001
fffffff7
00000000
fffffffe
00000000
00000000
fffffffa
00000000
fffffffc
fffffffe
00000001
00000000
fffffffd
fffffffd
00000006
fffffffc
fffffffb
fffffffe
00000000
00000003
fffffffd
fffffff7
fffffffe
00000000
00000000
ffffffff
00000001
00000000
ffffffff
00000006
ffffffff
fffffffe
00000000
fffffffe
ffffffff
ffffffff
00000001
fffffffd
00000000
ffffffff
00000000
fffffffd
00000000
ffffffff
fffffffe
ffffffff
fffffffe
fffffffe
fffffffe
fffffffd
fffffffe
00000000
ffffffff
fffffffb
fffffffe
00000000
00000000
fffffffd
fffffffe
00000008
fffffffd
fffffffc
fffffffe
ffffffff
fffffffe
fffffffd
fffffffd
fffffffe
fffffffd
00000002
fffffffe
00000004
fffffffd
fffffffe
00000002
fffffffc
00000000
00000000
fffffffa
ffffffff
fffffffe
00000000
fffffffe
fffffffb
00000001
00000000
fffffffc
fffffffd
00000000
ffffffff
00000000
00000001
00000000
ffffffff
00000001
fffffffb
fffffffe
fffffffc
00000000
ffffffff
fffffffe
00000003
00000000
fffffffd
00000000
00000000
fffffffb
ffffffff
fffffffe
fffffffc
ffffffff
00000002
fffffffd
00000000
fffffffd
fffffffe
fffffffd
00000001
fffffffb
00000000
ffffffff
fffffffe
00000000
fffffff7
ffffffff
fffffffe
fffffffc
fffffffe
00000000
fffffffe
fffffffa
fffffffb
00000002
00000000
ffffffff
ffffffff
ffffffff
00000002
fffffffe
fffffffb
00000002
fffffffb
fffffffc
00000000
00000001
ffffffff
00000000
fffffffe
fffffffd
00000001
00000000
ffffffff
fffffffd
00000003
00000000
fffffffb
00000000
00000000
00000000
ffffffff
00000002
fffffffc
00000000
00000002
ffffffff
00000000
ffffffff
00000003
ffffffff
00000000
fffffffe
00000000
fffffffb
00000000
fffffffc
fffffffd
00000000
00000000
fffffffd
fffffffa
ffffffff
fffffffb
fffffffe
fffffffd
fffffffe
00000000
fffffffb
fffffffe
00000001
00000001
ffffffff
fffffffd
fffffffc
00000000
00000000
00000002
00000000
fffffffd
00000000
00000000
fffffffe
00000000
fffffffc
fffffffd
fffffffe
fffffffa
00000000
fffffffb
fffffffa
fffffffe
fffffffb
fffffffe
fffffffd
fffffffe
00000000
fffffffe
fffffffc
00000002
fffffffe
ffffffff
00000001
fffffffa
fffffffe
fffffffc
fffffff9
00000000
fffffffd
00000000
fffffffd
00000001
fffffff6
ffffffff
00000000
00000001
00000003
fffffffd
ffffffff
00000000
fffffffd
fffffff2
00000001
ffffffff
fffffffe
fffffffd
00000000
00000004
fffffffa
fffffffd
00000000
00000000
fffffffa
00000000
00000000
fffffffc
00000001
00000002
fffffffe
00000001
00000000
ffffffff
00000000
00000000
fffffffe
ffffffff
00000000
ffffffff
00000000
00000000
00000003
00000003
fffffff7
00000000
ffffffff
00000000
fffffffe
fffffff9
ffffffff
fffffffd
00000001
00000001
fffffff9
fffffffc
00000000
00000001
00000000
fffffffe
ffffffff
ffffffff
00000002
ffffffff
00000000
ffffffff
fffffffe
ffffffff
00000000
00000000
00000000
fffffffc
00000000
fffffffb
fffffffc
fffffffe
ffffffff
00000002
00000000
fffffffa
fffffffd
ffffffff
ffffffff
fffffffb
fffffff8
ffffffff
fffffffc
ffffffff
fffffff8
00000001
00000000
00000002
fffffffe
fffffffb
fffffff9
00000001
fffffffd
fffffff6
fffffffe
fffffff7
00000002
00000000
00000004
fffffffb
00000000
fffffffa
00000000
fffffffd
00000006
ffffffff
00000001
00000009
00000001
ffffffff
00000000
00000000
fffffffd
fffffffe
00000003
00000000
00000002
fffffffe
00000000
00000000
00000000
00000002
ffffffff
00000000
fffffffe
00000001
ffffffff
ffffffff
ffffffff
00000000
00000000
fffffffd
00000001
00000003
fffffffe
fffffffd
00000000
00000000
fffffffb
ffffffff
00000000
fffffffd
00000000
fffffffd
fffffffe
00000000
00000000
ffffffff
ffffffff
00000000
fffffffb
fffffffe
00000000
00000001
fffffffd
00000000
fffffffe
ffffffff
00000002
00000000
00000001
00000000
fffffffe
fffffffd
00000002
00000000
00000000
00000001
fffffffd
fffffffd
00000002
ffffffff
00000000
fffffffb
00000002
00000002
fffffffc
00000000
ffffffff
fffffffb
00000000
ffffffff
ffffffff
00000000
00000001
00000000
ffffffff
00000000
00000000
fffffffe
00000001
ffffffff
00000001
fffffffd
ffffffff
ffffffff
00000002
00000000
ffffffff
00000000
fffffffd
00000000
ffffffff
00000008
fffffffe
00000000
00000000
fffffffe
fffffffe
fffffffd
00000000
fffffffe
00000000
fffffffe
ffffffff
fffffffd
ffffffff
fffffffd
fffffffe
fffffffe
00000000
00000000
ffffffff
ffffffff
fffffffe
fffffff9
fffffffd
ffffffff
00000001
0000000e
00000001
00000000
00000001
00000000
fffffffd
00000000
fffffffb
00000000
00000000
fffffffe
fffffffc
fffffffe
ffffffff
ffffffff
00000001
fffffffc
00000000
ffffffff
00000003
fffffffe
fffffffe
fffffffe
00000000
fffffffd
fffffffe
00000000
fffffffe
00000000
fffffffd
00000001
00000000
00000000
fffffffe
fffffffc
00000000
00000000
fffffffc
00000001
00000000
00000001
fffffffe
00000001
fffffff9
00000000
00000000
fffffffd
fffffffc
fffffffd
00000000
00000000
fffffffd
00000000
fffffffe
fffffff7
00000000
00000005
fffffffd
00000002
00000000
ffffffff
00000000
00000000
00000000
ffffffff
00000000
00000000
fffffffe
00000002
00000001
00000001
fffffffd
ffffffff
00000001
00000001
ffffffff
ffffffff
00000000
fffffffa
00000000
fffffffd
ffffffff
00000000
00000000
00000000
00000002
fffffffc
00000000
fffffffd
00000000
fffffffe
00000000
00000000
00000000
00000000
00000000
00000000
fffffffd
fffffffd
00000000
fffffffc
00000001
fffffffe
ffffffff
fffffff9
fffffffe
00000000
fffffffd
fffffffc
ffffffff
fffffffe
fffffffd
fffffffd
00000000
00000001
00000000
fffffffb
ffffffff
fffffffe
fffffffb
00000001
00000000
00000001
00000000
ffffffff
ffffffff
fffffffe
fffffffc
fffffffe
fffffffc
fffffffe
fffffffd
00000000
00000000
ffffffff
00000002
00000003
00000000
ffffffff
00000000
00000002
00000000
00000000
fffffffd
00000000
ffffffff
00000003
00000005
fffffffc
fffffff9
fffffffa
00000000
fffffffe
fffffff9
00000000
fffffffa
00000000
00000000
00000000
00000000
00000001
ffffffff
00000000
00000000
fffffff7
00000002
00000000
00000003
ffffffff
fffffffe
fffffffb
fffffffb
fffffffd
00000000
fffffffe
fffffff9
00000002
00000001
ffffffff
00000000
00000000
ffffffff
fffffffe
00000001
00000001
00000002
fffffffc
00000002
00000000
fffffffe
00000001
00000000
00000001
00000000
0000000c
fffffff6
00000001
fffffffd
00000000
fffffffe
fffffff7
fffffffe
fffffff7
00000000
00000001
fffffffe
fffffffe
00000003
fffffffd
fffffffe
00000000
00000000
00000000
00000000
ffffffff
fffffffe
ffffffff
00000000
00000001
fffffffb
00000001
00000001
fffffffd
ffffffff
fffffffd
00000000
ffffffff
ffffffff
00000001
ffffffff
00000006
ffffffff
fffffffa
fffffffe
fffffffe
fffffff9
ffffffff
fffffff8
00000001
fffffff8
00000000
00000000
fffffffe
00000000
fffffff7
fffffffa
ffffffff
ffffffff
fffffff3
00000000
00000005
00000001
fffffffc
00000005
fffffff2
ffffffff
00000008
00000000
00000001
ffffffff
00000000
00000000
fffffffd
00000000
00000001
ffffffff
ffffffff
fffffffa
fffffffd
fffffffd
00000000
00000003
00000000
00000001
00000000
00000004
ffffffff
00000002
fffffff9
ffffffff
fffffffe
fffffffb
fffffffe
00000004
00000000
ffffffff
00000000
00000001
ffffffff
00000000
fffffffe
fffffffd
fffffffd
fffffffe
fffffffe
00000001
00000000
fffffffc
00000002
00000000
00000000
ffffffff
00000001
fffffffd
ffffffff
fffffff8
00000000
00000000
fffffffc
fffffffa
00000002
ffffffff
fffffffd
00000001
ffffffff
fffffffe
ffffffff
00000002
fffffffe
fffffffd
00000000
fffffffd
fffffffe
fffffff3
fffffffa
00000000
00000001
00000000
fffffffe
fffffffa
0000000c
ffffffff
fffffffe
00000000
00000007
00000000
fffffffd
ffffffff
fffffffe
fffffffe
00000000
fffffffd
00000000
00000000
fffffffd
00000001
fffffffe
00000000
00000008
00000001
fffffffc
00000000
fffffffd
fffffffc
00000000
ffffffff
00000000
00000000
00000003
00000000
fffffffe
fffffffd
00000000
00000000
00000002
ffffffff
fffffffb
fffffffd
fffffffe
ffffffff
fffffffb
fffffffe
fffffffc
00000001
00000001
00000000
00000000
00000001
00000000
fffffffd
0000000a
00000000
00000001
fffffffe
ffffffff
ffffffff
00000000
fffffffc
fffffffe
fffffffd
ffffffff
fffffffd
fffffffe
00000000
00000002
ffffffff
00000000
fffffffe
00000002
00000000
00000000
00000000
00000001
fffffff9
00000002
fffffffe
fffffffc
00000000
fffffffe
00000001
00000000
fffffffe
fffffffc
00000001
00000000
00000000
ffffffff
fffffffe
fffffffe
00000001
00000000
00000002
fffffffd
00000001
00000001
00000000
ffffffff
fffffffa
ffffffff
00000001
00000000
fffffff4
fffffffd
ffffffff
00000000
fffffffb
00000002
fffffffc
00000009
00000003
00000000
fffffffe
ffffffff
00000000
00000002
ffffffff
00000000
ffffffff
0000000a
fffffffe
00000000
00000001
fffffffb
fffffffe
00000000
fffffffa
fffffffd
00000000
fffffffe
fffffffe
ffffffff
00000001
fffffff8
fffffffc
fffffffb
00000002
ffffffff
00000001
ffffffff
00000000
00000002
fffffffe
fffffffd
00000000
00000001
00000000
fffffffe
00000000
fffffffe
fffffffe
ffffffff
fffffff7
00000000
fffffffc
00000003
00000000
00000001
fffffffe
fffffff2
00000000
00000000
00000000
fffffffc
fffffffb
ffffffff
fffffffd
fffffffd
fffffffe
fffffffe
00000000
00000002
00000000
00000000
fffffffa
00000000
00000000
fffffff8
00000003
ffffffff
ffffffff
ffffffff
fffffffb
fffffffe
ffffffff
00000000
00000000
fffffffd
ffffffff
fffffffd
00000000
00000000
fffffff8
00000000
00000001
00000000
fffffffd
ffffffff
00000000
fffffffe
00000000
fffffffb
fffffffd
fffffff9
00000001
fffffffa
00000000
00000000
fffffff8
fffffffe
fffffffb
00000000
00000000
fffffffe
00000003
00000000
00000002
fffffffe
00000002
fffffff6
fffffffe
00000000
00000000
00000002
ffffffff
fffffffd
fffffffc
fffffff9
fffffffe
00000000
fffffffc
00000000
00000001
fffffffc
fffffffe
00000001
00000000
00000000
00000000
ffffffff
00000000
fffffffd
00000001
fffffffd
00000000
00000001
00000000
fffffffb
00000004
ffffffff
fffffffb
fffffffe
00000007
fffffffe
00000000
fffffff7
ffffffff
fffffffd
00000001
00000000
fffffffc
fffffffd
fffffffa
00000000
00000000
fffffffe
fffffffc
00000000
00000000
00000001
00000000
fffffffd
ffffffff
fffffffd
00000000
00000001
ffffffff
ffffffff
00000000
00000004
00000000
ffffffff
00000000
00000000
00000001
fffffffc
00000000
00000001
00000001
fffffffd
fffffffd
00000000
fffffffb
00000000
fffffff7
ffffffff
00000002
fffffffe
00000001
00000001
ffffffff
00000000
00000000
fffffff9
fffffff9
fffffffd
00000001
fffffffc
00000006
fffffff9
fffffffe
00000000
00000000
00000000
fffffffe
ffffffff
00000001
fffffffd
00000000
00000001
00000000
00000000
fffffffe
fffffffe
fffffff7
fffffffc
00000000
fffffffe
fffffffd
00000000
fffffffc
00000000
00000000
fffffffd
00000000
00000000
00000002
00000000
00000000
00000000
00000000
fffffffe
ffffffff
fffffffd
fffffffd
fffffffe
00000002
00000000
fffffffe
00000000
00000001
fffffffe
00000000
fffffffd
ffffffff
fffffffe
00000000
fffffffd
00000000
00000000
fffffffe
00000000
00000000
00000003
fffffffe
fffffffe
ffffffff
00000001
ffffffff
fffffffe
fffffffd
fffffffe
fffffffd
00000000
fffffffe
00000000
fffffffc
00000000
00000004
00000000
fffffffe
fffffffd
00000000
ffffffff
fffffffa
fffffffc
ffffffff
fffffffe
fffffffe
00000000
00000001
00000000
fffffffe
fffffffe
fffffffd
00000000
fffffffd
00000000
fffffffe
00000000
00000001
fffffffd
00000000
fffffffb
00000000
00000000
00000000
00000000
00000000
fffffffe
ffffffff
fffffffe
fffffffd
00000000
00000000
00000001
00000000
fffffffa
00000001
00000001
fffffffd
ffffffff
00000000
fffffffd
ffffffff
00000002
fffffffe
00000000
ffffffff
fffffffc
ffffffff
fffffffe
fffffffe
fffffffe
fffffffc
fffffffc
00000000
00000002
fffffffc
fffffffd
00000001
00000000
00000000
fffffffd
ffffffff
00000000
ffffffff
fffffffd
00000000
00000000
fffffffd
ffffffff
ffffffff
fffffffd
00000000
fffffffd
00000003
00000000
fffffffe
fffffffd
00000000
00000000
00000000
00000000
00000000
00000000
fffffffa
00000000
00000000
fffffffe
ffffffff
00000000
00000000
fffffffe
00000000
ffffffff
fffffffd
00000003
00000001
00000000
ffffffff
00000000
00000009
00000000
ffffffff
fffffffe
00000008
fffffffa
00000001
fffffffd
fffffffe
00000000
00000007
fffffffb
ffffffff
fffffffd
00000001
00000000
fffffffe
ffffffff
00000000
00000002
fffffffd
00000003
00000000
00000000
fffffffc
fffffffa
00000000
00000002
00000000
fffffffe
ffffffff
00000000
ffffffff
00000000
00000000
00000003
00000000
fffffff9
00000000
00000000
ffffffff
00000002
00000002
fffffff9
ffffffff
00000000
00000000
00000000
fffffffe
00000002
00000000
00000000
ffffffff
ffffffff
fffffffe
00000000
00000001
fffffffe
fffffffe
00000000
ffffffff
00000000
fffffffd
fffffffe
ffffffff
fffffffd
fffffffc
00000001
fffffffc
ffffffff
00000001
ffffffff
ffffffff
00000001
00000000
00000000
00000001
fffffffe
ffffffff
fffffffe
00000000
00000001
fffffffc
fffffffd
fffffffc
fffffffe
fffffffc
fffffffc
fffffffd
fffffffb
fffffffa
00000003
ffffffff
fffffffd
fffffffc
ffffffff
fffffffd
00000000
ffffffff
fffffffe
fffffffd
ffffffff
00000000
fffffffb
00000004
fffffffe
fffffffb
fffffffa
ffffffff
00000000
fffffff3
00000001
fffffff7
00000001
fffffffe
ffffffff
00000004
00000000
00000000
00000001
fffffffe
fffffff1
fffffffe
00000000
fffffffe
00000005
00000000
fffffff8
fffffff7
fffffff9
ffffffff
00000000
fffffff8
00000001
00000000
fffffffe
00000002
fffffffd
fffffffe
fffffffe
00000000
00000000
ffffffff
00000000
00000001
fffffffb
00000000
00000000
00000001
fffffffe
00000003
00000008
fffffff4
ffffffff
fffffffa
fffffffe
fffffffe
fffffff9
00000000
fffffff5
00000000
00000000
00000000
00000000
00000002
00000000
00000000
00000000
00000000
ffffffff
00000000
ffffffff
00000000
fffffffc
00000001
00000000
fffffff9
00000000
fffffffe
fffffffa
00000002
00000004
00000000
fffffffe
fffffffe
00000001
00000000
00000000
00000000
00000000
fffffffd
fffffffd
fffffffa
00000000
fffffff5
ffffffff
fffffff1
00000000
00000001
00000002
00000000
00000000
ffffffff
fffffffe
ffffffff
fffffff4
00000002
ffffffff
00000000
00000001
00000005
ffffffff
00000000
ffffffff
00000001
00000001
00000006
ffffffff
00000000
00000000
00000000
00000000
ffffffff
fffffffe
00000000
00000001
fffffffe
00000000
fffffffe
ffffffff
00000000
00000002
fffffff7
00000001
fffffffc
ffffffff
fffffffe
00000000
ffffffff
00000000
fffffffe
ffffffff
ffffffff
00000001
fffffffb
fffffff9
00000000
00000002
00000000
00000001
ffffffff
00000003
00000000
00000002
00000003
00000000
00000000
ffffffff
00000000
ffffffff
ffffffff
ffffffff
0000000b
ffffffff
00000001
fffffffa
fffffffe
fffffffc
ffffffff
fffffffe
00000000
fffffffe
fffffffe
fffffffe
fffffffe
fffffffc
00000000
00000000
00000001
ffffffff
00000002
fffffffb
fffffff8
ffffffff
00000001
00000000
fffffffe
fffffff8
ffffffff
fffffffe
00000001
fffffffc
fffffffc
ffffffff
fffffffe
00000002
fffffffe
fffffffd
00000001
00000000
fffffffe
ffffffff
00000000
00000002
00000000
00000000
ffffffff
00000002
00000003
00000000
00000006
00000001
00000002
fffffffc
00000000
fffffffa
fffffffe
ffffffff
fffffffd
00000005
fffffffe
00000001
00000000
fffffffd
ffffffff
fffffffe
00000000
ffffffff
fffffffc
00000000
00000002
00000001
00000000
00000000
ffffffff
ffffffff
00000000
fffffff6
fffffffe
ffffffff
fffffffd
fffffffb
ffffffff
00000000
ffffffff
00000000
00000000
fffffffd
00000000
fffffffc
00000000
ffffffff
fffffffb
ffffffff
00000000
fffffff7
00000001
00000002
00000002
00000002
fffffffa
fffffffe
00000001
ffffffff
ffffffff
ffffffff
ffffffff
00000000
ffffffff
00000000
00000000
ffffffff
fffffffc
00000000
00000002
fffffffd
00000000
ffffffff
00000000
00000000
fffffffe
00000000
fffffffd
fffffffe
00000001
ffffffff
00000000
00000000
fffffff8
0000000a
00000004
00000001
fffffff9
00000001
fffffff8
00000003
ffffffff
fffffffb
00000000
fffffffe
fffffffe
00000000
00000006
00000000
ffffffff
fffffff9
00000000
fffffffd
ffffffff
00000000
00000000
fffffffd
00000000
00000001
fffffffe
ffffffff
fffffffe
fffffffd
fffffffe
fffffffe
00000000
00000000
ffffffff
00000001
fffffffe
00000000
00000000
fffffffe
fffffffe
00000003
00000000
ffffffff
fffffffd
ffffffff
00000001
00000000
00000000
fffffffe
00000001
00000000
fffffffc
fffffffc
ffffffff
00000000
fffffffe
0000000c
fffffffd
fffffffc
ffffffff
fffffffb
fffffffe
00000000
fffffffb
00000000
00000000
00000000
ffffffff
fffffff9
00000002
ffffffff
00000006
ffffffff
00000000
fffffffa
00000000
ffffffff
00000000
fffffffe
fffffffe
00000000
00000000
fffffffb
00000001
fffffffc
fffffff8
fffffffb
00000000
fffffffb
fffffffa
00000000
fffffffe
00000001
fffffff8
ffffffff
ffffffff
fffffffd
00000001
00000001
fffffff7
fffffffd
fffffffa
fffffff9
00000000
ffffffff
00000001
fffffffe
fffffffa
ffffffff
00000002
00000000
00000007
ffffffff
00000001
00000000
00000001
fffffff3
00000000
00000000
00000006
fffffffa
fffffffe
00000000
ffffffff
fffffff8
ffffffff
ffffffff
fffffff9
fffffffe
00000001
fffffff7
00000001
00000000
fffffffc
ffffffff
00000002
00000003
00000000
ffffffff
fffffffc
fffffffe
00000000
00000001
00000001
ffffffff
00000000
fffffffc
fffffffa
00000000
ffffffff
fffffffe
fffffffe
fffffffa
fffffffe
fffffffe
ffffffff
fffffffe
fffffffc
fffffffb
00000000
fffffffe
fffffffe
ffffffff
fffffffe
00000000
00000000
00000000
00000000
fffffffb
ffffffff
ffffffff
ffffffff
00000001
00000000
ffffffff
fffffffe
fffffffc
fffffffe
00000000
fffffffb
fffffffe
00000001
00000001
fffffffd
00000001
00000001
ffffffff
fffffffe
00000001
fffffff6
ffffffff
fffffff7
00000000
ffffffff
00000003
fffffffe
ffffffff
00000003
ffffffff
00000000
fffffffb
fffffffc
00000004
00000000
fffffffc
00000008
fffffffa
fffffffc
00000003
ffffffff
00000000
00000000
fffffffe
ffffffff
00000000
00000002
00000001
ffffffff
00000001
fffffffe
00000000
fffffffc
fffffffc
00000000
00000000
00000001
00000000
00000002
fffffffe
fffffffc
fffffffe
00000000
fffffffe
00000001
fffffffd
fffffffb
ffffffff
00000000
ffffffff
fffffffe
00000000
fffffffe
ffffffff
fffffffe
00000003
fffffffd
00000000
ffffffff
fffffffe
fffffffd
00000000
00000001
00000001
00000000
fffffffe
ffffffff
fffffffd
fffffffd
00000000
00000000
ffffffff
fffffffe
fffffffb
fffffffd
ffffffff
fffffffe
ffffffff
00000001
00000001
00000000
fffffffd
00000000
fffffffd
00000000
00000000
00000008
fffffffe
00000000
fffffffe
fffffffd
ffffffff
fffffffe
fffffff6
00000000
00000001
00000000
00000001
fffffffe
00000000
fffffffe
fffffffb
00000000
ffffffff
fffffffe
00000000
00000007
ffffffff
fffffffe
00000000
00000000
ffffffff
fffffffd
fffffffd
ffffffff
ffffffff
fffffffe
00000001
00000000
ffffffff
00000003
fffffffe
00000001
00000000
ffffffff
00000002
ffffffff
fffffffe
00000000
fffffffd
00000000
fffffff9
fffffffe
fffffffd
fffffffe
fffffffd
fffffffd
fffffffe
00000000
fffffffd
00000000
00000001
00000000
fffffffb
fffffffc
00000000
fffffffe
fffffffb
00000000
fffffffe
fffffffc
ffffffff
00000001
ffffffff
00000000
fffffffc
00000001
ffffffff
fffffffc
fffffffd
00000001
00000001
00000000
fffffffe
fffffffe
00000001
0000000a
fffffffd
fffffffd
fffffffc
00000000
fffffffd
00000000
fffffffc
fffffffb
fffffffd
00000001
00000000
fffffffe
fffffffe
fffffffe
00000001
ffffffff
00000000
fffffffe
ffffffff
fffffffe
fffffffe
ffffffff
fffffffe
fffffffa
00000001
00000001
fffffffd
fffffffd
fffffff8
00000006
fffffffd
fffffffe
fffffffb
fffffffc
fffffff9
fffffffd
fffffffc
ffffffff
fffffffe
fffffffe
ffffffff
00000000
fffffffe
fffffffd
00000000
ffffffff
00000000
fffffffe
fffffffe
00000000
fffffffe
00000000
fffffffe
00000000
fffffffe
00000000
ffffffff
fffffffe
00000002
ffffffff
fffffff8
ffffffff
00000000
fffffffd
00000000
ffffffff
fffffffd
00000000
00000000
ffffffff
00000000
00000001
fffffffe
fffffffe
00000001
00000000
fffffffe
00000001
00000001
00000000
fffffffd
fffffffe
ffffffff
00000000
fffffff6
00000000
fffffffd
00000000
00000000
00000000
fffffffe
fffffffe
ffffffff
ffffffff
00000002
00000000
fffffffd
00000000
00000000
fffffffd
00000000
ffffffff
fffffffc
00000003
00000001
ffffffff
fffffffe
00000000
00000000
fffffffe
fffffffb
00000000
fffffffd
00000005
00000003
fffffffe
00000000
fffffffa
00000001
fffffffe
fffffffe
fffffff9
00000001
ffffffff
00000000
00000001
fffffffd
00000001
fffffffa
fffffffd
fffffffe
00000000
ffffffff
fffffffb
ffffffff
fffffff9
00000000
00000001
00000000
00000001
fffffffe
00000001
ffffffff
fffffffe
fffffffd
fffffffe
00000001
ffffffff
fffffffe
00000000
fffffffe
ffffffff
fffffffc
fffffffe
00000001
fffffffd
fffffffe
fffffffe
fffffffc
fffffffe
00000001
ffffffff
00000001
ffffffff
00000000
ffffffff
fffffffd
fffffffe
00000000
00000000
fffffffe
fffffffe
00000000
00000000
fffffffe
fffffffb
00000000
00000001
fffffffe
fffffffe
fffffffa
00000000
fffffffd
fffffffe
00000000
fffffffd
ffffffff
00000000
00000000
00000000
00000001
fffffffc
fffffffe
00000001
00000000
00000002
fffffffb
00000001
ffffffff
ffffffff
00000000
00000000
fffffffd
fffffffe
fffffffe
fffffffe
ffffffff
fffffffe
00000002
00000000
ffffffff
fffffffe
fffffffc
00000001
fffffffd
ffffffff
ffffffff
fffffff8
00000000
fffffffe
00000000
00000000
00000000
00000000
fffffffc
fffffffd
00000000
ffffffff
fffffff9
fffffffd
ffffffff
00000000
00000000
ffffffff
00000000
ffffffff
fffffffc
00000002
fffffffe
00000000
00000000
ffffffff
00000001
00000001
fffffffe
fffffffe
00000000
00000000
fffffffd
fffffffe
fffffffe
00000000
00000001
00000001
00000000
fffffffd
00000000
fffffffe
00000000
fffffffd
fffffffe
00000000
00000000
fffffffe
00000000
ffffffff
fffffffe
fffffffe
fffffffd
ffffffff
00000000
fffffffd
00000000
ffffffff
00000000
fffffffe
00000000
00000000
00000000
00000001
00000001
fffffffd
ffffffff
00000000
fffffffd
fffffffd
fffffffe
fffffffd
fffffffd
fffffffb
fffffffb
00000000
fffffffe
00000000
00000000
fffffffe
ffffffff
fffffffe
fffffffd
00000000
00000000
fffffffd
00000000
fffffffd
00000000
ffffffff
00000000
00000000
fffffffd
00000000
fffffffd
00000001
00000000
fffffffe
ffffffff
00000000
fffffffe
fffffffc
00000000
00000000
fffffffe
00000000
fffffffe
ffffffff
00000000
fffffffe
ffffffff
00000000
fffffffb
00000000
00000000
fffffffe
00000000
fffffffd
00000000
00000000
00000000
00000000
fffffffb
00000001
fffffffe
fffffffe
ffffffff
00000000
00000000
ffffffff
fffffffd
00000000
ffffffff
fffffffe
fffffffd
00000000
00000000
ffffffff
00000000
ffffffff
00000000
fffffffc
fffffffe
00000000
fffffffe
fffffffe
00000001
ffffffff
fffffffd
00000000
00000001
fffffffe
fffffffe
fffffffd
fffffffe
ffffffff
00000000
00000001
fffffffe
fffffffd
fffffffe
00000000
ffffffff
fffffffe
00000000
fffffffe
00000000
fffffffd
fffffffe
fffffffd
00000000
fffffffe
ffffffff
fffffffe
00000001
fffffffb
00000000
00000000
00000000
fffffffd
ffffffff
00000000
fffffffe
00000000
00000000
00000000
fffffffe
fffffffe
00000000
fffffffe
ffffffff
fffffffe
fffffffd
fffffffe
fffffffe
00000000
fffffffe
fffffffd
ffffffff
fffffffb
00000000
fffffffe
fffffffc
fffffffc
fffffffd
fffffffd
ffffffff
fffffffd
00000000
fffffffd
ffffffff
ffffffff
ffffffff
00000000
fffffffa
ffffffff
00000000
ffffffff
00000001
ffffffff
ffffffff
fffffffe
00000001
00000000
fffffffe
fffffffd
fffffffd
00000000
fffffffd
00000000
00000000
00000000
fffffffe
00000001
ffffffff
00000000
00000001
fffffffe
00000000
00000000
fffffffe
fffffffd
fffffffe
fffffffe
fffffffc
fffffffe
00000000
00000000
fffffffd
ffffffff
ffffffff
fffffffc
00000001
fffffffd
ffffffff
fffffffc
fffffffb
fffffffd
00000000
fffffffe
00000001
ffffffff
fffffffe
00000001
fffffffe
fffffffc
ffffffff
fffffffe
ffffffff
fffffffe
fffffffe
00000000
fffffffe
ffffffff
00000000
fffffffb
fffffffe
fffffffc
fffffffa
fffffffe
00000000
fffffffb
fffffffd
00000000
fffffffe
fffffffa
00000000
00000000
fffffffe
fffffffc
fffffffe
00000001
fffffffc
00000000
00000000
00000000
fffffffc
fffffffb
fffffffd
00000001
00000000
ffffffff
00000000
fffffffd
00000001
ffffffff
fffffffe
00000001
00000001
fffffffe
00000001
00000000
fffffffc
ffffffff
00000000
fffffffe
fffffffd
fffffffd
00000000
fffffffe
fffffffc
00000002
00000000
fffffffc
ffffffff
ffffffff
fffffffa
00000001
00000000
fffffffe
00000000
00000000
fffffffe
ffffffff
fffffffe
ffffffff
ffffffff
ffffffff
ffffffff
ffffffff
ffffffff
fffffffe
fffffffb
fffffffe
00000000
ffffffff
00000000
00000001
fffffffa
00000000
fffffffb
fffffffe
00000000
fffffffe
ffffffff
00000001
00000001
00000001
00000001
fffffffd
fffffffe
00000000
00000001
00000001
fffffffe
fffffffe
fffffffe
fffffffe
00000000
00000000
fffffffe
00000001
00000000
00000000
00000001
fffffffd
fffffffe
00000000
fffffffe
00000000
fffffffd
00000000
ffffffff
00000000
fffffffd
fffffffa
00000000
fffffffe
fffffffe
00000000
00000000
ffffffff
fffffffb
ffffffff
fffffffe
00000000
fffffffc
fffffffe
fffffffc
fffffffe
fffffffd
00000000
00000000
fffffffe
00000000
00000000
00000000
00000001
ffffffff
00000000
00000000
00000000
fffffffd
00000001
00000000
fffffffc
fffffffe
fffffffb
00000000
00000000
00000001
00000000
00000000
fffffffc
00000000
ffffffff
fffffffa
00000000
fffffffd
ffffffff
00000000
fffffffd
ffffffff
ffffffff
ffffffff
fffffffd
00000000
00000000
ffffffff
fffffffe
fffffffe
fffffffd
00000000
00000000
fffffffe
ffffffff
ffffffff
ffffffff
00000000
ffffffff
ffffffff
00000000
00000000
fffffffd
00000001
00000001
00000000
fffffffc
fffffffa
00000001
fffffffe
00000000
fffffffe
fffffffc
00000002
ffffffff
fffffffd
00000002
fffffffe
00000001
fffffffe
fffffffc
fffffffc
fffffffe
00000000
ffffffff
ffffffff
fffffffe
00000000
fffffffe
00000001
00000000
fffffffc
00000000
00000000
00000000
00000000
00000000
fffffffe
00000000
ffffffff
ffffffff
ffffffff
ffffffff
00000000
fffffffe
fffffffe
00000001
fffffffd
00000001
00000000
fffffffd
ffffffff
00000001
00000000
fffffffe
fffffffe
fffffffe
00000000
00000000
fffffffe
00000000
fffffffe
fffffffe
fffffffd
00000001
fffffffe
fffffffe
fffffffd
00000000
fffffffc
00000000
fffffffc
ffffffff
fffffffe
00000000
00000000
ffffffff
ffffffff
ffffffff
00000000
00000000
fffffffc
fffffffe
00000000
ffffffff
ffffffff
00000000
00000000
fffffffd
fffffffe
fffffffe
00000000
fffffffe
fffffffe
00000001
ffffffff
00000001
ffffffff
00000000
ffffffff
fffffffe
fffffffe
fffffffd
00000000
00000000
fffffffe
fffffffe
ffffffff
fffffffb
00000001
00000001
00000000
fffffffd
fffffffe
fffffffc
ffffffff
00000000
00000001
ffffffff
00000000
ffffffff
00000000
fffffffe
00000001
fffffffe
fffffffd
00000000
00000000
fffffffd
fffffffc
00000000
fffffffd
fffffffe
fffffffe
00000000
fffffffd
fffffffe
fffffffc
ffffffff
00000000
fffffffe
fffffffd
ffffffff
fffffffe
ffffffff
ffffffff
00000000
ffffffff
ffffffff
fffffffd
00000000
00000000
00000000
00000000
00000000
00000000
fffffffd
00000000
fffffffe
fffffffd
fffffffd
00000000
00000000
00000000
ffffffff
00000000
00000000
ffffffff
00000001
00000001
00000000
fffffffe
ffffffff
00000001
ffffffff
00000000
00000000
fffffffe
ffffffff
00000001
fffffffe
fffffffc
ffffffff
00000001
fffffffd
ffffffff
fffffffe
fffffffd
00000000
fffffffe
00000000
00000001
fffffffc
00000000
ffffffff
00000000
fffffffe
fffffffd
fffffffe
00000001
fffffffa
fffffffe
fffffffd
fffffffd
fffffffd
ffffffff
fffffffe
ffffffff
fffffffd
ffffffff
fffffffc
ffffffff
fffffffd
ffffffff
ffffffff
fffffffc
00000000
fffffffe
fffffffa
00000000
00000000
ffffffff
fffffff9
00000000
00000001
00000000
00000000
ffffffff
fffffffc
fffffff9
fffffff6
fffffffe
ffffffff
fffffffd
fffffffb
ffffffff
fffffff6
00000001
00000001
00000001
00000000
fffffffe
00000000
00000000
00000000
fffffff7
00000001
00000000
00000006
fffffff6
fffffffe
fffffff9
00000005
fffffff7
fffffffe
00000000
fffffff9
00000000
00000000
fffffff8
00000000
00000000
00000001
00000000
00000000
fffffffe
fffffffe
fffffffd
00000000
00000001
fffffffe
ffffffff
fffffffd
00000002
00000002
fffffff6
fffffffb
00000000
00000002
fffffffe
fffffffe
fffffff9
00000000
fffffffb
fffffffe
00000000
fffffffe
ffffffff
fffffffe
00000001
ffffffff
00000000
fffffffc
fffffffe
00000000
ffffffff
00000001
fffffffb
00000000
fffffffe
fffffffe
00000000
00000001
fffffffb
ffffffff
ffffffff
fffffffe
00000001
ffffffff
fffffffe
ffffffff
00000002
00000000
00000000
00000000
fffffffe
fffffffb
00000001
fffffff4
00000000
fffffffc
00000000
ffffffff
00000000
00000000
fffffffe
00000008
00000000
fffffffc
fffffff6
ffffffff
00000000
00000000
ffffffff
ffffffff
00000001
00000001
00000001
00000000
ffffffff
00000009
00000001
00000001
fffffffd
00000000
ffffffff
ffffffff
00000002
00000000
ffffffff
00000000
00000000
ffffffff
00000000
ffffffff
00000002
00000000
fffffffd
ffffffff
00000002
fffffffd
00000000
ffffffff
00000000
00000000
00000000
ffffffff
ffffffff
ffffffff
fffffffb
00000000
00000000
00000000
fffffffe
ffffffff
ffffffff
fffffffd
ffffffff
fffffffd
fffffffe
00000001
00000001
ffffffff
fffffffb
00000000
00000000
fffffffc
00000000
00000000
fffffffe
fffffffb
fffffffb
ffffffff
ffffffff
fffffffe
fffffffe
ffffffff
00000000
00000000
fffffffd
00000000
ffffffff
00000000
fffffffe
00000000
fffffffe
fffffffc
fffffffd
00000000
ffffffff
fffffffb
fffffffd
00000000
00000000
00000000
ffffffff
00000000
00000001
fffffffd
fffffffe
00000000
00000000
00000001
fffffffd
fffffffd
fffffffd
fffffffe
ffffffff
00000000
ffffffff
ffffffff
fffffffd
ffffffff
fffffffc
00000002
ffffffff
00000000
00000001
00000000
fffffffc
00000000
00000000
00000000
fffffffe
ffffffff
00000000
fffffffe
fffffffe
00000000
ffffffff
fffffffe
fffffffc
fffffffe
fffffffd
fffffffd
00000003
00000000
fffffffe
fffffffe
ffffffff
fffffffe
fffffffb
fffffffe
00000000
00000000
fffffff9
fffffffe
ffffffff
fffffffd
fffffffe
ffffffff
00000000
fffffffd
fffffffe
00000000
00000000
00000004
00000001
00000001
fffffffe
ffffffff
ffffffff
00000000
00000000
fffffffc
ffffffff
fffffffd
00000000
ffffffff
00000000
fffffffd
ffffffff
ffffffff
00000000
fffffffe
00000000
ffffffff
fffffffe
00000000
00000000
00000000
00000000
ffffffff
ffffffff
00000001
00000001
fffffffe
00000000
00000001
00000000
00000000
fffffffd
00000001
fffffffa
00000001
00000000
00000000
fffffffe
00000000
fffffffe
fffffffe
fffffffe
00000000
00000000
00000000
00000000
fffffffe
ffffffff
00000000
fffffffe
fffffffe
00000000
00000000
00000000
fffffffd
00000000
00000001
fffffffd
00000000
ffffffff
fffffffd
fffffffe
00000000
fffffffe
fffffffd
fffffffd
00000001
fffffffc
ffffffff
fffffffd
fffffffe
fffffffd
fffffffe
00000000
fffffffd
00000000
00000000
ffffffff
fffffffe
fffffffe
00000000
ffffffff
00000000
00000000
00000000
00000000
fffffffe
00000001
fffffffe
00000002
fffffffe
fffffffc
fffffffd
00000000
00000000
ffffffff
fffffffd
00000000
fffffffe
fffffffe
00000000
00000000
00000000
00000000
fffffffd
00000000
ffffffff
00000000
ffffffff
00000000
00000001
00000000
fffffffc
fffffffc
fffffffa
fffffffd
00000000
fffffffe
fffffffc
00000001
00000000
fffffffe
fffffffb
00000000
00000002
ffffffff
fffffffc
00000002
00000000
fffffffc
00000000
fffffff9
00000004
fffffffe
fffffffb
fffffffd
00000001
ffffffff
0000000a
00000000
fffffffc
00000000
00000000
00000000
fffffffd
00000002
ffffffff
00000001
00000005
fffffffe
00000000
00000002
00000006
fffffffd
ffffffff
00000005
00000003
fffffff7
00000001
ffffffff
fffffffa
ffffffff
00000000
fffffffc
ffffffff
fffffffe
00000000
00000001
00000000
fffffffe
00000000
fffffffc
fffffffd
fffffffc
00000000
00000001
fffffffe
00000000
fffffffc
fffffff9
fffffffc
00000000
00000001
ffffffff
00000000
fffffff8
ffffffff
ffffffff
00000000
fffffffe
fffffffc
ffffffff
fffffffd
00000000
00000000
ffffffff
fffffffb
fffffffe
fffffffe
00000001
ffffffff
fffffffe
ffffffff
fffffffc
fffffffb
00000001
fffffffe
fffffffb
00000000
ffffffff
fffffffd
00000001
fffffffb
00000001
ffffffff
00000000
00000001
fffffffc
00000000
fffffffe
00000000
00000000
fffffffc
00000000
fffffff9
00000000
ffffffff
00000000
00000000
fffffffb
00000000
fffffffe
ffffffff
fffffffa
fffffff9
00000001
00000000
fffffffd
fffffffd
fffffffc
00000000
fffffffe
00000001
00000001
00000004
fffffffe
00000000
00000004
00000000
00000001
fffffffd
ffffffff
fffffffe
00000000
fffffff8
fffffffe
ffffffff
00000000
ffffffff
fffffffd
fffffffe
fffffffc
fffffffd
fffffffb
00000001
00000000
00000000
00000000
ffffffff
fffffffe
00000000
fffffffe
00000000
fffffffe
00000000
ffffffff
00000000
fffffffd
ffffffff
fffffffd
fffffffe
00000001
00000001
ffffffff
00000000
00000000
fffffffd
fffffffc
fffffffd
ffffffff
fffffffd
00000001
00000000
fffffffb
fffffffb
fffffffa
fffffffe
fffffffc
00000001
00000000
00000002
00000000
ffffffff
00000000
00000001
ffffffff
00000000
fffffffd
00000000
fffffffc
00000005
00000000
fffffffd
ffffffff
fffffffc
fffffffd
ffffffff
00000000
00000001
ffffffff
fffffffd
fffffffe
ffffffff
00000006
ffffffff
00000000
fffffffe
ffffffff
fffffffe
00000000
00000001
00000000
00000000
fffffffe
00000000
00000001
00000000
00000001
fffffffd
fffffffe
fffffffe
ffffffff
fffffffd
fffffff9
fffffffe
ffffffff
fffffffd
00000000
00000002
fffffffd
fffffffe
fffffffc
ffffffff
00000000
00000000
fffffffe
00000001
fffffffe
00000000
fffffffa
00000000
00000000
ffffffff
fffffffe
fffffffb
00000001
fffffffd
00000001
ffffffff
fffffff9
ffffffff
ffffffff
00000000
ffffffff
00000000
00000000
00000000
00000000
ffffffff
00000000
fffffffb
00000002
00000000
00000002
00000000
00000002
fffffffe
fffffffe
fffffffc
fffffffe
fffffffc
00000005
fffffffe
fffffffe
00000002
00000000
00000000
ffffffff
fffffffe
fffffffe
ffffffff
00000000
fffffffd
fffffffd
00000001
00000000
00000000
00000000
00000000
fffffffe
fffffffe
fffffffe
fffffffb
fffffffe
fffffffe
fffffffe
fffffffd
00000009
fffffffe
00000001
ffffffff
00000001
fffffffc
0000000a
ffffffff
fffffff9
fffffffe
ffffffff
00000001
fffffffd
00000002
fffffffe
00000001
fffffffb
ffffffff
fffffffd
ffffffff
fffffffd
fffffffe
ffffffff
ffffffff
fffffffd
ffffffff
00000002
ffffffff
ffffffff
fffffffe
fffffff9
00000000
fffffffd
00000001
00000000
ffffffff
00000001
00000000
fffffffa
00000000
00000000
ffffffff
ffffffff
00000001
fffffffd
00000001
00000000
ffffffff
fffffffc
fffffffd
fffffffe
ffffffff
00000002
fffffffd
00000000
00000000
fffffffa
00000001
fffffffb
00000001
fffffffe
ffffffff
00000000
fffffffe
00000001
fffffffd
00000001
00000001
fffffffd
ffffffff
ffffffff
fffffff9
fffffffd
00000001
fffffffa
fffffffd
00000000
00000001
00000000
fffffffb
fffffffb
00000000
fffffffe
00000000
fffffffe
00000005
fffffffa
fffffffd
fffffffd
fffffff9
00000000
00000000
ffffffff
fffffffd
fffffffe
fffffffe
00000000
00000001
00000000
ffffffff
fffffffd
fffffffc
00000000
00000001
ffffffff
ffffffff
fffffffe
fffffffa
00000000
00000001
fffffffe
00000004
00000000
00000000
ffffffff
00000000
fffffff9
00000000
ffffffff
00000006
fffffffd
00000002
fffffffe
fffffffd
fffffffa
00000000
00000001
fffffffc
ffffffff
00000001
fffffff9
00000001
ffffffff
00000000
00000000
00000000
fffffffd
00000001
00000000
fffffffc
ffffffff
00000000
ffffffff
00000000
fffffffd
00000001
fffffffb
fffffffc
00000001
ffffffff
ffffffff
ffffffff
fffffffa
ffffffff
fffffffe
00000001
00000001
00000001
ffffffff
fffffffe
00000000
fffffffe
ffffffff
fffffffd
ffffffff
00000001
00000002
fffffffe
fffffffd
ffffffff
ffffffff
00000000
00000000
00000001
00000000
00000002
00000001
fffffffc
00000000
fffffffe
00000000
00000000
00000004
fffffffe
fffffffe
00000000
00000000
fffffffc
ffffffff
fffffffd
00000000
fffffffd
00000001
00000000
fffffffe
fffffffe
00000000
00000000
fffffffe
fffffffd
fffffffb
ffffffff
fffffffc
ffffffff
fffffffe
fffffffd
00000000
fffffffe
fffffffe
00000001
00000000
fffffffe
ffffffff
00000001
fffffffe
00000001
fffffffe
fffffffe
fffffffe
ffffffff
fffffffd
00000000
00000000
00000001
ffffffff
fffffffe
00000002
ffffffff
ffffffff
fffffffe
fffffffd
00000002
00000001
00000000
fffffffd
fffffffe
ffffffff
fffffffe
00000000
00000000
ffffffff
fffffffd
fffffffe
00000001
00000000
00000000
ffffffff
00000001
ffffffff
00000000
ffffffff
fffffffe
ffffffff
fffffffd
fffffffc
ffffffff
fffffffe
fffffffb
00000001
00000000
fffffffd
fffffffd
00000000
fffffffe
fffffffa
00000000
00000001
fffffffe
00000002
00000000
00000001
00000000
00000000
00000000
00000001
fffffffa
fffffffe
fffffffe
ffffffff
00000000
fffffffc
ffffffff
ffffffff
ffffffff
00000000
00000002
fffffffe
00000000
00000002
fffffffd
ffffffff
fffffffd
fffffffe
ffffffff
ffffffff
fffffffc
fffffffe
00000001
00000001
00000000
fffffffd
00000001
00000001
fffffffe
00000001
fffffffc
00000000
00000001
00000000
00000002
00000000
00000001
ffffffff
00000000
fffffffb
00000001
ffffffff
ffffffff
ffffffff
00000000
ffffffff
ffffffff
00000000
fffffffd
00000000
00000000
fffffffe
00000000
00000002
fffffffd
00000000
00000000
fffffffa
fffffffd
00000000
00000000
ffffffff
ffffffff
00000000
00000000
fffffffd
fffffffe
00000000
00000001
00000000
00000000
00000000
fffffffc
fffffffd
ffffffff
00000000
00000002
ffffffff
00000000
00000002
fffffffc
ffffffff
ffffffff
00000000
fffffffe
00000000
fffffffc
00000002
ffffffff
fffffffe
00000000
ffffffff
00000001
00000002
00000000
00000000
ffffffff
fffffffe
fffffffd
00000001
00000001
00000001
00000000
fffffffe
fffffffc
fffffffc
ffffffff
fffffffd
fffffffe
ffffffff
00000000
00000000
fffffffe
fffffffd
fffffffc
fffffffd
fffffffc
fffffffd
ffffffff
00000001
00000000
00000001
ffffffff
ffffffff
00000000
fffffffd
fffffffc
fffffffb
ffffffff
fffffffd
fffffffe
00000000
00000002
00000000
00000000
00000002
00000000
00000000
00000002
fffffffc
fffffffd
fffffffe
fffffffd
00000001
ffffffff
ffffffff
ffffffff
00000000
00000000
00000000
00000000
fffffffe
00000001
00000000
00000000
00000001
00000002
00000000
00000000
00000000
00000000
fffffffe
00000000
00000000
00000000
fffffffc
00000000
fffffffe
00000000
00000000
00000000
00000002
00000000
00000001
fffffffe
00000001
fffffffd
fffffffe
fffffffc
00000000
fffffffc
00000000
00000000
fffffffd
fffffffe
fffffffe
00000000
fffffffe
ffffffff
00000000
fffffffd
ffffffff
00000000
ffffffff
fffffffd
fffffffe
fffffffd
00000000
fffffffa
00000000
fffffffe
00000000
fffffffe
00000000
ffffffff
fffffffc
00000000
fffffffe
00000000
fffffffb
fffffffb
00000004
ffffffff
ffffffff
00000000
00000000
fffffff7
00000000
fffffffe
fffffffe
00000000
00000001
00000000
fffffffe
00000006
fffffff8
00000000
00000000
00000005
fffffffb
00000000
fffffffc
00000000
fffffff8
00000000
00000000
fffffffc
fffffffe
00000002
00000000
00000002
00000000
ffffffff
ffffffff
fffffffe
fffffff9
fffffffd
fffffffc
00000000
fffffffd
00000000
fffffffe
fffffffd
00000001
ffffffff
fffffffd
fffffff9
00000001
00000001
00000000
00000000
fffffff7
00000001
fffffff9
00000002
00000000
fffffffe
00000000
fffffffe
00000001
ffffffff
ffffffff
fffffffb
00000000
00000000
00000000
00000000
fffffffb
00000002
fffffffd
00000001
00000000
00000000
fffffffe
ffffffff
fffffffc
00000000
ffffffff
fffffffa
00000000
ffffffff
00000009
fffffffd
fffffffa
00000000
fffffffc
00000007
00000000
fffffffb
fffffffe
fffffff8
fffffffe
00000000
00000000
00000000
fffffffc
fffffffb
00000000
ffffffff
fffffffe
fffffffd
00000002
00000000
fffffffe
fffffffb
00000004
00000001
00000004
ffffffff
fffffffe
fffffffc
00000000
fffffffd
00000001
00000000
00000000
00000002
00000000
fffffffe
00000000
fffffffb
00000000
00000001
fffffffe
00000001
00000000
fffffffd
fffffffd
fffffffe
fffffffc
ffffffff
00000000
00000000
ffffffff
00000004
00000001
fffffffe
00000000
00000000
fffffffe
00000000
ffffffff
00000001
00000003
fffffffe
00000000
00000001
00000000
fffffffb
fffffffe
00000000
00000000
fffffffe
00000005
fffffffe
00000000
fffffffc
00000000
fffffffe
00000003
fffffffe
00000001
fffffffd
fffffffd
00000000
00000000
ffffffff
00000000
fffffffe
fffffffd
00000003
fffffffe
00000000
fffffffe
fffffff6
fffffffa
fffffffc
00000000
00000000
fffffffc
fffffffc
fffffffc
fffffffd
00000000
00000000
fffffffe
00000000
ffffffff
fffffffd
fffffffe
00000000
00000000
00000001
fffffffe
fffffff9
00000000
00000001
00000000
00000000
fffffff9
fffffffe
fffffffd
00000000
00000000
fffffff7
ffffffff
00000001
00000000
fffffffe
fffffff8
00000001
00000001
00000000
fffffffb
fffffffe
00000000
ffffffff
fffffffd
00000000
fffffffe
fffffffe
00000000
ffffffff
00000001
00000000
ffffffff
00000000
ffffffff
fffffffc
00000000
00000003
00000002
fffffffc
00000001
fffffffd
fffffffe
ffffffff
fffffffe
fffffffe
fffffffe
00000000
00000000
00000000
fffffffd
00000000
00000000
fffffffc
fffffffb
ffffffff
00000000
00000000
ffffffff
00000002
00000000
fffffffb
00000002
00000001
00000003
00000001
fffffffe
00000001
00000001
fffffffd
00000002
00000000
00000000
00000000
fffffffe
00000004
00000000
00000002
00000000
ffffffff
00000000
00000001
00000001
fffffffe
00000000
00000005
00000000
00000001
00000000
fffffffa
00000004
fffffffe
00000000
fffffffe
ffffffff
ffffffff
ffffffff
00000001
ffffffff
00000000
fffffffe
00000000
fffffffd
fffffffd
ffffffff
00000000
fffffffa
fffffffe
fffffffa
ffffffff
fffffffd
00000000
00000000
ffffffff
00000000
ffffffff
fffffffe
ffffffff
fffffffe
00000000
fffffffb
00000000
00000000
ffffffff
ffffffff
ffffffff
00000002
00000003
ffffffff
ffffffff
00000000
fffffffd
00000001
00000000
00000000
ffffffff
fffffffe
ffffffff
ffffffff
fffffffb
fffffffe
00000000
00000004
00000000
ffffffff
00000000
fffffff8
ffffffff
fffffffd
fffffffc
fffffff9
00000002
00000000
fffffffc
ffffffff
00000004
ffffffff
ffffffff
fffffffe
fffffffb
00000000
00000001
ffffffff
fffffffe
fffffffe
00000000
ffffffff
ffffffff
00000000
fffffffb
ffffffff
fffffffd
00000001
00000000
fffffffb
fffffff9
fffffffe
ffffffff
fffffffe
fffffffb
00000000
00000000
00000000
fffffffa
00000000
00000001
fffffffc
00000002
00000000
00000000
fffffff9
fffffff8
fffffffd
fffffffe
00000000
00000004
fffffffe
fffffff9
ffffffff
fffffffe
00000001
00000001
00000000
00000001
00000000
00000000
00000000
00000001
00000001
00000001
fffffffc
ffffffff
fffffffe
00000002
fffffff8
00000000
00000001
fffffff7
00000000
00000001
fffffffd
00000001
fffffffe
fffffffd
00000001
00000000
fffffffd
ffffffff
fffffffc
00000000
00000003
ffffffff
00000002
fffffffd
00000003
00000000
fffffff7
fffffffc
00000000
00000002
fffffffd
00000001
fffffff8
fffffffe
fffffffc
00000000
00000001
fffffffd
00000002
ffffffff
ffffffff
00000001
fffffffe
fffffffb
00000001
fffffffe
fffffffe
00000000
fffffffc
00000000
ffffffff
00000002
00000001
00000001
fffffffd
00000001
fffffffb
fffffffe
00000000
fffffffb
00000000
00000000
00000004
ffffffff
00000001
fffffffe
fffffffb
ffffffff
00000000
fffffffa
00000000
fffffff9
00000000
00000001
00000001
00000000
fffffffc
00000002
00000000
fffffffb
ffffffff
fffffffc
fffffffc
fffffffd
00000001
00000003
00000005
ffffffff
fffffffe
ffffffff
00000000
00000000
00000000
fffffffd
00000003
fffffffe
fffffffe
00000000
00000000
fffffffc
fffffffe
fffffffe
fffffffd
00000002
fffffffd
00000001
00000000
00000001
fffffffe
ffffffff
fffffffe
00000000
00000001
ffffffff
00000000
fffffffe
fffffffd
ffffffff
00000000
fffffffe
fffffffe
ffffffff
fffffffc
ffffffff
ffffffff
fffffffe
ffffffff
00000000
00000002
fffffffe
ffffffff
fffffffe
ffffffff
00000000
fffffffd
00000000
fffffffe
fffffffd
00000000
fffffffe
00000000
fffffffe
fffffffb
ffffffff
fffffffe
ffffffff
00000000
00000001
00000001
fffffffe
fffffffd
00000000
00000000
ffffffff
ffffffff
00000000
fffffffd
ffffffff
00000000
00000001
00000000
fffffffc
fffffffa
fffffffd
00000002
ffffffff
00000000
fffffffe
00000002
fffffffe
00000000
ffffffff
00000001
fffffffe
00000000
ffffffff
00000000
00000000
00000000
ffffffff
fffffffd
fffffffd
00000000
00000000
fffffffe
00000000
00000000
00000000
00000000
ffffffff
fffffffc
fffffffe
00000000
00000000
fffffffb
00000000
00000001
ffffffff
fffffffd
00000001
fffffffd
fffffffe
fffffffe
00000000
00000000
00000000
fffffffc
00000000
00000000
ffffffff
00000001
00000000
fffffffd
ffffffff
fffffffe
fffffffe
fffffffd
00000000
00000001
ffffffff
fffffffd
fffffffe
00000000
00000000
ffffffff
fffffffe
00000000
00000000
fffffffb
00000000
00000000
00000000
fffffffd
00000000
fffffffd
ffffffff
00000000
fffffffc
00000000
ffffffff
fffffffe
fffffffe
00000000
00000000
ffffffff
00000000
fffffffd
00000000
00000000
00000000
00000000
00000001
00000000
00000001
00000000
ffffffff
fffffffe
fffffffe
fffffffd
00000001
00000000
00000000
00000001
00000005
fffffffd
fffffffa
ffffffff
fffffffe
fffffffd
ffffffff
fffffffe
fffffffb
fffffffd
ffffffff
ffffffff
fffffffe
fffffffe
00000000
00000000
00000001
fffffffe
00000000
fffffffc
ffffffff
00000000
00000000
00000000
00000001
fffffffe
00000000
ffffffff
00000000
fffffffd
ffffffff
00000001
ffffffff
fffffffb
00000000
fffffffd
ffffffff
fffffffd
00000001
ffffffff
fffffffe
fffffffe
ffffffff
00000000
fffffffe
00000001
fffffffe
ffffffff
00000000
fffffffd
00000001
fffffffe
fffffffd
fffffffc
00000000
fffffffd
fffffffe
fffffff8
ffffffff
fffffffe
00000000
ffffffff
00000000
ffffffff
00000000
ffffffff
fffffffc
fffffffe
ffffffff
00000000
fffffffc
00000000
fffffffe
ffffffff
fffffffd
00000000
fffffffd
ffffffff
ffffffff
00000000
fffffffd
fffffffe
fffffffc
fffffffe
00000000
fffffffc
fffffffe
00000000
ffffffff
fffffffe
fffffffa
ffffffff
00000000
00000002
fffffffb
00000000
ffffffff
00000000
00000001
00000000
ffffffff
fffffffc
fffffffa
ffffffff
ffffffff
ffffffff
ffffffff
ffffffff
fffffffb
00000001
fffffffe
fffffffe
00000000
00000001
00000001
00000001
00000000
fffffffc
00000000
fffffffe
00000003
fffffffd
ffffffff
ffffffff
00000000
fffffffc
00000002
00000001
fffffffc
00000000
ffffffff
fffffff7
00000000
00000000
00000000
00000000
00000000
fffffffd
fffffffe
fffffffd
fffffffc
ffffffff
fffffffe
fffffffe
fffffffd
00000000
00000001
fffffffb
fffffffd
00000000
00000000
ffffffff
fffffffe
fffffffb
00000000
fffffffc
00000000
00000000
fffffffd
00000000
fffffffe
00000000
00000000
00000002
fffffff9
fffffffe
00000000
00000000
00000000
fffffffd
00000001
00000000
00000004
00000001
00000001
ffffffff
00000001
00000000
fffffffd
ffffffff
fffffffe
00000000
00000000
fffffffe
ffffffff
fffffffd
00000000
00000000
00000000
fffffffe
fffffffa
fffffffe
fffffffd
00000001
fffffffe
00000000
fffffffe
fffffffd
00000000
00000000
ffffffff
fffffffa
fffffffc
fffffffd
00000001
fffffffc
fffffffe
00000000
00000000
fffffffd
00000001
00000001
00000000
fffffffe
fffffffe
ffffffff
00000000
00000000
00000000
fffffffe
00000001
00000000
ffffffff
ffffffff
00000001
ffffffff
fffffffe
fffffffd
fffffffc
ffffffff
00000000
ffffffff
00000000
00000002
fffffffd
00000000
fffffffc
fffffffe
fffffffe
00000000
ffffffff
fffffffc
00000000
00000000
ffffffff
ffffffff
fffffffd
00000000
00000000
00000000
fffffffd
ffffffff
00000000
ffffffff
00000000
fffffffe
00000000
fffffffe
fffffffe
00000001
00000001
fffffffd
ffffffff
fffffffc
ffffffff
fffffffd
fffffffe
ffffffff
00000000
00000000
fffffffd
00000000
00000000
00000000
00000000
fffffffd
00000000
00000000
00000000
fffffffd
ffffffff
fffffffd
fffffffd
ffffffff
ffffffff
ffffffff
00000000
fffffffd
00000000
fffffffd
fffffffe
ffffffff
ffffffff
00000001
fffffffe
00000000
fffffffd
00000000
00000001
ffffffff
00000001
fffffffa
00000001
00000000
00000000
ffffffff
ffffffff
fffffffe
00000001
00000000
fffffffe
fffffffc
00000000
00000000
fffffffd
fffffffc
fffffffd
00000000
00000000
ffffffff
00000000
00000000
fffffffd
00000001
00000000
fffffffe
00000000
fffffffd
00000000
00000000
ffffffff
00000000
00000000
fffffffd
fffffffc
ffffffff
00000000
fffffffe
00000000
00000001
fffffffe
00000000
fffffffd
fffffffe
ffffffff
00000000
ffffffff
00000000
00000002
ffffffff
fffffffe
00000000
00000000
fffffffe
ffffffff
ffffffff
fffffffe
fffffffc
fffffffe
fffffffd
00000000
fffffffe
00000000
ffffffff
ffffffff
00000001
ffffffff
00000000
ffffffff
fffffffe
00000000
fffffffc
00000001
00000000
fffffffe
ffffffff
00000000
00000000
00000000
00000000
fffffffd
00000000
fffffffe
fffffffd
ffffffff
ffffffff
fffffffe
00000000
00000000
00000000
fffffffc
fffffffd
fffffffc
00000000
00000000
00000001
00000000
00000000
ffffffff
ffffffff
00000000
ffffffff
ffffffff
fffffffe
fffffffe
ffffffff
fffffffe
fffffffe
fffffffd
00000000
00000000
00000000
00000000
00000001
00000000
fffffffe
ffffffff
fffffffe
00000001
ffffffff
00000000
fffffffd
00000000
ffffffff
00000001
fffffffe
00000001
00000000
00000001
fffffffe
00000001
00000000
fffffffe
ffffffff
ffffffff
00000000
00000001
fffffffe
ffffffff
fffffffd
ffffffff
fffffffe
ffffffff
fffffffe
fffffffd
fffffffd
fffffffe
00000000
00000000
ffffffff
fffffffc
00000000
ffffffff
ffffffff
ffffffff
fffffffe
fffffffd
ffffffff
00000000
ffffffff
00000000
00000000
ffffffff
00000000
fffffffb
fffffffb
fffffffb
fffffffc
00000000
ffffffff
fffffffc
fffffffd
00000001
00000000
fffffffd
fffffffe
00000000
00000000
00000002
00000000
00000001
00000003
ffffffff
ffffffff
fffffffb
00000001
fffffffa
fffffffb
ffffffff
fffffffe
fffffffd
ffffffff
fffffff5
00000000
00000000
00000001
fffffffc
00000001
00000000
00000003
ffffffff
fffffff8
fffffffd
00000000
ffffffff
ffffffff
00000000
fffffff9
fffffff8
fffffffa
00000001
00000002
fffffff8
ffffffff
fffffffe
fffffffb
fffffffe
00000001
00000001
ffffffff
00000000
fffffff9
00000000
00000000
00000001
fffffffc
00000000
fffffffe
ffffffff
ffffffff
00000004
00000000
fffffff8
fffffffc
fffffffc
fffffffd
ffffffff
fffffff6
00000000
fffffffc
00000001
00000000
00000001
fffffffd
ffffffff
00000000
00000000
00000001
fffffffe
00000002
ffffffff
fffffffe
ffffffff
fffffffe
00000000
00000000
00000001
00000002
00000001
fffffffc
ffffffff
00000005
fffffffd
00000000
00000000
00000000
00000001
00000004
00000000
00000000
00000000
00000008
fffffffc
ffffffff
fffffffd
00000000
ffffffff
00000001
00000002
00000002
00000000
00000003
fffffffe
00000001
00000000
fffffffd
00000000
00000000
00000000
00000000
fffffffb
00000003
00000000
00000004
00000000
00000000
fffffff9
00000000
00000002
fffffffb
00000000
00000000
fffffffe
fffffffe
00000003
fffffffe
fffffffe
fffffffe
00000002
00000000
ffffffff
00000001
00000001
fffffffe
00000001
fffffff7
00000002
fffffffe
fffffffe
ffffffff
fffffffd
00000000
00000000
00000005
00000003
fffffffc
00000000
fffffffe
fffffffe
fffffffd
00000001
00000000
fffffffe
00000001
00000000
00000000
00000002
ffffffff
ffffffff
00000000
00000000
00000001
ffffffff
fffffffe
fffffffd
fffffffc
00000000
fffffffa
ffffffff
00000000
00000000
00000000
00000001
fffffffe
00000001
ffffffff
fffffffd
fffffffe
fffffffd
fffffffd
00000000
fffffffc
00000000
fffffffc
ffffffff
00000002
ffffffff
fffffffd
fffffffe
fffffffe
ffffffff
ffffffff
00000000
00000000
00000000
fffffffd
00000000
00000000
ffffffff
00000001
00000002
00000001
00000000
ffffffff
00000000
00000004
ffffffff
00000000
00000000
fffffffe
ffffffff
00000001
00000000
fffffffd
00000001
00000000
ffffffff
00000001
fffffffd
ffffffff
fffffffd
ffffffff
00000001
fffffffa
fffffffe
ffffffff
fffffffc
fffffffc
00000000
fffffffe
00000002
fffffffe
fffffffd
ffffffff
00000002
fffffffd
00000005
00000006
00000000
00000000
00000003
fffffff8
00000000
00000002
fffffffc
00000000
00000000
00000000
00000000
00000000
00000000
00000000
fffffff9
fffffffc
00000000
00000003
00000000
00000000
00000001
00000000
00000002
00000001
fffffffe
00000001
00000000
fffffffe
00000001
ffffffff
fffffffb
00000000
fffffffe
ffffffff
fffffffa
00000000
fffffffe
ffffffff
fffffffe
00000002
ffffffff
00000000
00000000
00000001
ffffffff
00000002
fffffffb
00000000
00000000
00000000
fffffffc
fffffffd
fffffffd
00000000
ffffffff
ffffffff
fffffffd
fffffffd
00000001
fffffffd
00000005
ffffffff
ffffffff
fffffffe
00000004
00000000
fffffffe
00000004
fffffffd
00000000
fffffffd
00000001
fffffffe
00000002
fffffffe
00000004
00000000
00000000
fffffffe
fffffffc
fffffffd
00000002
fffffffe
fffffff7
00000000
fffffffe
00000002
fffffffe
ffffffff
00000002
00000000
fffffffc
00000001
00000001
ffffffff
00000000
ffffffff
ffffffff
00000001
fffffffd
00000000
00000002
00000000
ffffffff
00000000
00000000
fffffffc
fffffff5
ffffffff
fffffffe
00000001
fffffff8
fffffffc
fffffffd
00000000
00000000
fffffff9
ffffffff
00000001
00000000
00000001
ffffffff
fffffffe
00000002
00000001
fffffff8
ffffffff
fffffffe
00000000
fffffffe
00000007
00000003
00000000
00000000
00000001
fffffffe
00000006
ffffffff
00000002
00000002
fffffffb
00000001
00000000
00000000
fffffffb
ffffffff
ffffffff
fffffffd
00000000
00000000
fffffffe
fffffffc
fffffffd
00000000
ffffffff
00000000
00000002
00000000
fffffff7
fffffffe
00000002
00000001
ffffffff
fffffffe
00000001
00000002
00000004
fffffff7
00000000
fffffffe
00000001
fffffffd
00000001
ffffffff
fffffffe
00000001
ffffffff
00000001
fffffff9
00000001
fffffffe
ffffffff
00000000
00000000
00000001
fffffffd
fffffffe
fffffffb
00000001
00000001
00000000
fffffffe
00000000
ffffffff
00000000
fffffffd
ffffffff
00000000
fffffffc
00000001
00000002
fffffffc
00000001
fffffffa
00000001
fffffffb
00000000
ffffffff
fffffffc
00000000
fffffffc
ffffffff
00000001
00000001
fffffffc
00000000
00000001
fffffffd
fffffffe
fffffffd
00000000
ffffffff
00000000
ffffffff
fffffffe
fffffffc
00000000
00000000
fffffffd
00000000
fffffffb
00000002
00000000
fffffffc
00000000
fffffffe
00000000
00000001
00000000
00000001
ffffffff
00000001
fffffffb
fffffffe
00000000
fffffffe
00000001
fffffffb
fffffffe
00000001
fffffffd
fffffff8
fffffffd
fffffffa
00000000
ffffffff
fffffff7
00000000
00000000
00000004
00000000
fffffffe
ffffffff
fffffffe
fffffffe
fffffffd
00000000
00000000
ffffffff
00000000
fffffffd
00000000
fffffffa
00000000
00000001
fffffffe
fffffffe
00000000
ffffffff
00000001
ffffffff
ffffffff
00000000
fffffffd
00000000
fffffffd
00000000
00000000
fffffffe
00000000
00000000
00000000
ffffffff
fffffffe
00000001
00000001
fffffffd
00000001
ffffffff
00000001
fffffffd
00000000
00000000
ffffffff
00000000
fffffffc
ffffffff
00000001
fffffffc
fffffffd
ffffffff
00000004
00000001
ffffffff
00000000
00000000
fffffffd
fffffffd
00000000
fffffffe
ffffffff
ffffffff
fffffffe
00000001
00000000
00000000
fffffffc
fffffffd
00000001
00000000
00000001
00000001
00000000
00000002
fffffffc
ffffffff
00000001
00000001
fffffffe
00000000
00000000
00000004
ffffffff
00000000
ffffffff
00000002
00000002
00000000
fffffffe
ffffffff
00000000
00000000
00000000
fffffffe
00000000
fffffffe
fffffffd
fffffffd
00000000
ffffffff
00000000
00000007
fffffffd
00000000
00000005
fffffffc
00000001
00000001
00000000
fffffffc
00000000
fffffffe
fffffffe
fffffffb
00000000
fffffffc
00000002
00000001
00000000
fffffffd
fffffffd
ffffffff
fffffffd
fffffffe
00000002
fffffffe
00000000
00000001
fffffffe
fffffffe
fffffffb
ffffffff
00000000
fffffffe
ffffffff
ffffffff
fffffffe
00000000
fffffffa
00000001
00000000
00000000
00000001
00000000
ffffffff
00000000
00000001
fffffffd
fffffffc
fffffffe
ffffffff
fffffffe
fffffffe
00000001
00000000
fffffffe
fffffffd
fffffffc
00000000
ffffffff
fffffffb
fffffffc
ffffffff
00000001
fffffffd
fffffffe
00000000
ffffffff
00000000
fffffffe
fffffff8
fffffffe
ffffffff
fffffffd
fffffffb
fffffffc
00000000
fffffffd
fffffffe
00000000
fffffffc
fffffffb
00000000
fffffffe
00000001
fffffffe
00000000
fffffffc
ffffffff
00000002
ffffffff
fffffffe
ffffffff
00000000
ffffffff
fffffffd
00000000
00000001
00000000
fffffffd
fffffffe
00000000
ffffffff
fffffffe
00000000
fffffffb
00000002
fffffffc
fffffffe
00000000
fffffffe
ffffffff
00000000
fffffffe
00000000
ffffffff
00000000
00000000
00000000
00000001
00000000
00000001
fffffffe
00000005
fffffffc
00000000
00000000
fffffffe
fffffffe
ffffffff
00000000
fffffff7
00000001
00000000
00000001
fffffffe
fffffffe
00000001
fffffffe
00000000
00000000
fffffffd
00000001
fffffffe
00000000
ffffffff
fffffffc
ffffffff
ffffffff
fffffffd
fffffffe
00000000
00000000
ffffffff
fffffffb
fffffffd
00000001
fffffffe
00000000
fffffffd
fffffffc
fffffffe
00000001
ffffffff
fffffffb
00000001
00000001
fffffffe
00000000
00000000
00000000
fffffffe
00000000
fffffffd
00000001
fffffffc
fffffffa
fffffffc
00000000
ffffffff
fffffffb
00000001
fffffff7
00000000
ffffffff
ffffffff
ffffffff
ffffffff
fffffffe
00000000
00000002
fffffff8
ffffffff
00000000
00000001
fffffff9
00000000
fffffffb
fffffffd
fffffff8
ffffffff
00000001
fffffffc
00000001
00000000
fffffffc
ffffffff
00000001
00000003
fffffffe
fffffffe
00000000
fffffffd
00000000
00000000
00000000
00000000
00000000
00000000
00000000
00000002
fffffffc
fffffff9
00000000
00000000
00000000
00000001
fffffff9
00000000
fffffffc
fffffffe
00000000
00000000
ffffffff
00000000
00000000
00000001
00000001
fffffffa
00000000
00000002
ffffffff
00000000
fffffffb
ffffffff
fffffffe
00000004
00000001
fffffffe
fffffffd
00000000
00000007
00000000
00000000
00000001
00000001
00000000
00000001
00000000
fffffffb
fffffffe
00000001
00000000
fffffffe
fffffffe
ffffffff
fffffffc
ffffffff
ffffffff
00000000
00000002
fffffffd
fffffffe
00000000
fffffffb
fffffffd
fffffffc
fffffffa
fffffffe
fffffffc
fffffff6
00000006
00000001
fffffffd
ffffffff
fffffffe
fffffffb
00000001
00000000
fffffffc
fffffffe
00000000
ffffffff
00000001
00000002
fffffffe
fffffffd
fffffffe
00000000
00000000
fffffffd
00000000
fffffffc
00000001
ffffffff
fffffffd
fffffffe
ffffffff
00000001
ffffffff
00000001
00000000
00000001
fffffffe
ffffffff
fffffffc
ffffffff
00000000
00000000
fffffffb
fffffffd
00000000
fffffffe
00000000
fffffffe
00000001
fffffffe
00000000
ffffffff
ffffffff
00000001
00000000
00000000
00000000
fffffffe
fffffffd
ffffffff
00000002
fffffffd
00000000
00000000
ffffffff
fffffffb
00000000
fffffffe
00000000
fffffffe
00000000
fffffffe
ffffffff
fffffffe
00000000
00000000
fffffffd
fffffffe
ffffffff
00000001
fffffffd
fffffffe
ffffffff
fffffffe
fffffffc
ffffffff
ffffffff
00000000
00000000
fffffffd
00000000
ffffffff
fffffffe
ffffffff
fffffffd
00000000
fffffffe
00000001
ffffffff
00000001
00000002
00000001
00000000
fffffff9
fffffffd
00000000
ffffffff
fffffffe
fffffffe
fffffffe
00000000
fffffffe
ffffffff
00000001
00000000
00000000
00000000
00000001
0000000a
00000002
00000001
00000000
fffffffe
00000000
00000000
00000001
ffffffff
ffffffff
00000000
fffffffe
fffffff9
00000001
00000000
ffffffff
fffffffa
ffffffff
fffffffe
fffffffe
ffffffff
fffffffe
00000000
fffffffc
00000000
fffffffe
ffffffff
00000000
ffffffff
00000001
ffffffff
fffffffe
ffffffff
ffffffff
00000000
fffffffc
fffffffd
fffffffe
fffffffc
00000002
fffffffe
00000002
ffffffff
fffffffd
00000000
00000000
00000001
00000000
fffffffe
fffffffe
00000000
fffffffe
fffffffe
00000000
ffffffff
00000000
00000000
00000000
00000000
00000003
00000000
ffffffff
00000000
00000001
fffffffd
00000000
00000000
fffffffe
fffffffd
00000001
fffffffa
fffffffe
fffffffc
ffffffff
ffffffff
fffffffd
fffffffe
00000000
00000003
ffffffff
fffffffb
00000000
fffffffd
00000000
00000007
fffffffe
ffffffff
00000001
ffffffff
00000001
00000000
ffffffff
fffffffd
00000000
ffffffff
00000002
00000000
fffffffe
00000000
fffffffe
00000000
00000001
fffffffb
ffffffff
00000000
00000000
fffffffe
00000000
00000000
fffffffe
00000000
fffffffe
00000000
fffffff8
00000000
fffffffc
fffffffb
00000001
fffffffe
fffffffc
00000008
00000000
00000000
fffffffd
fffffffc
ffffffff
00000000
fffffffe
00000000
00000003
00000000
00000000
fffffffa
fffffffd
00000000
fffffffe
ffffffff
fffffffe
00000001
ffffffff
ffffffff
00000000
00000002
fffffffb
fffffffc
fffffffb
fffffffd
00000000
fffffffe
fffffffc
ffffffff
fffffffe
ffffffff
fffffffc
fffffffe
00000002
ffffffff
fffffffb
fffffffe
00000001
ffffffff
00000000
00000003
fffffffd
fffffffa
fffffffb
fffffffd
00000000
ffffffff
00000002
00000002
fffffff9
fffffffe
00000000
00000001
fffffffe
00000000
00000000
ffffffff
00000006
fffffff7
fffffffe
00000001
00000001
fffffffc
00000002
fffffffd
00000001
fffffffc
00000002
00000000
fffffffd
00000000
00000002
fffffffb
00000001
00000001
00000000
00000000
fffffffe
00000000
00000000
ffffffff
00000003
fffffffe
00000000
00000000
ffffffff
00000000
ffffffff
fffffffc
fffffff8
00000002
00000004
00000001
00000000
fffffffb
00000000
fffffffb
00000001
00000000
ffffffff
ffffffff
fffffffc
00000000
00000002
00000001
fffffffc
fffffffe
ffffffff
00000000
00000002
fffffffe
00000000
00000000
00000000
00000001
00000000
ffffffff
00000001
00000000
fffffffd
00000001
fffffff9
fffffffe
00000000
00000000
00000001
fffffffd
00000001
00000001
00000000
ffffffff
fffffffe
00000000
fffffffe
ffffffff
00000000
ffffffff
ffffffff
00000000
fffffffb
00000000
fffffffe
fffffffc
fffffffd
fffffffb
fffffffe
00000000
fffffffd
00000002
fffffffd
00000003
00000000
fffffffd
fffffffd
fffffffe
00000000
fffffffa
00000000
ffffffff
00000000
ffffffff
00000000
fffffffd
fffffff9
ffffffff
00000000
00000000
fffffffe
fffffffd
00000003
fffffffd
fffffffe
fffffffc
ffffffff
00000000
fffffffe
00000000
fffffffe
fffffffd
ffffffff
00000000
ffffffff
00000000
00000000
fffffffc
fffffffe
00000000
fffffffc
ffffffff
ffffffff
ffffffff
00000002
fffffffc
00000000
00000000
00000001
fffffffe
ffffffff
00000000
fffffffd
fffffffd
00000001
00000002
fffffffe
fffffffc
fffffffe
fffffffd
00000000
00000000
fffffffe
00000001
fffffffd
ffffffff
00000000
00000000
00000001
00000000
00000001
fffffffe
ffffffff
fffffffd
00000000
00000000
fffffffd
fffffffe
fffffffd
00000001
00000000
00000001
00000001
00000001
fffffffe
00000000
00000000
00000000
00000000
00000001
00000000
ffffffff
ffffffff
ffffffff
fffffffd
fffffffe
ffffffff
ffffffff
00000000
fffffffe
ffffffff
fffffffe
00000000
00000000
00000000
fffffffd
00000001
00000000
00000000
00000000
00000000
fffffffd
ffffffff
fffffffe
00000000
fffffffe
fffffffa
ffffffff
00000002
00000000
00000001
fffffffc
fffffffd
00000000
fffffffe
fffffffe
fffffffc
00000002
00000000
00000000
00000000
fffffffb
00000000
00000000
fffffffc
ffffffff
00000000
fffffffe
fffffffe
fffffffe
00000001
00000001
fffffffc
ffffffff
00000000
00000000
00000000
ffffffff
ffffffff
00000000
00000000
fffffffe
ffffffff
fffffffd
00000000
fffffffd
ffffffff
00000002
fffffffe
fffffffe
fffffffe
ffffffff
ffffffff
fffffffd
fffffffc
00000000
00000000
00000001
00000000
ffffffff
fffffffd
00000001
fffffffe
ffffffff
fffffffd
00000000
ffffffff
00000001
fffffffd
fffffffd
00000000
00000000
ffffffff
fffffffd
00000000
ffffffff
ffffffff
fffffffd
00000000
00000000
ffffffff
00000000
fffffffe
fffffffd
00000000
fffffffe
00000001
fffffffd
00000000
ffffffff
00000000
00000001
00000000
00000000
ffffffff
00000001
00000001
00000000
00000001
00000003
ffffffff
fffffffc
00000000
fffffffe
00000000
fffffffe
00000001
ffffffff
fffffffe
ffffffff
00000000
00000000
fffffffe
00000000
00000000
00000001
00000000
ffffffff
fffffffd
00000000
fffffffd
00000002
ffffffff
ffffffff
ffffffff
fffffffb
00000000
fffffffe
00000000
fffffffc
ffffffff
00000000
fffffffc
00000001
ffffffff
00000000
00000002
00000001
fffffffe
fffffffd
00000001
00000000
00000000
fffffffa
fffffffe
ffffffff
fffffffe
00000000
00000000
fffffffc
ffffffff
00000000
00000001
ffffffff
fffffffd
00000000
00000000
ffffffff
fffffffb
00000000
00000000
00000000
fffffff9
00000000
00000000
ffffffff
fffffffe
00000004
ffffffff
fffffffa
fffffff9
fffffffb
00000001
ffffffff
00000000
00000001
fffffffd
00000000
00000001
00000000
fffffffb
00000001
ffffffff
ffffffff
fffffffd
fffffff8
00000000
00000002
00000000
fffffffd
ffffffff
00000000
00000002
fffffffd
fffffffe
00000000
fffffffb
fffffffe
ffffffff
fffffffd
00000000
00000000
00000003
ffffffff
ffffffff
ffffffff
ffffffff
00000006
00000004
00000005
00000000
00000000
00000000
00000003
fffffffc
fffffff6
fffffffd
00000000
00000004
00000001
fffffffe
fffffff6
fffffffe
fffffffa
00000000
fffffffe
fffffffc
fffffffc
00000000
fffffffe
00000001
00000000
00000000
00000000
00000001
fffffffe
fffffffe
fffffffc
fffffffe
00000000
fffffffe
ffffffff
ffffffff
ffffffff
00000001
fffffffc
fffffffe
00000000
ffffffff
00000001
00000000
fffffffb
00000001
fffffffb
00000000
00000001
fffffffd
ffffffff
00000000
00000000
fffffff9
ffffffff
00000000
00000000
fffffffe
fffffffb
fffffffb
ffffffff
fffffffe
fffffffa
00000002
fffffffa
fffffffe
ffffffff
fffffff9
0000000b
00000001
ffffffff
00000000
00000000
00000004
fffffffd
00000000
00000000
00000000
fffffffe
00000000
fffffffe
fffffffc
fffffffe
fffffff8
fffffffd
00000000
fffffffe
ffffffff
00000001
fffffffc
fffffffc
fffffffc
00000000
00000000
ffffffff
fffffffe
00000000
00000000
00000000
00000000
00000000
fffffffc
fffffffb
ffffffff
fffffffc
00000000
00000006
fffffffc
fffffffb
fffffffe
00000001
00000000
00000000
fffffffe
fffffffe
00000000
fffffffd
00000000
fffffffe
fffffffe
00000000
ffffffff
fffffffd
fffffffb
ffffffff
fffffffd
fffffffe
00000000
ffffffff
fffffffe
00000000
00000000
fffffffc
00000000
fffffffd
00000000
00000001
fffffffa
00000003
fffffff8
ffffffff
ffffffff
fffffffe
fffffffd
00000002
fffffffe
ffffffff
00000000
ffffffff
00000000
00000000
00000000
00000006
00000001
fffffffe
00000000
00000000
fffffffb
ffffffff
ffffffff
ffffffff
fffffffe
fffffffb
00000000
ffffffff
ffffffff
00000000
00000006
ffffffff
ffffffff
fffffffd
00000002
00000000
00000000
00000000
00000000
00000003
00000000
fffffffd
00000000
fffffffe
00000000
00000000
fffffffe
00000000
ffffffff
00000000
fffffffe
00000001
ffffffff
00000000
ffffffff
00000000
fffffff9
fffffffa
ffffffff
00000000
ffffffff
fffffffc
00000000
ffffffff
fffffffc
ffffffff
fffffffe
00000000
fffffffb
00000001
00000001
00000000
00000000
00000003
00000001
fffffffa
00000000
00000001
00000000
fffffffe
00000000
fffffffe
00000001
00000000
00000001
00000000
00000000
fffffffd
fffffffe
00000001
00000000
00000001
fffffffd
ffffffff
fffffffb
ffffffff
00000001
00000000
00000001
00000001
fffffffe
00000000
00000000
00000000
fffffffe
fffffffd
00000000
ffffffff
fffffffb
fffffffc
00000001
00000000
fffffffe
fffffffd
00000000
00000002
00000002
fffffffd
fffffffd
fffffffd
00000000
00000000
fffffffe
ffffffff
00000005
ffffffff
fffffffd
00000003
fffffffd
fffffffe
00000000
fffffffe
ffffffff
fffffffd
00000001
ffffffff
00000000
00000000
00000000
fffffff8
fffffffe
00000002
00000000
00000000
00000000
00000000
00000000
fffffffe
ffffffff
fffffffe
00000000
fffffffd
ffffffff
00000001
00000000
ffffffff
ffffffff
00000003
fffffff8
ffffffff
ffffffff
00000000
ffffffff
fffffffe
00000001
00000000
fffffffe
00000003
fffffffe
fffffffe
00000000
ffffffff
fffffffc
ffffffff
fffffffc
ffffffff
ffffffff
fffffffc
ffffffff
00000000
fffffffc
fffffffb
00000000
00000004
00000002
00000000
00000000
ffffffff
fffffffe
fffffffe
00000000
fffffffe
00000000
ffffffff
fffffffc
fffffffd
00000000
00000000
fffffffe
00000002
00000001
00000000
fffffffd
00000000
00000002
ffffffff
00000001
fffffffe
fffffffe
fffffffa
fffffffa
00000000
fffffffe
00000001
00000000
00000001
fffffffc
ffffffff
ffffffff
00000000
ffffffff
00000001
00000001
00000000
fffffffd
fffffffb
fffffffe
00000001
fffffffb
ffffffff
00000000
00000000
00000000
fffffffb
00000000
00000000
00000000
ffffffff
00000001
fffffffb
ffffffff
00000000
fffffffe
ffffffff
00000000
fffffffd
ffffffff
00000000
fffffffd
ffffffff
00000000
fffffffe
ffffffff
ffffffff
ffffffff
fffffffc
fffffffe
00000001
fffffffd
00000000
00000001
fffffff9
00000001
fffffffc
00000000
fffffffe
ffffffff
ffffffff
fffffffe
00000000
00000001
00000000
fffffffa
00000002
00000001
00000000
fffffffe
fffffffc
00000000
ffffffff
00000000
ffffffff
00000000
fffffffc
00000001
fffffffe
00000000
00000000
fffffffc
00000002
00000000
fffffffc
fffffffd
fffffffc
ffffffff
fffffffe
ffffffff
00000001
fffffffe
00000000
fffffffb
00000000
fffffffe
00000000
00000000
fffffffa
fffffffc
00000000
fffffffd
ffffffff
fffffffb
fffffffb
fffffffe
00000000
fffffffc
00000000
fffffffe
ffffffff
00000000
00000000
00000000
00000001
00000000
00000000
fffffffe
00000000
fffffffe
ffffffff
ffffffff
00000001
fffffffe
fffffffb
00000000
fffffffd
00000000
fffffffe
fffffffc
00000000
fffffffe
fffffffb
00000000
00000000
00000000
00000000
ffffffff
00000000
00000000
00000000
ffffffff
fffffffc
fffffffd
fffffffe
fffffffe
ffffffff
fffffffd
fffffffe
00000000
ffffffff
00000000
fffffffd
ffffffff
00000000
fffffffd
00000000
00000000
00000000
ffffffff
00000001
00000000
fffffffe
fffffffc
fffffffb
fffffffe
ffffffff
00000001
00000000
fffffffe
00000000
ffffffff
fffffffd
00000000
00000000
ffffffff
00000000
fffffffb
fffffffe
fffffffd
ffffffff
00000001
00000000
ffffffff
fffffffc
fffffffe
00000001
fffffffe
fffffffc
00000000
00000002
00000000
fffffffe
ffffffff
fffffffe
ffffffff
00000000
00000000
ffffffff
ffffffff
ffffffff
00000000
fffffffe
00000000
fffffffe
fffffffe
fffffffc
fffffffc
ffffffff
00000001
ffffffff
00000000
fffffffe
fffffffe
00000000
fffffffc
fffffffd
00000000
ffffffff
ffffffff
fffffffd
ffffffff
fffffffd
fffffffe
ffffffff
00000000
00000000
ffffffff
fffffffd
fffffffe
00000000
00000000
00000000
fffffffd
fffffffe
fffffffc
00000000
00000000
fffffffd
fffffffe
00000000
ffffffff
00000000
ffffffff
00000000
ffffffff
fffffffe
fffffffe
ffffffff
fffffffe
fffffffe
00000000
00000000
00000001
fffffffd
00000000
fffffffe
ffffffff
fffffffc
fffffffe
00000000
00000000
ffffffff
00000000
ffffffff
fffffffb
00000000
00000001
00000000
fffffffd
00000001
fffffffe
ffffffff
00000001
00000000
ffffffff
00000000
fffffffe
00000000
00000000
00000000
fffffffb
ffffffff
00000000
00000000
fffffffd
fffffffd
fffffffd
ffffffff
fffffffd
ffffffff
fffffffe
fffffffc
fffffffc
fffffffc
ffffffff
ffffffff
00000000
fffffffe
fffffffd
00000000
fffffffe
fffffffe
ffffffff
fffffffb
fffffffd
00000000
00000000
fffffffe
ffffffff
ffffffff
00000002
00000000
00000002
00000000
ffffffff
fffffffe
00000001
fffffffc
fffffffe
fffffffe
fffffffe
00000000
00000000
fffffffc
00000000
00000000
00000000
00000000
fffffffc
00000000
ffffffff
fffffffe
00000002
00000000
fffffffc
fffffffe
00000000
ffffffff
fffffffe
ffffffff
ffffffff
fffffffc
00000000
fffffffe
00000000
fffffffe
00000001
00000001
ffffffff
fffffffe
fffffffd
00000001
00000000
ffffffff
fffffffd
fffffffe
fffffffc
00000000
00000000
fffffffe
fffffffe
00000001
00000000
fffffffe
fffffffe
ffffffff
fffffffc
fffffffd
00000000
ffffffff
fffffffa
fffffffc
00000000
00000000
0000000a
00000001
ffffffff
00000000
00000002
ffffffff
00000000
00000001
fffffffe
fffffff9
00000004
fffffffe
fffffffb
fffffffd
fffffffe
00000001
fffffff9
ffffffff
fffffff7
00000001
00000000
00000000
fffffff6
00000001
ffffffff
00000000
00000000
ffffffff
00000000
00000000
fffffffc
00000003
fffffffe
fffffffc
fffffffa
fffffff0
00000001
ffffffff
fffffff7
fffffffe
ffffffff
00000000
00000000
00000001
00000000
00000000
00000000
fffffffd
00000001
00000000
00000002
fffffffa
ffffffff
00000000
fffffffe
00000002
fffffffc
00000002
fffffff2
00000000
fffffffd
fffffffe
00000001
fffffff3
fffffffd
00000005
00000001
00000001
00000000
fffffffe
00000000
fffffffe
00000001
00000000
00000000
00000000
fffffffe
00000000
00000000
fffffff9
ffffffff
00000000
fffffffd
00000000
fffffffe
ffffffff
ffffffff
fffffffd
00000000
00000000
fffffffc
fffffffe
00000001
ffffffff
00000001
fffffffb
fffffffe
00000001
00000000
00000002
0000000c
00000001
00000005
00000000
00000000
00000001
fffffffe
fffffffb
fffffff9
00000000
00000004
fffffffa
00000003
fffffff5
00000001
fffffffe
fffffff4
ffffffff
00000003
fffffff5
00000000
fffffffe
fffffffe
00000000
00000001
fffffffc
ffffffff
ffffffff
fffffffe
00000000
00000002
00000000
fffffffe
fffffffe
00000003
00000000
00000000
00000001
fffffffc
ffffffff
fffffffd
fffffffc
ffffffff
00000000
fffffffb
ffffffff
00000003
fffffffc
00000000
fffffffd
00000000
fffffffd
ffffffff
00000001
00000001
00000002
fffffffd
fffffffe
00000002
00000000
00000006
00000000
00000002
00000000
fffffffe
ffffffff
ffffffff
fffffffe
fffffffb
ffffffff
00000001
fffffff9
fffffff8
00000000
00000001
ffffffff
00000000
ffffffff
fffffffd
fffffffd
fffffffd
fffffffe
ffffffff
ffffffff
00000000
00000004
fffffff7
fffffffe
fffffffc
00000002
00000004
00000000
00000005
ffffffff
fffffffc
00000002
fffffffe
fffffffd
fffffffd
fffffffe
00000000
00000001
fffffffd
ffffffff
00000001
00000000
fffffffa
ffffffff
fffffffd
fffffffc
00000000
fffffffc
00000000
00000001
00000000
fffffffc
ffffffff
00000000
00000000
fffffffe
00000001
fffffffd
fffffffe
fffffffe
ffffffff
00000001
ffffffff
00000000
00000001
00000000
fffffffd
00000000
00000000
ffffffff
00000001
fffffffd
00000000
00000003
00000001
00000000
fffffffd
00000000
fffffffc
fffffffa
ffffffff
00000002
00000000
ffffffff
00000000
00000001
00000000
fffffffe
ffffffff
00000000
fffffffd
00000000
fffffffd
00000000
00000009
00000002
00000001
fffffffb
00000000
fffffffd
ffffffff
fffffffe
fffffffd
fffffffb
00000004
fffffffe
00000000
fffffffe
00000000
fffffffd
fffffffc
ffffffff
fffffffc
00000000
00000000
00000000
fffffffd
fffffffe
00000001
ffffffff
00000002
ffffffff
fffffffd
00000001
00000000
ffffffff
00000007
00000000
ffffffff
00000000
00000000
fffffffe
fffffffe
00000000
00000000
00000008
fffffffe
fffffffa
ffffffff
00000000
00000000
00000001
ffffffff
ffffffff
fffffffd
fffffffc
00000003
fffffffb
fffffffd
00000000
fffffffc
fffffffc
fffffffd
00000000
ffffffff
00000002
00000000
fffffffe
ffffffff
00000000
00000001
00000001
ffffffff
00000000
fffffffe
00000000
00000000
00000000
00000000
fffffffc
00000000
00000002
00000001
00000001
00000000
fffffffb
00000002
00000000
fffffffe
fffffffa
fffffffa
ffffffff
00000000
fffffffc
00000000
00000003
ffffffff
00000003
fffffffe
ffffffff
ffffffff
00000000
00000000
fffffffe
00000001
fffffffe
00000000
fffffffd
fffffffe
00000002
fffffffd
00000001
fffffffa
00000002
00000001
00000001
fffffffe
00000000
ffffffff
fffffffc
fffffffe
00000000
fffffffd
fffffffe
00000000
00000003
fffffffa
fffffffb
00000000
ffffffff
fffffffe
fffffffe
00000000
00000001
00000001
fffffffe
fffffffe
00000000
fffffffe
fffffff9
fffffffb
fffffffb
fffffffc
fffffffe
fffffffe
00000001
fffffffb
fffffffe
fffffffa
00000001
00000000
00000000
fffffff9
fffffffe
00000000
fffffffe
00000000
fffffffd
00000000
ffffffff
fffffff8
fffffff6
00000000
fffffffc
00000005
ffffffff
00000001
ffffffff
fffffff5
00000002
00000000
fffffffc
fffffffe
00000000
ffffffff
ffffffff
ffffffff
fffffffd
00000000
fffffffe
00000001
fffffffd
fffffffe
fffffffe
fffffffe
fffffffd
fffffffd
fffffff9
fffffff7
fffffffd
00000002
ffffffff
00000000
fffffff0
ffffffff
fffffffc
00000001
fffffffe
fffffffd
00000000
fffffffd
00000000
00000000
00000000
fffffffc
00000001
00000002
ffffffff
00000000
fffffffd
00000001
fffffffe
00000005
fffffffe
ffffffff
fffffffc
fffffffe
fffffff9
ffffffff
00000000
fffffff4
00000000
ffffffff
fffffffb
00000001
00000003
00000000
00000000
00000000
00000000
0000000b
fffffffe
00000000
fffffffe
00000000
ffffffff
00000001
fffffffd
00000006
ffffffff
fffffff9
00000000
00000002
fffffff6
00000000
ffffffff
fffffff5
00000005
00000000
00000000
ffffffff
00000000
fffffffe
00000000
00000000
fffffff8
fffffffe
fffffffd
fffffffc
00000002
00000000
00000001
fffffffe
00000000
00000000
ffffffff
00000000
00000001
ffffffff
fffffffd
00000000
00000005
00000001
fffffffe
00000003
00000000
fffffffe
00000001
fffffffe
00000000
ffffffff
00000003
fffffffd
00000000
fffffffd
00000002
fffffffd
00000000
00000001
00000000
fffffffd
00000001
00000000
fffffffe
00000000
fffffffe
00000000
00000000
fffffff8
00000000
00000000
ffffffff
ffffffff
fffffffe
ffffffff
00000000
00000000
ffffffff
00000001
00000001
fffffffc
ffffffff
ffffffff
00000000
00000000
fffffffd
fffffffd
ffffffff
fffffffd
00000000
00000001
ffffffff
fffffff9
fffffffa
ffffffff
00000001
00000000
fffffffd
fffffffd
00000000
ffffffff
00000000
ffffffff
00000001
fffffffe
00000001
fffffffb
00000000
00000000
00000000
00000003
fffffffe
fffffffe
fffffffb
00000000
fffffffb
fffffffe
00000000
00000000
fffffffd
fffffffe
fffffffd
ffffffff
fffffffe
00000000
fffffffb
fffffffd
ffffffff
00000000
00000000
fffffffe
fffffff8
fffffffe
fffffffe
fffffffd
ffffffff
fffffffe
00000000
ffffffff
00000000
fffffffe
00000002
00000000
fffffffa
00000001
00000000
00000000
fffffffd
ffffffff
fffffffe
00000000
fffffffe
00000002
00000000
00000003
00000001
fffffffe
00000000
00000002
00000002
fffffffd
ffffffff
00000000
fffffffe
00000000
ffffffff
00000004
00000000
fffffffc
00000000
00000000
fffffffc
00000000
00000005
fffffffc
00000000
00000000
ffffffff
ffffffff
00000000
fffffffc
ffffffff
ffffffff
ffffffff
ffffffff
00000001
ffffffff
ffffffff
ffffffff
00000000
00000003
fffffffe
00000001
fffffffe
00000006
fffffff8
fffffffd
00000001
00000000
fffffffd
00000000
fffffff9
00000001
00000008
fffffffd
00000000
ffffffff
ffffffff
00000000
00000000
ffffffff
fffffffd
00000000
00000002
ffffffff
ffffffff
00000000
ffffffff
fffffffe
fffffffd
00000000
00000001
00000000
00000000
00000000
00000005
00000001
00000001
00000001
fffffffd
00000001
00000000
ffffffff
00000000
fffffffe
fffffffe
ffffffff
ffffffff
fffffffe
00000005
00000000
ffffffff
00000001
fffffffb
fffffff9
00000001
ffffffff
fffffffd
00000000
fffffffe
00000000
00000002
fffffffd
fffffffe
00000000
ffffffff
ffffffff
ffffffff
00000005
ffffffff
00000003
fffffffe
00000001
00000006
fffffffd
ffffffff
fffffffa
00000003
00000000
00000000
00000000
fffffffe
ffffffff
ffffffff
fffffff9
fffffffd
fffffffb
fffffffd
00000001
ffffffff
fffffffa
00000000
00000001
fffffffe
fffffffd
00000001
00000000
fffffffe
fffffffe
00000001
00000000
00000003
fffffffe
fffffffe
fffffffe
fffffffe
fffffffd
fffffffe
00000002
00000002
00000000
00000000
fffffff7
00000002
00000001
ffffffff
fffffff9
ffffffff
00000000
fffffffe
fffffffe
fffffff9
00000001
00000001
fffffffc
fffffffc
00000000
fffffffd
fffffffb
fffffffe
fffffffe
00000000
00000000
ffffffff
00000002
fffffff9
00000000
00000000
ffffffff
00000000
00000000
fffffffb
fffffffe
ffffffff
00000000
ffffffff
00000000
00000000
ffffffff
fffffffc
fffffffd
fffffffc
fffffff9
ffffffff
00000000
fffffffe
00000000
fffffffc
00000000
00000001
00000000
00000001
00000001
fffffffe
fffffffd
00000000
fffffffe
00000001
fffffffc
00000000
ffffffff
fffffffe
00000001
fffffffd
00000000
00000003
00000000
ffffffff
ffffffff
fffffffc
00000000
00000000
ffffffff
fffffffe
fffffffb
ffffffff
00000000
00000002
00000001
fffffffe
00000000
00000004
00000001
ffffffff
00000006
00000003
fffffffc
00000001
00000000
00000000
ffffffff
fffffffe
00000000
00000002
00000000
ffffffff
ffffffff
fffffff9
00000000
fffffffe
fffffffc
ffffffff
fffffffd
fffffff9
00000000
00000000
fffffffe
00000001
fffffffe
fffffffe
00000001
00000000
00000000
00000000
ffffffff
fffffffe
fffffffe
00000000
fffffffe
ffffffff
ffffffff
ffffffff
fffffffc
fffffffc
fffffffe
fffffffc
00000000
fffffffe
ffffffff
fffffffe
fffffffe
fffffffe
00000000
ffffffff
fffffffe
00000000
00000000
ffffffff
00000000
fffffffe
00000000
ffffffff
00000001
00000000
fffffffe
00000001
00000000
00000001
00000000
00000000
ffffffff
00000000
fffffffc
ffffffff
00000001
fffffffd
ffffffff
fffffffc
00000000
fffffffb
00000000
fffffffe
fffffffe
00000002
00000000
00000000
00000001
00000000
00000000
00000000
ffffffff
00000000
fffffffd
00000000
fffffffd
fffffffe
ffffffff
00000000
fffffffe
00000001
00000000
fffffffe
00000000
00000000
00000000
ffffffff
fffffffe
ffffffff
00000000
00000000
fffffffe
ffffffff
00000000
00000000
fffffffe
fffffffc
00000000
ffffffff
fffffffd
00000002
00000000
00000000
ffffffff
00000000
fffffffe
fffffffe
00000002
ffffffff
fffffffc
fffffffb
fffffffe
00000000
ffffffff
ffffffff
00000000
fffffffe
fffffffd
00000000
00000000
00000001
fffffffd
fffffffe
fffffffe
00000001
ffffffff
00000000
fffffffe
fffffffe
fffffffe
ffffffff
00000000
fffffffc
00000001
fffffffe
00000001
fffffffd
00000000
00000001
00000000
00000001
00000001
00000000
fffffffe
fffffffe
ffffffff
fffffffb
00000000
ffffffff
00000000
fffffffe
fffffffd
ffffffff
ffffffff
fffffffe
00000000
fffffffe
00000000
00000001
fffffffd
fffffffe
fffffffe
fffffffe
fffffffe
ffffffff
fffffffe
fffffffe
ffffffff
fffffffd
00000001
00000000
00000002
00000001
00000000
ffffffff
fffffffe
ffffffff
ffffffff
00000000
fffffffd
00000000
fffffffd
fffffffe
00000000
00000000
00000000
fffffffd
fffffffc
ffffffff
fffffffe
00000000
fffffffd
ffffffff
00000000
00000000
00000000
fffffffe
00000000
fffffffc
fffffffe
00000000
00000001
fffffffe
00000000
fffffffd
ffffffff
00000001
00000000
00000000
00000001
00000000
ffffffff
ffffffff
ffffffff
fffffffe
00000000
fffffffd
00000000
00000002
00000000
00000000
00000000
00000000
00000000
fffffffe
ffffffff
00000001
00000000
fffffffd
00000000
00000000
00000001
fffffffe
00000000
fffffffe
00000000
ffffffff
fffffffe
00000000
fffffffe
fffffffc
00000000
00000000
00000001
00000001
fffffffb
00000000
00000001
fffffffe
00000000
00000000
fffffffb
ffffffff
00000000
fffffffd
00000000
00000001
fffffffe
fffffffd
00000000
fffffffd
fffffffd
ffffffff
00000000
00000000
fffffffc
00000000
00000001
fffffffe
00000001
00000001
fffffffe
00000002
fffffffd
fffffffe
00000001
fffffffe
00000001
00000001
fffffff6
fffffffc
fffffffa
fffffff9
00000002
00000002
00000008
00000000
fffffffc
00000001
00000001
00000000
fffffff8
00000001
fffffffe
00000000
ffffffff
00000007
ffffffff
00000000
fffffff9
00000000
fffffffe
fffffffe
00000001
fffffff2
fffffffe
ffffffff
fffffffc
00000001
fffffffe
fffffffd
00000000
ffffffff
ffffffff
00000000
ffffffff
fffffffc
ffffffff
ffffffff
00000007
fffffffa
00000000
00000000
00000000
00000000
fffffff7
fffffff5
fffffff5
ffffffff
00000002
fffffffe
00000001
fffffff5
ffffffff
fffffff8
ffffffff
ffffffff
fffffffe
00000000
fffffffe
00000001
00000001
00000001
fffffffb
fffffffe
ffffffff
00000000
fffffffe
fffffffb
00000000
ffffffff
fffffffe
00000001
ffffffff
fffffffd
ffffffff
fffffff9
00000000
00000000
fffffffa
00000000
00000000
00000000
00000000
00000007
00000002
00000000
fffffffd
00000000
fffffffd
fffffffe
fffffff6
00000001
fffffffe
00000002
00000001
fffffffa
00000003
fffffffe
fffffffd
0000000b
00000000
fffffffb
ffffffff
fffffffe
00000002
ffffffff
fffffffd
fffffffd
fffffffe
fffffffe
fffffffc
00000000
00000000
fffffffc
00000000
00000000
ffffffff
00000001
ffffffff
00000000
fffffff5
fffffffb
ffffffff
fffffffe
00000000
ffffffff
00000000
fffffffd
fffffff9
ffffffff
00000000
ffffffff
ffffffff
00000001
fffffffc
fffffffd
ffffffff
00000001
00000000
fffffffc
00000001
fffffffd
00000000
fffffffe
ffffffff
00000000
00000001
00000000
00000002
00000000
00000000
00000001
fffffffc
fffffffd
fffffffe
00000001
fffffffe
00000001
fffffffe
00000006
fffffffe
fffffffa
fffffffe
00000001
ffffffff
fffffffe
00000000
00000001
fffffffe
00000001
fffffffc
00000001
fffffffe
ffffffff
00000005
fffffffd
fffffffd
fffffffe
fffffffe
00000000
ffffffff
fffffff9
00000001
fffffffe
00000000
00000000
00000001
ffffffff
ffffffff
00000000
fffffffe
fffffffe
ffffffff
fffffffe
00000000
00000001
00000000
00000000
00000000
fffffffd
fffffffe
fffffffe
fffffffe
00000000
00000008
fffffffd
fffffffe
fffffffd
ffffffff
fffffffb
fffffffe
00000000
00000000
00000000
ffffffff
ffffffff
ffffffff
ffffffff
00000000
fffffffb
fffffffb
00000000
ffffffff
00000000
fffffffc
fffffffd
00000000
00000000
ffffffff
fffffffe
00000001
ffffffff
fffffffd
fffffffe
ffffffff
fffffffd
fffffffe
00000001
fffffffe
fffffffe
fffffffe
ffffffff
ffffffff
fffffffd
00000000
fffffffe
fffffffa
00000000
00000000
fffffffe
00000001
00000000
ffffffff
fffffffd
00000000
fffffffe
00000000
ffffffff
00000001
fffffffe
fffffffa
ffffffff
fffffffd
00000000
fffffffe
00000000
ffffffff
00000000
ffffffff
ffffffff
00000002
00000000
fffffffe
00000000
00000000
00000000
00000000
00000000
00000001
fffffffd
ffffffff
00000001
00000003
fffffff9
ffffffff
fffffffc
fffffffb
fffffffb
00000003
fffffffa
fffffffa
fffffffa
00000000
00000000
00000000
00000000
fffffffb
00000000
ffffffff
00000008
00000003
fffffffd
00000000
fffffffc
00000000
fffffffd
fffffffd
fffffffe
00000000
ffffffff
00000000
00000001
00000000
00000008
00000000
fffffff8
fffffffe
00000000
00000000
fffffffd
ffffffff
fffffffa
ffffffff
00000002
00000000
fffffffe
fffffffb
00000002
00000001
00000000
fffffffe
fffffffe
fffffffe
00000000
00000000
fffffffd
ffffffff
00000000
00000000
00000000
fffffffe
ffffffff
00000001
ffffffff
00000000
fffffffe
fffffffb
