fffffe7e
ffffffb8
00000248
00000319
00000a5a
ffffff2e
0000009e
000000f2
000002f5
fffffeec
00000141
ffffff66
00000310
0000032e
00000117
0000016a
000005a1
000002cf
ffffffe0
fffffff6
00000c28
000002db
00000220
00000579
0000002c
0000058a
000003a5
00000a25
0000016d
0000049e
000006ba
00000258
000002fa
ffffff67
0000051a
000002c6
00000221
0000014d
fffffdcd
00000323
fffffef0
00000242
ffffff70
00000381
00000288
ffffff3e
00000338
0000026b
00000131
000002b0
000000fb
ffffff1d
ffffffd3
fffffd76
fffffeb3
0000010c
0000015f
0000032a
fffffff0
00000131
00000544
00000220
00000038
000001dc
00000295
0000027a
000000c0
000003f6
00000026
000002b0
fffffe56
00000279
0000020c
ffffffe5
000002f1
00000288
0000023f
000000fb
0000034d
0000008e
00000347
0000016f
ffffff5a
ffffff24
fffffe34
fffffcaa
000002b3
000002a3
0000027c
fffffb41
0000000f
00000035
0000043d
0000062f
000002c3
fffff629
000003ea
ffffff6d
000001fc
fffffd9d
000002ab
000002bf
ffffffc1
0000035f
00000027
ffffff35
000002dd
0000022a
00000578
00000144
00000329
0000042b
000005da
00000142
000002bb
00000096
00000775
0000011e
0000079e
ffffffd5
00000212
fffffc8e
00000577
000001e7
00000253
000004c8
fffffdfa
00000175
0000031b
000005d8
00000175
0000058a
000000ef
00000534
00000107
000002cf
fffffed8
0000069a
000003b8
00000120
00000448
00000070
0000008f
0000013e
0000052c
00000238
00000172
0000025f
00000204
ffffff16
0000039a
00000182
fffffc0e
0000051f
00000397
fffffe13
ffffff8b
00000715
ffffffe2
000005b2
000002c3
0000042a
000000b4
00000463
000005db
ffffffff
0000044d
00000221
00000699
0000006a
000000ed
00000091
000006ec
00000024
00000223
000002c6
fffffcbe
00000159
0000011d
00000585
000003eb
000002fa
0000025a
ffffff7d
fffffd28
0000016c
0000016e
ffffff24
00000409
0000031e
00000191
000000b1
fffffb9c
000000c7
000000e0
00000087
0000031a
000003b2
fffffd83
fffff978
00000528
0000009a
000001aa
000001d3
000001e4
00000176
000009cf
000000dc
00000092
000003a3
000004d6
fffffdad
fffffffd
fffffd15
fffffe84
00000784
ffffffe4
000001b9
0000036a
0000040b
00000289
000003c0
fffffd89
00000319
fffffffa
00000727
000001aa
fffffddb
00000252
000001e1
0000010b
fffffe8d
00000441
0000002b
000003f4
00000100
00000296
00000365
000001a5
00000498
00000087
0000032f
000005b8
0000021b
0000022d
00000585
000004bd
000003e3
00000122
000000f0
000002a7
00000115
000003f6
000000ed
ffffffaf
fffffe40
